{"!": 33, "\"": 34, "#": 35, "$": 36, "%": 37, "&": 38, "'": 39, "(": 40, ")": 41, "*": 42, "+": 43, ",": 44, "-": 45, ".": 46, "/": 47, "0": 48, "1": 49, "2": 50, "3": 51, "4": 52, "5": 53, "6": 54, "7": 55, "8": 56, "9": 57, ":": 58, ";": 59, "<": 60, "=": 61, ">": 62, "?": 63, "@": 64, "A": 65, "B": 66, "C": 67, "D": 68, "E": 69, "F": 70, "G": 71, "H": 72, "I": 73, "J": 74, "K": 75, "L": 76, "M": 77, "N": 78, "O": 79, "P": 80, "Q": 81, "R": 82, "S": 83, "T": 84, "U": 85, "V": 86, "W": 87, "X": 88, "Y": 89, "Z": 90, "[": 91, "\\": 92, "]": 93, "^": 94, "_": 95, "`": 96, "a": 97, "b": 98, "c": 99, "d": 100, "e": 101, "f": 102, "g": 103, "h": 104, "i": 105, "j": 106, "k": 107, "l": 108, "m": 109, "n": 110, "o": 111, "p": 112, "q": 113, "r": 114, "s": 115, "t": 116, "u": 117, "v": 118, "w": 119, "x": 120, "y": 121, "z": 122, "{": 123, "|": 124, "}": 125, "~": 126, "\u00a1": 161, "\u00a2": 162, "\u00a3": 163, "\u00a4": 164, "\u00a5": 165, "\u00a6": 166, "\u00a7": 167, "\u00a8": 168, "\u00a9": 169, "\u00aa": 170, "\u00ab": 171, "\u00ac": 172, "\u00ae": 174, "\u00af": 175, "\u00b0": 176, "\u00b1": 177, "\u00b2": 178, "\u00b3": 179, "\u00b4": 180, "\u00b5": 181, "\u00b6": 182, "\u00b7": 183, "\u00b8": 184, "\u00b9": 185, "\u00ba": 186, "\u00bb": 187, "\u00bc": 188, "\u00bd": 189, "\u00be": 190, "\u00bf": 191, "\u00c0": 192, "\u00c1": 193, "\u00c2": 194, "\u00c3": 195, "\u00c4": 196, "\u00c5": 197, "\u00c6": 198, "\u00c7": 199, "\u00c8": 200, "\u00c9": 201, "\u00ca": 202, "\u00cb": 203, "\u00cc": 204, "\u00cd": 205, "\u00ce": 206, "\u00cf": 207, "\u00d0": 208, "\u00d1": 209, "\u00d2": 210, "\u00d3": 211, "\u00d4": 212, "\u00d5": 213, "\u00d6": 214, "\u00d7": 215, "\u00d8": 216, "\u00d9": 217, "\u00da": 218, "\u00db": 219, "\u00dc": 220, "\u00dd": 221, "\u00de": 222, "\u00df": 223, "\u00e0": 224, "\u00e1": 225, "\u00e2": 226, "\u00e3": 227, "\u00e4": 228, "\u00e5": 229, "\u00e6": 230, "\u00e7": 231, "\u00e8": 232, "\u00e9": 233, "\u00ea": 234, "\u00eb": 235, "\u00ec": 236, "\u00ed": 237, "\u00ee": 238, "\u00ef": 239, "\u00f0": 240, "\u00f1": 241, "\u00f2": 242, "\u00f3": 243, "\u00f4": 244, "\u00f5": 245, "\u00f6": 246, "\u00f7": 247, "\u00f8": 248, "\u00f9": 249, "\u00fa": 250, "\u00fb": 251, "\u00fc": 252, "\u00fd": 253, "\u00fe": 254, "\u00ff": 255, "\u0100": 0, "\u0101": 1, "\u0102": 2, "\u0103": 3, "\u0104": 4, "\u0105": 5, "\u0106": 6, "\u0107": 7, "\u0108": 8, "\u0109": 9, "\u010a": 10, "\u010b": 11, "\u010c": 12, "\u010d": 13, "\u010e": 14, "\u010f": 15, "\u0110": 16, "\u0111": 17, "\u0112": 18, "\u0113": 19, "\u0114": 20, "\u0115": 21, "\u0116": 22, "\u0117": 23, "\u0118": 24, "\u0119": 25, "\u011a": 26, "\u011b": 27, "\u011c": 28, "\u011d": 29, "\u011e": 30, "\u011f": 31, "\u0120": 32, "\u0121": 127, "\u0122": 128, "\u0123": 129, "\u0124": 130, "\u0125": 131, "\u0126": 132, "\u0127": 133, "\u0128": 134, "\u0129": 135, "\u012a": 136, "\u012b": 137, "\u012c": 138, "\u012d": 139, "\u012e": 140, "\u012f": 141, "\u0130": 142, "\u0131": 143, "\u0132": 144, "\u0133": 145, "\u0134": 146, "\u0135": 147, "\u0136": 148, "\u0137": 149, "\u0138": 150, "\u0139": 151, "\u013a": 152, "\u013b": 153, "\u013c": 154, "\u013d": 155, "\u013e": 156, "\u013f": 157, "\u0140": 158, "\u0141": 159, "\u0142": 160, "\u0143": 173, "<|endoftext|>": 256, "\u0120t": 257, "he": 258, "\u0120a": 259, "\u0120s": 260, "\u0120w": 261, "nd": 262, "\u0120the": 263, "ed": 264, "\u0120b": 265, "\u0120to": 266, "\u0120and": 267, "\u0120h": 268, "\u0120f": 269, "in": 270, "\u0120T": 271, "\u0120wa": 272, "re": 273, "it": 274, "ou": 275, "\u0120l": 276, "\u0120d": 277, "\u0120c": 278, "\u0120p": 279, "ay": 280, "\u0120m": 281, "er": 282, "\u0120was": 283, "om": 284, "\u0120The": 285, "\u0120he": 286, "is": 287, "ar": 288, "\u0120n": 289, "im": 290, "on": 291, "\u0120sa": 292, "id": 293, "ll": 294, "\u0120ha": 295, "\u0120g": 296, "at": 297, "\u0120S": 298, "ing": 299, "ot": 300, "en": 301, "an": 302, "le": 303, "or": 304, "ir": 305, "am": 306, "et": 307, "\u0120H": 308, "\u0120it": 309, "\u0120th": 310, "ig": 311, "\u0120They": 312, "\u0120in": 313, "il": 314, "\u0120pl": 315, "\u0120He": 316, "\u0120\"": 317, "ow": 318, "ver": 319, "ri": 320, "ut": 321, "\u0120be": 322, "\u0120u": 323, "\u0120said": 324, "\u0120play": 325, "ith": 326, "\u0120day": 327, "\u0120with": 328, "pp": 329, "On": 330, "\u0120o": 331, "\u0120y": 332, "oo": 333, "ked": 334, "\u0120r": 335, "\u0120her": 336, "ce": 337, "\u0120I": 338, "\u0120She": 339, "ld": 340, "\u0120Tim": 341, "\u0120his": 342, "\u0120st": 343, "ke": 344, "\u0120e": 345, "\u0120big": 346, "nt": 347, "ck": 348, "\u0120you": 349, "very": 350, "st": 351, "ve": 352, "end": 353, "\u0120on": 354, "un": 355, "\u0120happ": 356, "riend": 357, "\u0120friend": 358, "all": 359, "ily": 360, "\u0120L": 361, "\u0120they": 362, "\u0120we": 363, "\u0120had": 364, "\u0120not": 365, "\u0120li": 366, "\u0120up": 367, "her": 368, "\u0120want": 369, "\u0120of": 370, "ad": 371, "itt": 372, "se": 373, "\u0120B": 374, "\u0120do": 375, "\u0120happy": 376, "ent": 377, "\u0120very": 378, "\u0120M": 379, "es": 380, "\u0120that": 381, "\u0120saw": 382, "One": 383, "'s": 384, "ould": 385, "\u0120mom": 386, "\u0120for": 387, "\u0120sh": 388, "ittle": 389, "\u0120little": 390, "\u0120so": 391, "\u0120she": 392, "ch": 393, "ime": 394, "\u0120ne": 395, "\u0120nam": 396, ".\"": 397, "\u0120time": 398, "\u0120k": 399, "ound": 400, "\u0120there": 401, "\u0120named": 402, "\u0120sm": 403, "\u0120bo": 404, "\u0120were": 405, "\u0120Lily": 406, "\u0120wanted": 407, "\u0120but": 408, "out": 409, "The": 410, "\u0120friends": 411, "ved": 412, "!\"": 413, "ht": 414, "\u0120Tom": 415, "ird": 416, "el": 417, "\u0120bird": 418, "al": 419, "\u0120an": 420, "ake": 421, "\u0120too": 422, "ome": 423, "\u0120It": 424, "ug": 425, "ide": 426, "\u0120went": 427, "\u0120wh": 428, "\u0120hel": 429, "Once": 430, "\u0120is": 431, "\u0120all": 432, "\u0120help": 433, "ue": 434, "\u0120loo": 435, "\u0120lo": 436, "ter": 437, "\u0120A": 438, "\u0120upon": 439, "ry": 440, "ore": 441, "ind": 442, "\u0120fun": 443, "get": 444, "\u0120toy": 445, "ill": 446, "ame": 447, "\u0120as": 448, "\u0120at": 449, "ra": 450, "\u0120j": 451, "\u0120did": 452, "gether": 453, "\u0120re": 454, "ur": 455, "\u0120se": 456, "\u0120together": 457, "ack": 458, "\u0120cat": 459, "ly": 460, "\u0120tre": 461, "ood": 462, "ic": 463, "ted": 464, "\u0120dog": 465, "\u0120could": 466, "\u0120can": 467, "\u0120their": 468, "ard": 469, "ec": 470, "ark": 471, "\u0120gir": 472, "\u0120played": 473, "\u0120him": 474, "\u0120ball": 475, "?\"": 476, "\u0120girl": 477, "way": 478, "\u0120ro": 479, "\u0120go": 480, "hed": 481, "my": 482, "\u0120are": 483, "\u0120out": 484, "\u0120le": 485, "\u0120fr": 486, "ain": 487, "\u0120kn": 488, "hen": 489, "\u0120them": 490, "um": 491, "'t": 492, "ax": 493, "\u0120sad": 494, "ul": 495, "\u0120boy": 496, "\u0120tree": 497, "other": 498, "\u0120have": 499, "\u0120man": 500, "\u0120cl": 501, "\u0120loved": 502, "\u0120looked": 503, "oug": 504, "\u0120found": 505, "\u0120sp": 506, "\u0120star": 507, "\u0120Sue": 508, "one": 509, "hing": 510, "\u0120sc": 511, "\u0120back": 512, "own": 513, "\u0120Max": 514, "are": 515, "\u0120like": 516, "ful": 517, "side": 518, "\u0120me": 519, "\u0120bec": 520, "\u0120park": 521, "ight": 522, "ong": 523, "\u0120car": 524, "op": 525, "elt": 526, "\u0120One": 527, "\u0120liked": 528, "\u0120would": 529, "\u0120make": 530, "round": 531, "\u0120la": 532, "\u0120fa": 533, "\u0120felt": 534, "You": 535, "\u0120W": 536, "ell": 537, "\u0120see": 538, "\u0120But": 539, "omet": 540, "\u0120asked": 541, "ag": 542, "\u0120new": 543, "\u0120no": 544, "ice": 545, "\u0120Sam": 546, "ouse": 547, "\u0120started": 548, "ared": 549, "\u0120came": 550, "\u0120Ben": 551, "\u0120al": 552, "\u0120other": 553, "ought": 554, "iled": 555, "\u0120somet": 556, "\u0120ag": 557, "\u0120good": 558, "\u0120small": 559, "ss": 560, "\u0120br": 561, "\u0120smiled": 562, "\u0120say": 563, "ried": 564, "ade": 565, "ings": 566, "ob": 567, "pot": 568, "\u0120wor": 569, "\u0120find": 570, "\u0120ex": 571, "ia": 572, "\u0120away": 573, "ty": 574, "\u0120put": 575, "\u0120what": 576, "\u0120something": 577, "\u0120co": 578, "\u0120from": 579, "\u0120made": 580, "\u0120thought": 581, "ened": 582, "\u0120home": 583, "\u0120playing": 584, "ook": 585, "\u0120every": 586, "\u0120wal": 587, "\u0120mu": 588, "uc": 589, "ach": 590, "arn": 591, "\u0120Spot": 592, "\u0120ran": 593, "ile": 594, "\u0120F": 595, "ie": 596, "\u0120J": 597, "ave": 598, "\u0120again": 599, "\u0120some": 600, "\u0120laug": 601, "dd": 602, "\u0120house": 603, "\u0120down": 604, "\u0120fl": 605, "king": 606, "\u0120took": 607, "\u0120scared": 608, "\u0120pr": 609, "ny": 610, "ure": 611, "\u0120toys": 612, "\u0120learn": 613, "\u0120You": 614, "if": 615, "\u0120will": 616, "\u0120box": 617, "ick": 618, "ret": 619, "ab": 620, "ep": 621, "\u0120my": 622, "\u0120around": 623, "\u0120things": 624, "\u0120your": 625, "oud": 626, "\u0120bl": 627, "uck": 628, "\u0120when": 629, "ish": 630, "\u0120lived": 631, "\u0120fe": 632, "\u0120then": 633, "\u0120sun": 634, "as": 635, "\u0120sw": 636, ",\"": 637, "\u0120ch": 638, "us": 639, "pped": 640, "\u0120ab": 641, "\u0120Mia": 642, "ank": 643, "\u0120get": 644, "ucy": 645, "Tim": 646, "ump": 647, "Th": 648, "\u0120lot": 649, "ist": 650, "oth": 651, "\u0120tried": 652, "ap": 653, "\u0120know": 654, "\u0120says": 655, "\u0120got": 656, "ited": 657, "\u0120who": 658, "\u0120kne": 659, "ust": 660, "\u0120many": 661, "nder": 662, "\u0120int": 663, "\u0120about": 664, "Lily": 665, "\u0120pret": 666, "\u0120dec": 667, "\u0120any": 668, "\u0120red": 669, "\u0120D": 670, "ive": 671, "\u0120knew": 672, "ace": 673, "ous": 674, "\u0120more": 675, "ise": 676, "\u0120care": 677, "ally": 678, "\u0120pic": 679, "au": 680, "qu": 681, "\u0120hug": 682, "\u0120Lucy": 683, "\u0120learned": 684, "\u0120po": 685, "\u0120water": 686, "fter": 687, "\u0120v": 688, "\u0120became": 689, "\u0120best": 690, "ause": 691, "\u0120op": 692, "\u0120gre": 693, "\u0120exc": 694, "urp": 695, "ways": 696, "\u00e2\u0122": 697, "\u0120outside": 698, "\u0120laughed": 699, "\u0120look": 700, "\u0120always": 701, "\u0120decid": 702, "\u0120show": 703, "\u0120un": 704, "ant": 705, "\u0120Bob": 706, "\u0120room": 707, "fe": 708, "\u0120decided": 709, "\u0120ho": 710, "\u0120because": 711, "\u0120So": 712, "\u0120into": 713, "\u0120eat": 714, "ite": 715, "\u0120jump": 716, "\u0120And": 717, "\u0120pe": 718, "\u0120both": 719, "ers": 720, "\u0120Mom": 721, "\u0120dad": 722, "They": 723, "udd": 724, "\u0120ke": 725, "\u0120one": 726, "nn": 727, "\u0120this": 728, "\u0120excited": 729, "\u0120fast": 730, "\u0120nice": 731, "\u0120E": 732, "\u0120feel": 733, "Tom": 734, "Yes": 735, "\u0120run": 736, "\u0120long": 737, "\u0120told": 738, "\u0120sk": 739, "\u0120am": 740, "urpr": 741, "our": 742, "\u0120inside": 743, "ull": 744, "\u0120tr": 745, "\u0120surpr": 746, "\u0120mo": 747, "ink": 748, "\u0120pretty": 749, "iny": 750, "\u0120sor": 751, "Wh": 752, "\u0120take": 753, "og": 754, "\u0120sl": 755, "\u0120each": 756, "\u0120gave": 757, "\u0120much": 758, "\u0120gra": 759, "lew": 760, "nna": 761, "\u0120rock": 762, "\u0120how": 763, "\u0120str": 764, "ara": 765, "imal": 766, "\u0120animal": 767, "ged": 768, "\u0120need": 769, "\u0120than": 770, "But": 771, "ven": 772, "etter": 773, "\u0120tow": 774, "\u0120or": 775, "\u0120C": 776, "\u0120under": 777, "ess": 778, "\u0120old": 779, "\u0120sorry": 780, "ge": 781, "ised": 782, "ro": 783, "urt": 784, "\u0120cle": 785, "\u0120fish": 786, "\u0120walked": 787, "\u0120clo": 788, "and": 789, "\u0120bear": 790, "ft": 791, "ase": 792, "ast": 793, "\u0120hand": 794, "urn": 795, "\u0120We": 796, "\u0120kind": 797, "\u0120His": 798, "\u0120te": 799, "here": 800, "\u0120happened": 801, "\u0120just": 802, "\u0120flow": 803, "\u0120food": 804, "\u0120list": 805, "\u0120didn": 806, "\u0120animals": 807, "\u0120hig": 808, "pl": 809, "\u0120near": 810, "\u0120wat": 811, "\u0120ide": 812, "\u0120try": 813, "ched": 814, "\u0120sky": 815, "ine": 816, "\u0120sn": 817, "ving": 818, "\u0120fi": 819, "rom": 820, "\u0120us": 821, "\u0120idea": 822, "\u0120better": 823, "\u0120Amy": 824, "\u0120bug": 825, "\u0120heard": 826, "gry": 827, "\u0120its": 828, "\u0120tw": 829, "\u0120let": 830, "pec": 831, "ate": 832, "able": 833, "ff": 834, "\u0120en": 835, "\u0120careful": 836, "\u0120share": 837, "ex": 838, "\u0120if": 839, "Thank": 840, "Mom": 841, "\u0120fly": 842, "\u0120stor": 843, "ial": 844, "\u0120flew": 845, "more": 846, "\u0120anymore": 847, "\u0120Th": 848, "\u0120spec": 849, "\u0120special": 850, "ion": 851, "\u0120com": 852, "\u0120lots": 853, "\u0120never": 854, "\u0120by": 855, "lf": 856, "ream": 857, "\u0120dan": 858, "\u0120bu": 859, "\u0120fo": 860, "\u0120wind": 861, "\u0120don": 862, "\u0120tal": 863, "\u0120clean": 864, "ort": 865, "\u0120gr": 866, "\u0120love": 867, "rm": 868, "ber": 869, "\u0120end": 870, "\u010a\u010a": 871, "\u0120Then": 872, "ople": 873, "\u0120even": 874, "\u0120mag": 875, "\u0120hard": 876, "\u0120shiny": 877, "udden": 878, "\u0120fore": 879, "\u0120over": 880, "\u0120cake": 881, "ak": 882, "\u0120book": 883, "\u0120col": 884, "\u0120turn": 885, "\u0120fam": 886, "\u0120bad": 887, "\u0120safe": 888, "\u0120after": 889, "ady": 890, "\u0120Anna": 891, "uddenly": 892, "\u0120people": 893, "\u0120proud": 894, "\u0120Every": 895, "\u0120surprised": 896, "pected": 897, "Let": 898, "\u0120high": 899, "\u0120cu": 900, "\u0120hurt": 901, "\u0120come": 902, "imb": 903, "arden": 904, "\u0120door": 905, "\u0120garden": 906, "bb": 907, "\u0120ground": 908, "\u0120opened": 909, "\u0120picked": 910, "\u0120loud": 911, "\u0120climb": 912, "expected": 913, "\u0120unexpected": 914, "\u0120gl": 915, "\u0120che": 916, "ild": 917, "\u0120im": 918, "As": 919, "\u0120give": 920, "\u0120way": 921, "ail": 922, "'m": 923, "\u0120thanked": 924, "\u0120color": 925, "\u0120blue": 926, "\u0120still": 927, "\u0120ever": 928, "\u0120hugged": 929, "\u0120From": 930, "\u0120call": 931, "\u0120far": 932, "ip": 933, "\u0120Her": 934, "\u0120Sara": 935, "\u0120When": 936, "No": 937, "\u0120off": 938, "\u0120magic": 939, "iz": 940, "ough": 941, "age": 942, "ummy": 943, "\u0120K": 944, "\u0120jumped": 945, "\u0120should": 946, "\u0120family": 947, "\u0120par": 948, "ool": 949, "\u0120kid": 950, "\u0120smile": 951, "hes": 952, "uff": 953, "\u0120place": 954, "kay": 955, "\u0120walk": 956, "\u0120now": 957, "ct": 958, "\u0120In": 959, "\u0120great": 960, "em": 961, "ture": 962, "\u0120qu": 963, "les": 964, "\u0120strong": 965, "\u0120stay": 966, "\u0120unt": 967, "\u0120sto": 968, "aut": 969, "\u0120forest": 970, "ane": 971, "\u0120bra": 972, "itty": 973, "\u0120P": 974, "\u0120frog": 975, "\u0120bro": 976, "\u0120until": 977, "oon": 978, "\u0120beaut": 979, "dy": 980, "\u0120squ": 981, "\u0120stick": 982, "xt": 983, "\u0120next": 984, "\u0120boat": 985, "lease": 986, "ning": 987, "\u0120happily": 988, "\u0120listen": 989, "aking": 990, "\u0120kids": 991, "\u0120tra": 992, "ies": 993, "iful": 994, "\u0120beautiful": 995, "\u0120app": 996, "th": 997, "\u0120helped": 998, "\u0120dra": 999, "\u0120showed": 1000, "\u0120clos": 1001, "be": 1002, "\u0120imp": 1003, "\u0120story": 1004, "unny": 1005, "oy": 1006, "\u0120while": 1007, "\u0120town": 1008, "rel": 1009, "pt": 1010, "\u0120rain": 1011, "ress": 1012, "\u0120picture": 1013, "\u0120being": 1014, "\u0120rem": 1015, "\u0120everyone": 1016, "It": 1017, "ary": 1018, "ree": 1019, "\u0120mor": 1020, "\u0120hat": 1021, "\u0120called": 1022, "\u0120met": 1023, "\u0120stopped": 1024, "\u0120ad": 1025, "\u0120game": 1026, "Now": 1027, "He": 1028, "Can": 1029, "\u0120angry": 1030, "ger": 1031, "uffy": 1032, "\u0120open": 1033, "\u0120wo": 1034, "\u0120truck": 1035, "\u0120keep": 1036, "\u0120soft": 1037, "When": 1038, "\u0120cry": 1039, "\u0120yummy": 1040, "\u0120lost": 1041, "\u0120bed": 1042, "\u0120Let": 1043, "\u0120Sally": 1044, "\u0120warm": 1045, "by": 1046, "vent": 1047, "\u0120brave": 1048, "\u0120mouse": 1049, "\u0120Wh": 1050, "\u0120ate": 1051, "\u0120Kitty": 1052, "ished": 1053, "\u0120de": 1054, "fore": 1055, "\u0120doll": 1056, "so": 1057, "\u0120couldn": 1058, "\u0120watch": 1059, "\u0120leave": 1060, "\u0120also": 1061, "dded": 1062, "\u0120fell": 1063, "\u0120green": 1064, "\u0120face": 1065, "\u0120two": 1066, "gan": 1067, "iss": 1068, "\u0120flowers": 1069, "bit": 1070, "What": 1071, "\u0120R": 1072, "ble": 1073, "\u0120noise": 1074, "abbit": 1075, "irst": 1076, "owl": 1077, "\u0120where": 1078, "az": 1079, "ock": 1080, "\u0120soon": 1081, "self": 1082, "\u0120slide": 1083, "\u0120rabbit": 1084, "\u0120hole": 1085, "luffy": 1086, "\u0120before": 1087, "irrel": 1088, "\u0120pus": 1089, "ired": 1090, "\u0120sat": 1091, "illy": 1092, "\u0120hear": 1093, "\u0120use": 1094, "\u00e2\u0122\u013f": 1095, "Hi": 1096, "\u0120pa": 1097, "\u0120kept": 1098, "\u00e2\u0122\u013e": 1099, "That": 1100, "\u0120squirrel": 1101, "ear": 1102, "Then": 1103, "ma": 1104, "\u0120nodded": 1105, "\u0120expl": 1106, "\u0120store": 1107, "\u0120cook": 1108, "\u0120hands": 1109, "Look": 1110, "\u0120birds": 1111, "\u0120pain": 1112, "\u0120going": 1113, "\u0120funny": 1114, "\u0120having": 1115, "day": 1116, "\u0120sing": 1117, "aybe": 1118, "uch": 1119, "\u0120ey": 1120, "aug": 1121, "\u0120catch": 1122, "aught": 1123, "\u0120Can": 1124, "\u0120Fluffy": 1125, "uit": 1126, "\u0120yell": 1127, "\u0120think": 1128, "leep": 1129, "\u0120cra": 1130, "\u0120fin": 1131, "Ben": 1132, "\u0120bre": 1133, "\u0120fix": 1134, "\u0120tired": 1135, "\u0120bunny": 1136, "\u0120used": 1137, "\u0120looking": 1138, "\u0120bus": 1139, "ange": 1140, "air": 1141, "\u0120work": 1142, "\u0120wr": 1143, "\u0120our": 1144, "\u0120pull": 1145, "We": 1146, "\u0120thr": 1147, "thing": 1148, "\u0120Now": 1149, "\u0120wait": 1150, "\u0120kit": 1151, "\u0120sound": 1152, "ting": 1153, "\u0120jo": 1154, "\u0120has": 1155, "\u0120G": 1156, "\u0120mean": 1157, "\u0120pond": 1158, "ember": 1159, "\u0120beh": 1160, "\u0120dr": 1161, "\u0120sunny": 1162, "led": 1163, "\u0120others": 1164, "\u0120ask": 1165, "ng": 1166, "chen": 1167, "\u0120kitchen": 1168, "\u0120talk": 1169, "\u0120flo": 1170, "\u0120dif": 1171, "rew": 1172, "\u0120pie": 1173, "\u0120Jo": 1174, "\u0120head": 1175, "\u0120real": 1176, "\u0120first": 1177, "\u0120tri": 1178, "\u0120mommy": 1179, "\u0120eyes": 1180, "ello": 1181, "\u0120import": 1182, "Hello": 1183, "\u0120fav": 1184, "ath": 1185, "joy": 1186, "\u0120z": 1187, "\u0120remember": 1188, "\u0120right": 1189, "\u0120flower": 1190, "\u0120con": 1191, "\u0120mess": 1192, "\u0120party": 1193, "\u0120cold": 1194, "\u0120Do": 1195, "\u0120vo": 1196, "\u0120swe": 1197, "ious": 1198, "\u0120sand": 1199, "\u0120\u00e2\u0122\u013e": 1200, "ac": 1201, "orn": 1202, "\u0120race": 1203, "\u0120curi": 1204, "imes": 1205, "\u0120important": 1206, "\u0120duck": 1207, "\u0120moral": 1208, "\u0120shared": 1209, "zy": 1210, "ount": 1211, "\u0120Jack": 1212, "\u0120ice": 1213, "\u0120okay": 1214, "\u0120advent": 1215, "\u0120worked": 1216, "llow": 1217, "At": 1218, "\u0120enjoy": 1219, "\u0120dress": 1220, "\u0120bright": 1221, "\u0120making": 1222, "\u0120curious": 1223, "\u0120own": 1224, "ded": 1225, "\u0120tall": 1226, "\u0120dir": 1227, "\u0120hop": 1228, "reed": 1229, "\u0120hid": 1230, "\u0120favor": 1231, "\u0120ri": 1232, "hn": 1233, "\u0120sleep": 1234, "\u0120dis": 1235, "Wow": 1236, "\u0120favorite": 1237, "\u0120thing": 1238, "\u0120began": 1239, "\u0120mon": 1240, "\u0120bag": 1241, "\u0120hill": 1242, "Don": 1243, "\u0120cla": 1244, "\u0120draw": 1245, "\u0120rest": 1246, "\u0120here": 1247, "\u0120yard": 1248, "\u0120tell": 1249, "\u0120Fin": 1250, "ster": 1251, "\u0120watched": 1252, "que": 1253, "\u0120follow": 1254, "\u0120move": 1255, "\u0120bel": 1256, "ect": 1257, "\u0120cut": 1258, "\u0120night": 1259, "\u0120agreed": 1260, "\u0120pick": 1261, "co": 1262, "\u0120block": 1263, "\u0120hun": 1264, "aper": 1265, "lly": 1266, "\u0120stop": 1267, "\u0120behind": 1268, "\u0120This": 1269, "\u0120surprise": 1270, "ied": 1271, "\u0120sho": 1272, "\u0120hot": 1273, "After": 1274, "\u0120table": 1275, "\u0120grass": 1276, "\u0120worry": 1277, "\u0120dark": 1278, "\u0120trees": 1279, "\u0120voice": 1280, "\u0120walking": 1281, "ede": 1282, "fere": 1283, "\u0120floor": 1284, "\u0120farm": 1285, "\u0120lion": 1286, "\u0120top": 1287, "\u0120differe": 1288, "\u0120please": 1289, "\u0120ru": 1290, "\u0120song": 1291, "\u0120butter": 1292, "\u0120tail": 1293, "\u0120sweet": 1294, "Max": 1295, "\u0120shout": 1296, "\u0120colors": 1297, "\u0120read": 1298, "\u0120Dad": 1299, "\u0120lady": 1300, "\u0120forg": 1301, "isy": 1302, "\u0120leaves": 1303, "\u0120closer": 1304, "ign": 1305, "\u0120cars": 1306, "\u0120turned": 1307, "\u0120needed": 1308, "\u0120tast": 1309, "Why": 1310, "aring": 1311, "\u0120wood": 1312, "\u0120cried": 1313, "\u0120different": 1314, "\u0120laugh": 1315, "\u0120del": 1316, "\u0120piece": 1317, "\u00e2\u0122\u013b": 1318, "ered": 1319, "\u0120Mr": 1320, "\u0120roll": 1321, "\u0120adventure": 1322, "\u0120fire": 1323, "\u0120does": 1324, "ike": 1325, "\u0120cr": 1326, "\u0120hungry": 1327, "\u0120hair": 1328, "\u0120Suddenly": 1329, "\u0120paper": 1330, "\u0120feeling": 1331, "\u0120yellow": 1332, "\u0120full": 1333, "\u0120prin": 1334, "bo": 1335, "Sue": 1336, "\u0120touch": 1337, "\u0120As": 1338, "Anna": 1339, "Sam": 1340, "\u0120wet": 1341, "\u0120friendly": 1342, "\u0120per": 1343, "oom": 1344, "ken": 1345, "cked": 1346, "ached": 1347, "\u0120swing": 1348, "\u0120fruit": 1349, "ient": 1350, "\u0120broken": 1351, "\u0120ready": 1352, "bye": 1353, "ppy": 1354, "\u0120prom": 1355, "\u0120That": 1356, "\u0120another": 1357, "\u0120light": 1358, "\u0120pretend": 1359, "\u0120dance": 1360, "ater": 1361, "\u0120climbed": 1362, "where": 1363, "\u0120listened": 1364, "\u0120Bobo": 1365, "\u0120danc": 1366, "\u0120running": 1367, "\u0120only": 1368, "\u0120plan": 1369, "\u0120gone": 1370, "\u0120swim": 1371, "bbed": 1372, "Suddenly": 1373, "sh": 1374, "\u0120train": 1375, "ila": 1376, "ndma": 1377, "Sara": 1378, "\u0120Jane": 1379, "\u0120close": 1380, "av": 1381, "She": 1382, "\u0120smell": 1383, "So": 1384, "aby": 1385, "\u0120amaz": 1386, "\u0120hold": 1387, "\u0120blocks": 1388, "\u0120wonder": 1389, "\u0120Timmy": 1390, "\u0120repl": 1391, "\u0120All": 1392, "\u0120butterf": 1393, "\u0120sees": 1394, "\u0120reached": 1395, "\u0120wall": 1396, "\u0120pu": 1397, "oney": 1398, "red": 1399, "\u0120slow": 1400, "\u0120helping": 1401, "\u0120dri": 1402, "\u0120cream": 1403, "\u0120cool": 1404, "\u0120glad": 1405, "af": 1406, "\u0120ant": 1407, "\u0120less": 1408, "ging": 1409, "\u0120been": 1410, "\u0120goodbye": 1411, "\u0120ac": 1412, "\u0120fight": 1413, "ather": 1414, "Mia": 1415, "\u0120pushed": 1416, "iced": 1417, "\u0120fair": 1418, "\u0120must": 1419, "\u0120hide": 1420, "\u0120moment": 1421, "\u0120window": 1422, "\u0120O": 1423, "\u0120sit": 1424, "\u0120balloon": 1425, "\u0120snow": 1426, "\u0120child": 1427, "\u0120explore": 1428, "\u0120Everyone": 1429, "\u0120ar": 1430, "\u0120wished": 1431, "\u0120baby": 1432, "\u0120done": 1433, "\u0120wag": 1434, "\u0120ste": 1435, "\u0120buy": 1436, "\u0120stuck": 1437, "\u0120perf": 1438, "\u0120thank": 1439, "\u0120might": 1440, "icy": 1441, "\u0120name": 1442, "ized": 1443, "\u0120trying": 1444, "\u0120bit": 1445, "\u0120coming": 1446, "\u0120bar": 1447, "\u0120quick": 1448, "\u0120fall": 1449, "\u0120apple": 1450, "ash": 1451, "\u0120scary": 1452, "\u0120looks": 1453, "\u0120build": 1454, "\u0120doing": 1455, "\u0120win": 1456, "\u0120underst": 1457, "aisy": 1458, "\u0120din": 1459, "\u0120dream": 1460, "\u0120dirty": 1461, "\u0120held": 1462, "ames": 1463, "\u0120books": 1464, "\u0120mar": 1465, "In": 1466, "\u0120butterfly": 1467, "\u0120left": 1468, "\u0120shouted": 1469, "\u0120count": 1470, "\u0120replied": 1471, "avy": 1472, "\u0120reach": 1473, "\u0120tiny": 1474, "\u0120through": 1475, "ott": 1476, "\u0120dro": 1477, "\u0120why": 1478, "\u0120air": 1479, "\u0120bran": 1480, "\u0120land": 1481, "key": 1482, "\u0120three": 1483, "\u0120pulled": 1484, "\u0120spl": 1485, "\u0120grow": 1486, "\u0120treat": 1487, "\u0120brother": 1488, "\u0120wise": 1489, "\u0120woods": 1490, "\u0120sure": 1491, "'re": 1492, "\u0120chair": 1493, "ix": 1494, "\u0120mat": 1495, "ins": 1496, "\u0120seen": 1497, "\u0120pink": 1498, "\u0120clapped": 1499, "\u0120plant": 1500, "ely": 1501, "\u0120owl": 1502, "\u0120cup": 1503, "ield": 1504, "\u0120sometimes": 1505, "andy": 1506, "\u0120fill": 1507, "\u0120cloud": 1508, "ask": 1509, "\u0120swam": 1510, "outh": 1511, "\u0120job": 1512, "\u0120colorful": 1513, "\u0120remembered": 1514, "\u0120bigger": 1515, "\u0120nest": 1516, "\u0120mouth": 1517, "pe": 1518, "Okay": 1519, "\u0120lesson": 1520, "\u0120join": 1521, "\u0120cre": 1522, "ph": 1523, "\u0120There": 1524, "oup": 1525, "room": 1526, "art": 1527, "\u0120waved": 1528, "uddy": 1529, "\u0120grabbed": 1530, "\u0120stayed": 1531, "Oh": 1532, "\u0120paint": 1533, "This": 1534, "\u0120clot": 1535, "\u0120cont": 1536, "\u0120clothes": 1537, "\u0120ve": 1538, "ower": 1539, "\u0120After": 1540, "\u0120waited": 1541, "\u0120quickly": 1542, "cle": 1543, "\u0120word": 1544, "\u0120broke": 1545, "ucky": 1546, "\u0120games": 1547, "\u0120cast": 1548, "\u0120blew": 1549, "\u0120gent": 1550, "\u0120Mommy": 1551, "\u0120enjoyed": 1552, "\u0120noticed": 1553, "Jo": 1554, "ries": 1555, "ation": 1556, "\u0120set": 1557, "\u0120likes": 1558, "\u0120pictures": 1559, "ton": 1560, "\u0120sea": 1561, "\u0120heavy": 1562, "\u0120mus": 1563, "\u0120alone": 1564, "\u0120gif": 1565, "asure": 1566, "\u0120anything": 1567, "\u0120spot": 1568, "\u0120miss": 1569, "\u0120hopped": 1570, "\u0120world": 1571, "\u0120turns": 1572, "orm": 1573, "\u0120year": 1574, "der": 1575, "\u0120bott": 1576, "\u0120pat": 1577, "\u0120pot": 1578, "\u0120pen": 1579, "lc": 1580, "Her": 1581, "\u0120mix": 1582, "\u0120arm": 1583, "\u0120bike": 1584, "\u0120tight": 1585, "\u0120everywhere": 1586, "\u0120won": 1587, "Lucy": 1588, "\u0120tower": 1589, "\u0120threw": 1590, "\u0120himself": 1591, "\u0120followed": 1592, "\u0120Buddy": 1593, "\u0120ride": 1594, "man": 1595, "less": 1596, "\u0120ju": 1597, "\u0120je": 1598, "amp": 1599, "Bob": 1600, "ape": 1601, "\u0120comp": 1602, "\u0120key": 1603, "row": 1604, "\".": 1605, "\u0120white": 1606, "ctor": 1607, "\u0120wrong": 1608, "ini": 1609, "\u0120Daisy": 1610, "\u0120makes": 1611, "\u0120What": 1612, "\u0120break": 1613, "\u0120black": 1614, "arent": 1615, "ee": 1616, "ner": 1617, "Spot": 1618, "Do": 1619, "\u0120deep": 1620, "thy": 1621, "\u0120music": 1622, "\u0120pol": 1623, "\u0120delic": 1624, "nin": 1625, "cess": 1626, "ued": 1627, "\u0120forgot": 1628, "\u0120bee": 1629, "\u0120parent": 1630, "\u0120castle": 1631, "ves": 1632, "olly": 1633, "\u0120em": 1634, "ingin": 1635, "iet": 1636, "\u0120wear": 1637, "\u0120hit": 1638, "ister": 1639, "oun": 1640, "\u0120quiet": 1641, "\u0120round": 1642, "ance": 1643, "\u0120stu": 1644, "\u0120danced": 1645, "\u0120vis": 1646, "ully": 1647, "\u0120wants": 1648, "\u0120leaf": 1649, "\u0120monster": 1650, "\u0120nap": 1651, "\u0120John": 1652, "\u0120understand": 1653, "\u0120bowl": 1654, "os": 1655, "rot": 1656, "ren": 1657, "\u0120bor": 1658, "\u0120talked": 1659, "itten": 1660, "\u0120dry": 1661, "\u0120faster": 1662, "\u0120cookies": 1663, "\u0120brought": 1664, "fully": 1665, "\u0120leg": 1666, "ross": 1667, "\u0120mum": 1668, "zz": 1669, "\u0120side": 1670, "ts": 1671, "From": 1672, "\u0120sign": 1673, "\u0120Inside": 1674, "\u0120smart": 1675, "ang": 1676, "cy": 1677, "\u0120rocks": 1678, "\u0120someone": 1679, "His": 1680, "\u0120poin": 1681, "\u0120sec": 1682, "\u0120sharing": 1683, "\u0120fox": 1684, "\u0120well": 1685, "\u0120res": 1686, "\u0120rel": 1687, "\u0120happen": 1688, "\u0120button": 1689, "\u0120branch": 1690, "\u0120Lila": 1691, "\u0120really": 1692, "\u0120finished": 1693, "ence": 1694, "ards": 1695, "\u0120dinner": 1696, "\u0120sister": 1697, "\u0120flying": 1698, "eddy": 1699, "\u0120contin": 1700, "\u0120worried": 1701, "\u0120ele": 1702, "\u0120To": 1703, "\u0120visit": 1704, "\u0120Maybe": 1705, "\u0120beach": 1706, "\u0120que": 1707, "\u0120secret": 1708, "\u0120el": 1709, "\u0120Sarah": 1710, "\u0120king": 1711, "John": 1712, "gy": 1713, "\u0120today": 1714, "\u0120perfect": 1715, "\u0120river": 1716, "\u0120everything": 1717, "\u0120silly": 1718, "\u0120Joe": 1719, "\u0120danger": 1720, "ipp": 1721, "\u0120children": 1722, "\u0120gu": 1723, "\u0120Soon": 1724, "\u0120field": 1725, "\u0120filled": 1726, "\u0120fur": 1727, "\u0120else": 1728, "\u0120smiles": 1729, "\u0120welc": 1730, "\u0120At": 1731, "\u0120shin": 1732, "\u0120wish": 1733, "\u0120Em": 1734, "While": 1735, "\u0120sang": 1736, "\u0120gi": 1737, "ze": 1738, "\u0120pudd": 1739, "\u0120snack": 1740, "\u0120eating": 1741, "\u0120realized": 1742, "\u0120pieces": 1743, "\u0120promised": 1744, "\u0120spr": 1745, "\u0120pig": 1746, "\u0120free": 1747, "\u0120continued": 1748, "\u0120bite": 1749, "ead": 1750, "\u0120parents": 1751, "\u0120carefully": 1752, "ated": 1753, "itting": 1754, "\u0120ear": 1755, "Just": 1756, "\u0120jar": 1757, "Maybe": 1758, "\u0120cow": 1759, "Amy": 1760, "\u0120blank": 1761, "\u0120drag": 1762, "stead": 1763, "\u0120orange": 1764, "\u0120mud": 1765, "\u0120crying": 1766, "\u0120blanket": 1767, "\u0120enough": 1768, "\u0120rolled": 1769, "cket": 1770, "\u0120soup": 1771, "\u0120sail": 1772, "\u0120purp": 1773, "imi": 1774, "\u0120yes": 1775, "ale": 1776, "\u0120drink": 1777, "\u0120snake": 1778, "ses": 1779, "\u0120boun": 1780, "\u0120pet": 1781, "\u0120crab": 1782, "\u0120throw": 1783, "\u0120laughing": 1784, "\u0120fairy": 1785, "\u0120words": 1786, "\u0120amazing": 1787, "\u0120bath": 1788, "ich": 1789, "\u0120purple": 1790, "\u0120Z": 1791, "\u0120without": 1792, "ire": 1793, "ana": 1794, "\u0120bottle": 1795, "ord": 1796, "\u0120Billy": 1797, "\u0120gift": 1798, "\u0120grandma": 1799, "Fin": 1800, "used": 1801, "ons": 1802, "\u0120past": 1803, "\u0120money": 1804, "iver": 1805, "fort": 1806, "\u0120mail": 1807, "\u0120Gra": 1808, "\u0120barked": 1809, "\u0120wagged": 1810, "\u0120att": 1811, "chool": 1812, "\u0120monkey": 1813, "\u0120doctor": 1814, "unch": 1815, "\u0120brown": 1816, "\u0120moved": 1817, "ises": 1818, "\u0120asks": 1819, "\u0120getting": 1820, "\u0120closed": 1821, "\u0120whe": 1822, "\u0120welcome": 1823, "\u0120su": 1824, "\u0120candy": 1825, "\u0120school": 1826, "\u0120morning": 1827, "\u0120owner": 1828, "\u0120lon": 1829, "\u0120mother": 1830, "\u0120higher": 1831, "\u0120sitting": 1832, "\u0120treasure": 1833, ".\u00e2\u0122\u013f": 1834, "\u0120smo": 1835, "!\u00e2\u0122\u013f": 1836, "gg": 1837, "\u0120dangerous": 1838, "\u0120lonely": 1839, "\u0120Ch": 1840, "\u0120living": 1841, "\u0120apples": 1842, "ush": 1843, "\u0120shop": 1844, "ased": 1845, "\u0120strange": 1846, "vel": 1847, "\u0120shining": 1848, "\u0120road": 1849, "ere": 1850, "\u0120Tommy": 1851, "\u0120creat": 1852, "una": 1853, "\u0120paw": 1854, "ey": 1855, "\u0120ra": 1856, "\u0120shoes": 1857, "\u0120pre": 1858, "ible": 1859, "\u0120-": 1860, "\u0120stre": 1861, "\u0120talking": 1862, "althy": 1863, "\u0120caught": 1864, "\u0120egg": 1865, "ol": 1866, "\u0120pass": 1867, "\u0120lake": 1868, "\u0120runs": 1869, "\u0120buck": 1870, "\u0120letter": 1871, "\u0120wings": 1872, "\u0120chee": 1873, "fish": 1874, "\u0120mad": 1875, "\u0120fan": 1876, "asket": 1877, "\u0120basket": 1878, "ass": 1879, "\u0120dragon": 1880, "app": 1881, "est": 1882, "Mommy": 1883, "set": 1884, "cks": 1885, "\u0120stone": 1886, "\u0120thinks": 1887, "\u0120stand": 1888, "\u0120delicious": 1889, "\u0120nose": 1890, "\u0120puddle": 1891, "\u0120tom": 1892, "\u0120Bl": 1893, "\u0120Mimi": 1894, "\u0120belie": 1895, "\u0120sam": 1896, "\u0120farmer": 1897, "\u0120same": 1898, "\u0120years": 1899, "board": 1900, "\u0120teddy": 1901, "\u0120bat": 1902, "isk": 1903, "itch": 1904, "\u0120mine": 1905, "\u0120sear": 1906, "\u0120coat": 1907, "ches": 1908, "igh": 1909, "\u0120days": 1910, "\u0120bring": 1911, "\u0120gentle": 1912, "\u0120fit": 1913, "\u0120start": 1914, "\u0120finally": 1915, "\u0120whist": 1916, "\u0120cray": 1917, "\u0120scream": 1918, "\u0120kite": 1919, "\u0120pill": 1920, "phant": 1921, "arm": 1922, "\u0120vill": 1923, "gly": 1924, "\u0120cho": 1925, "\u0120singing": 1926, "ella": 1927, "sw": 1928, "ined": 1929, "\u0120tasty": 1930, "\u0120ph": 1931, "\u0120ben": 1932, "\u0120trou": 1933, "\u0120shell": 1934, "\u0120herself": 1935, "\u0120hoped": 1936, "\u0120answ": 1937, "\u0120wore": 1938, "\u0120swings": 1939, "sy": 1940, "\u0120hor": 1941, "\u0120belong": 1942, "Please": 1943, "\u0120push": 1944, "\u0120bush": 1945, "iskers": 1946, "\u0120carrot": 1947, "\u0120arri": 1948, "aughty": 1949, "\u0120teach": 1950, "bow": 1951, "ract": 1952, "\u0120naughty": 1953, "\u0120elephant": 1954, "\u0120dropped": 1955, "\u0120shap": 1956, "\u0120coll": 1957, "sc": 1958, "\u0120teac": 1959, "emy": 1960, "\u0120woke": 1961, "ball": 1962, "\u0120pile": 1963, "\u0120hiding": 1964, "\u0120cour": 1965, "isa": 1966, "erry": 1967, "\u0120touc": 1968, "\u0120puppy": 1969, "'ll": 1970, "\u0120seem": 1971, "ier": 1972, "llie": 1973, "\u0120min": 1974, "\u0120twins": 1975, "ama": 1976, "\u0120lunch": 1977, "\u0120bow": 1978, "\u0120sack": 1979, "\u0120pers": 1980, "\u0120course": 1981, "\u0120cheered": 1982, "\u0120shapes": 1983, "\u0120Jen": 1984, "\u0120grew": 1985, "fused": 1986, "\u0120rope": 1987, "\u0120village": 1988, "irth": 1989, "irthday": 1990, "\u0120juice": 1991, "ipped": 1992, "\u0120rainbow": 1993, "\u0120spin": 1994, "OK": 1995, "\u0120shook": 1996, "Jack": 1997, "\u0120spoon": 1998, "\u0120bench": 1999, "\u0120street": 2000, "\u0120fence": 2001, "\u0120Fred": 2002, "\u0120rob": 2003, "\u0120nut": 2004, "\u0120cheese": 2005, "\u0120prob": 2006, "\u0120cute": 2007, "\u0120touched": 2008, "idge": 2009, "col": 2010, "\u0120joy": 2011, "\u0120Whiskers": 2012, "\u0120arrived": 2013, "\u0120seed": 2014, "\u0120war": 2015, "\u0120teacher": 2016, "\u0120corn": 2017, "Good": 2018, "\u0120forever": 2019, "\u0120able": 2020, "\u0120bell": 2021, "\u0120few": 2022, "\u0120carry": 2023, "\u0120most": 2024, "\u0120plane": 2025, "\u0120Blue": 2026, "lem": 2027, "\u0120eas": 2028, "\u0120sounds": 2029, "lla": 2030, "\u0120des": 2031, "\u0120spo": 2032, "\u0120problem": 2033, "\u0120birthday": 2034, "\u0120power": 2035, "\u0120inc": 2036, "umb": 2037, "br": 2038, "\u010a\u0120": 2039, "\u0120bugs": 2040, "ilk": 2041, "\u0120wonderful": 2042, "\u0120dolls": 2043, "\u0120busy": 2044, "ato": 2045, "irp": 2046, "eb": 2047, "\u0120wra": 2048, "\u0120promise": 2049, "\u0120Thank": 2050, "\u0120feels": 2051, "\u0120Emma": 2052, "eter": 2053, "\u0120bread": 2054, "\u0120neck": 2055, "Finally": 2056, "\u0120milk": 2057, "\u0120robot": 2058, "\u0120rec": 2059, "ian": 2060, "\u0120shy": 2061, "ountain": 2062, "\u0120kiss": 2063, "irt": 2064, "\u0120heart": 2065, "\u0120band": 2066, "\u0120cave": 2067, "\u0120pocket": 2068, "ub": 2069, "\u0120helpful": 2070, "\u0120slowly": 2071, "\u0120believe": 2072, "\u0120shake": 2073, "umpy": 2074, "eared": 2075, "\u0120patient": 2076, "\u0120pop": 2077, "\u0120ob": 2078, "arp": 2079, "\u0120live": 2080, "\u0120storm": 2081, "\u0120holding": 2082, "\u0120ugly": 2083, "\u0120towards": 2084, "\u0120upset": 2085, "\u0120turt": 2086, "\u0120shr": 2087, "adow": 2088, "\u0120cover": 2089, "\u0120kitten": 2090, "ost": 2091, "\u0120Remy": 2092, "\u0120sharp": 2093, "\u0120disapp": 2094, "\u0120stories": 2095, "\u0120suc": 2096, "\u0120honey": 2097, "ove": 2098, "\u0120Bella": 2099, "read": 2100, "\u0120noises": 2101, "\u0120Le": 2102, "\u0120cir": 2103, "\u0120balls": 2104, "\u0120spark": 2105, "\u0120gray": 2106, "\u0120dist": 2107, "\u0120dirt": 2108, "oggy": 2109, "\u0120late": 2110, "\u0120driver": 2111, "gle": 2112, "\u0120seat": 2113, "\u0120bucket": 2114, "\u0120meet": 2115, "\u0120young": 2116, "\u0120amazed": 2117, "alm": 2118, "\u0120turtle": 2119, "\u0120spid": 2120, "\u0120treats": 2121, "\u0120magical": 2122, "unt": 2123, "ator": 2124, "\u0120glow": 2125, "\u0120seek": 2126, "\u0120zoom": 2127, "\u0120lem": 2128, "\u0120sandw": 2129, "fortable": 2130, "umber": 2131, "\u0120trip": 2132, "\u0120mist": 2133, "ourn": 2134, "\u0120splas": 2135, "\u0120mark": 2136, "\u0120journ": 2137, "\u0120fold": 2138, "\u0120mach": 2139, "\u0120puzz": 2140, "\u0120part": 2141, "ling": 2142, "\u0120horse": 2143, "\u0120organ": 2144, "\u0120wild": 2145, "\u0120princess": 2146, "pping": 2147, "oose": 2148, "\u0120cookie": 2149, "Sure": 2150, "ens": 2151, "\u0120hugs": 2152, "\u0120Mark": 2153, "\u0120taking": 2154, "\u0120wheel": 2155, "epend": 2156, "\u0120cloth": 2157, "\u0120Lisa": 2158, "\u0120sug": 2159, "\u0120instead": 2160, "\u0120bubb": 2161, "\u0120string": 2162, "\u0120rud": 2163, "\u0120net": 2164, "\u0120drove": 2165, "iling": 2166, "\u0120rude": 2167, "\u0120huge": 2168, "\u0120Jim": 2169, "\u0120coin": 2170, "\u0120stars": 2171, "\u0120fighting": 2172, "\u0120spicy": 2173, "\u0120lucky": 2174, "Be": 2175, "Of": 2176, "\u0120craw": 2177, "Hey": 2178, "\u0120bone": 2179, "\u0120inv": 2180, "\u0120Grandma": 2181, "ors": 2182, "not": 2183, "\u0120ca": 2184, "pper": 2185, "\u0120forget": 2186, "up": 2187, "\u0120di": 2188, "aur": 2189, "\u0120sal": 2190, "\u0120Finally": 2191, "\u0120cannot": 2192, "\u0120whistle": 2193, "\u0120card": 2194, "\u0120sick": 2195, "\u0120path": 2196, "\u0120cou": 2197, "\u0120spider": 2198, "\u0120wide": 2199, "Lila": 2200, "\u0120foot": 2201, "\u0120snowman": 2202, "\u0120songs": 2203, "\u0120life": 2204, "\u0120pillow": 2205, "ize": 2206, "ular": 2207, "\u0120Just": 2208, "Later": 2209, "\u0120Ann": 2210, "ert": 2211, "\u0120fixed": 2212, "\u0120giant": 2213, "oph": 2214, "rill": 2215, "\u0120nod": 2216, "\u0120boss": 2217, "\u0120last": 2218, "\u0120comes": 2219, "\u0120joke": 2220, "\u0120moon": 2221, "\u0120taste": 2222, "\u0120machine": 2223, "\u0120grumpy": 2224, "den": 2225, "\u0120wave": 2226, "\u0120thin": 2227, "\u0120drive": 2228, "\u0120cart": 2229, "\u0120ash": 2230, "\u0120ser": 2231, "\u0120grab": 2232, "\u0120peace": 2233, "lower": 2234, "\u0120daddy": 2235, "\u0120On": 2236, "\u0120Leo": 2237, "ery": 2238, "\u0120sel": 2239, "\u0120shelf": 2240, "\u0120hidden": 2241, "erest": 2242, "\u0120suddenly": 2243, "\u0120wasn": 2244, "\u0120write": 2245, "\u0120landed": 2246, "\u0120confused": 2247, "\u0120ring": 2248, "\u0120change": 2249, "\u0120worm": 2250, "\u0120interest": 2251, "\u0120chased": 2252, "oop": 2253, "\u0120fruits": 2254, "\u0120sour": 2255, "ity": 2256, "\u0120myster": 2257, "\u0120bark": 2258, "\u0120rad": 2259, "\u0120smooth": 2260, "\u0120Come": 2261, "\u0120adventures": 2262, "\u0120val": 2263, "\u0120stepped": 2264, "\u0120fle": 2265, "ope": 2266, "\u0120oven": 2267, "\u0120takes": 2268, "\u0120missed": 2269, "\u0120selfish": 2270, "kin": 2271, "\u0120sheep": 2272, "\u0120messy": 2273, "To": 2274, "\u0120across": 2275, "\u0120ban": 2276, "\u0120ent": 2277, "\u0120exp": 2278, "to": 2279, "\u0120ce": 2280, "\u0120later": 2281, "elly": 2282, "\u0120N": 2283, "ife": 2284, "\u0120sticks": 2285, "\u0120tie": 2286, "St": 2287, "ever": 2288, "\u0120Luna": 2289, "\u0120step": 2290, "\u0120bought": 2291, "\u0120drew": 2292, "\u0120tea": 2293, "pect": 2294, "irpy": 2295, "box": 2296, "?\u00e2\u0122\u013f": 2297, "\u0120wash": 2298, "\u0120lay": 2299, "\u0120pour": 2300, "\u0120beak": 2301, "ose": 2302, "\u0120jog": 2303, "\u0120grate": 2304, "\u0120ducks": 2305, "\u0120spe": 2306, "\u0120legs": 2307, "\u0120dig": 2308, "\u0120fil": 2309, "\u0120Bu": 2310, "\u0120emp": 2311, "mer": 2312, "\u0120hope": 2313, "\u0120empty": 2314, "\u0120slid": 2315, "\u0120feather": 2316, "\u0120sleepy": 2317, "\u0120drum": 2318, "amed": 2319, "ars": 2320, "eth": 2321, "\u0120zoo": 2322, "\u0120pan": 2323, "\u0120phone": 2324, "\u0120grateful": 2325, "\u0120fing": 2326, "ions": 2327, "\u0120lemon": 2328, "let": 2329, "\u0120Cat": 2330, "\u0120clever": 2331, "\u0120Molly": 2332, "\u0120smelly": 2333, "nan": 2334, "\u0120imag": 2335, "\u0120splash": 2336, "\u0120interesting": 2337, "\u0120Jill": 2338, "\u0120save": 2339, "\u0120chick": 2340, "\u0120calm": 2341, "\u0120med": 2342, "\u0120watching": 2343, "Soon": 2344, "izzy": 2345, "izz": 2346, "\u0120plate": 2347, "\u0120ign": 2348, "yard": 2349, "\u0120clouds": 2350, "\u0120line": 2351, "\u0120faces": 2352, "\u0120ba": 2353, "\u0120act": 2354, "\u0120lift": 2355, "\u0120though": 2356, "\u0120wolf": 2357, "\u0120backyard": 2358, "wel": 2359, "\u0120seemed": 2360, "\u0120dogs": 2361, "\u0120spray": 2362, "Come": 2363, "\u0120prot": 2364, "\u0120whole": 2365, "\u0120mot": 2366, "\u0120fancy": 2367, "\u0120Daddy": 2368, "\u0120quest": 2369, "\u0120arms": 2370, "\u0120puzzle": 2371, "\u0120healthy": 2372, "\u0120supp": 2373, "ward": 2374, "\u0120finish": 2375, "erly": 2376, "\u0120along": 2377, "llo": 2378, "\u0120rocket": 2379, "\u0120explain": 2380, "\u0120rod": 2381, "dge": 2382, "\u0120easy": 2383, "\u0120jewel": 2384, "ont": 2385, "\u0120pract": 2386, "\u0120jelly": 2387, "\u0120Chirpy": 2388, "\u0120tid": 2389, "\u0120fake": 2390, "\u0120crayons": 2391, "\u0120wondered": 2392, "\u0120maybe": 2393, "\u0120scar": 2394, "\u0120ship": 2395, "\u0120nothing": 2396, "onest": 2397, "\u0120emb": 2398, "iger": 2399, "\u0120pool": 2400, "\u0120longer": 2401, "\u0120anyone": 2402, "\u0120Be": 2403, "\u0120Jerry": 2404, "ually": 2405, "\u0120front": 2406, "\u0120working": 2407, "\u0120gives": 2408, "irr": 2409, "\u0120pack": 2410, "\u0120such": 2411, "\u0120Bunny": 2412, "ocked": 2413, "ment": 2414, "\u0120bossy": 2415, "\u0120Doggy": 2416, "\u0120trouble": 2417, "\u0120smelled": 2418, "\u0120saved": 2419, "\u0120pin": 2420, "rass": 2421, "\u0120neigh": 2422, "arrass": 2423, "iting": 2424, "\u0120honest": 2425, "\u0120av": 2426, "arge": 2427, "\u0120embarrass": 2428, "\u0120van": 2429, "\u0120forgive": 2430, "\u0120tidy": 2431, "\u0120weak": 2432, "urse": 2433, "\u0120puts": 2434, "unk": 2435, "\u0120kick": 2436, "\u0120shirt": 2437, "\u0120With": 2438, "\u0120mind": 2439, "\u0120Ollie": 2440, "\u0120neighb": 2441, "\u0120plants": 2442, "\u0120sol": 2443, "\u0120Momo": 2444, "\u0120gently": 2445, "\u0120cozy": 2446, "orrow": 2447, "ming": 2448, "\u0120explor": 2449, "sp": 2450, "\u0120mistake": 2451, "\u0120yog": 2452, "oc": 2453, "oomy": 2454, "\u0120pointed": 2455, "\u0120lad": 2456, "\u0120af": 2457, "\u0120stood": 2458, "ork": 2459, "\u0120onto": 2460, "\u0120waiting": 2461, "\u0120jumping": 2462, "\u0120prince": 2463, "\u0120cross": 2464, "\u0120lock": 2465, "\u0120cheer": 2466, "\u0120queen": 2467, "\u0120Why": 2468, "\u0120Mary": 2469, "\u0120wing": 2470, "ones": 2471, "we": 2472, "\u0120large": 2473, "\u0120lovely": 2474, "ult": 2475, "\u0120sur": 2476, "\u0120ret": 2477, "And": 2478, "\u0120deer": 2479, "\u0120chew": 2480, "\u0120couch": 2481, "\u0120bal": 2482, "aughter": 2483, "\u0120stret": 2484, "era": 2485, "\u0120Their": 2486, "\u0120places": 2487, "\u0120My": 2488, "\u0120ladder": 2489, "oof": 2490, "\u0120return": 2491, "raid": 2492, "\u0120ants": 2493, "\u0120dish": 2494, "\u0120afraid": 2495, "\u0120cleaned": 2496, "\u0120tomorrow": 2497, "\u0120building": 2498, "\u0120sandwich": 2499, "\u0120person": 2500, "Sally": 2501, "ned": 2502, "\u0120pretended": 2503, "\u0120bounce": 2504, "\u0120wip": 2505, "gest": 2506, "\u0120match": 2507, "\u0120rich": 2508, "uce": 2509, "\u0120pizz": 2510, "\u0120gather": 2511, "\u0120search": 2512, "\u0120boring": 2513, "oman": 2514, "\u0120Somet": 2515, "\u0120teeth": 2516, "\u0120hum": 2517, "Kitty": 2518, "My": 2519, "aced": 2520, "\u0120daughter": 2521, "\u0120woman": 2522, "\u0120scarf": 2523, "\u0120goes": 2524, "\u0120Together": 2525, "\u0120law": 2526, "\u0120stra": 2527, "\u0120swimming": 2528, "\u0120furry": 2529, "\u0120splashed": 2530, "\u0120pri": 2531, "\u0120loves": 2532, "\u0120true": 2533, "\u0120screamed": 2534, "\u0120lazy": 2535, "\u0120gen": 2536, "\u0120answer": 2537, "\u0120number": 2538, "\u0120eag": 2539, "\u0120ashamed": 2540, "\u0120pizza": 2541, "aw": 2542, "\u0120appeared": 2543, "\u0120fear": 2544, "\u0120nearby": 2545, "\u0120powerful": 2546, "\u0120flag": 2547, "\u0120St": 2548, "\u0120hang": 2549, "vous": 2550, "\u0120clown": 2551, "ek": 2552, "\u0120chase": 2553, "\u0120motor": 2554, "\u0120wand": 2555, "\u0120TV": 2556, "\u0120rub": 2557, "\u0120success": 2558, "\u0120chocol": 2559, "\u0120If": 2560, "\u0120creative": 2561, "\u0120trust": 2562, "\u0120wearing": 2563, "\u0120noisy": 2564, "\u0120matter": 2565, "pa": 2566, "\u0120hello": 2567, "\u0120ner": 2568, "\u0120tool": 2569, "\u0120saf": 2570, "\u0120Bird": 2571, "ado": 2572, "\u0120nervous": 2573, "elp": 2574, "\u0120test": 2575, "\u0120smiling": 2576, "\u0120sold": 2577, "icked": 2578, "oppy": 2579, "osaur": 2580, "\u0120circle": 2581, "mb": 2582, "\u0120map": 2583, "\u0120drank": 2584, "\u0120class": 2585, "\u0120tries": 2586, "\u0120chocolate": 2587, "\u0120Please": 2588, "\u0120impress": 2589, "\u0120knee": 2590, "\u0120gener": 2591, "\u0120dinosaur": 2592, "\u0120polite": 2593, "\u0120mirr": 2594, "\u0120Bobby": 2595, "\u0120Tiny": 2596, "\u0120balloons": 2597, "\u0120gold": 2598, "\u0120rare": 2599, "\u0120protect": 2600, "\u0120cand": 2601, "Stop": 2602, "\u0120carried": 2603, "\u0120Go": 2604, "ensive": 2605, "\u0120ap": 2606, "\u0120shadow": 2607, "\u0120mirror": 2608, "gled": 2609, "\u0120Don": 2610, "\u0120bald": 2611, "\u0120gun": 2612, "ina": 2613, "\u0120expensive": 2614, "\u0120reg": 2615, "iff": 2616, "\u0120mysterious": 2617, "\u0120Sp": 2618, "\u0120pump": 2619, "\u0120note": 2620, "\u0120hero": 2621, "\u0120march": 2622, "\u0120har": 2623, "arl": 2624, "\u0120icy": 2625, "\u0120respect": 2626, "\u0120weird": 2627, "\u0120snee": 2628, "\u0120cri": 2629, "\u0120gate": 2630, "\u0120soap": 2631, "ute": 2632, "issors": 2633, "\u0120these": 2634, "\u0120poor": 2635, "\u0120towel": 2636, "\u0120whale": 2637, "\u0120feet": 2638, "\u0120tape": 2639, "\u0120dizzy": 2640, "itter": 2641, "\u0120generous": 2642, "ndpa": 2643, "\u0120pres": 2644, "\u0120Benny": 2645, "nic": 2646, "\u0120disco": 2647, "Help": 2648, "ventually": 2649, "\u0120picnic": 2650, "\u0120mic": 2651, "\u0120lead": 2652, "\u0120sque": 2653, "\u0120embarrassed": 2654, "\u0120journey": 2655, "\u0120sugar": 2656, "isp": 2657, "scape": 2658, "\u0120boot": 2659, "\u0120tent": 2660, "\u0120peaceful": 2661, "\u0120fat": 2662, "\u0120Bear": 2663, "\u0120scissors": 2664, "\u0120tasted": 2665, "\u0120yelled": 2666, "Tommy": 2667, "\u0120tick": 2668, "\u0120mel": 2669, "\u0120brush": 2670, "\u0120dancing": 2671, "ness": 2672, "\u0120glue": 2673, "\u0120hur": 2674, "\u0120rough": 2675, "\u0120clap": 2676, "\u0120bridge": 2677, "ote": 2678, "\u0120decor": 2679, "\u0120closet": 2680, "\u0120crown": 2681, "\u0120stir": 2682, "ual": 2683, "imp": 2684, "\u0120print": 2685, "\u0120Sometimes": 2686, "owed": 2687, "airs": 2688, "\u0120How": 2689, "ume": 2690, "\u0120cap": 2691, "\u0120mod": 2692, "\u0120lamp": 2693, "\u0120vase": 2694, "\u0120scare": 2695, "\u0120gig": 2696, "lebr": 2697, "\u0120relie": 2698, "lves": 2699, "any": 2700, "\u0120eld": 2701, "\u0120tele": 2702, "\u0120celebr": 2703, "\u0120whisp": 2704, "\u0120log": 2705, "\u0120sco": 2706, "\u0120blow": 2707, "rag": 2708, "\u0120painted": 2709, "\u0120Ducky": 2710, "\u0120pay": 2711, "erries": 2712, "\u0120wis": 2713, "\u0120berries": 2714, "\u0120mixed": 2715, "\u0120spread": 2716, "\u0120wouldn": 2717, "\u0120cage": 2718, "\u0120bake": 2719, "rob": 2720, "getable": 2721, "\u0120mountain": 2722, "\u0120adm": 2723, "\u0120drawing": 2724, "\u0120become": 2725, "\u0120famous": 2726, "\u0120knocked": 2727, "\u0120bean": 2728, "\u0120norm": 2729, "\u0120vegetable": 2730, "asp": 2731, "\u0120kicked": 2732, "ustr": 2733, "\u0120shark": 2734, "ser": 2735, "\u0120incred": 2736, "\u0120lose": 2737, "\u0120normal": 2738, "\u0120wrap": 2739, "ced": 2740, "\u0120group": 2741, "\u0120thick": 2742, "\u01203": 2743, "\u0120fine": 2744, "\u0120glass": 2745, "\u0120ignor": 2746, "\u0120clock": 2747, "\u0120team": 2748, "\u0120elderly": 2749, "\u0120clear": 2750, "\u0120corner": 2751, "\u0120frustr": 2752, "\u0120mighty": 2753, "robe": 2754, "\u0120cone": 2755, "\u0120incredible": 2756, "\u0120Br": 2757, "ighed": 2758, "Dad": 2759, "\u0120moms": 2760, "\u0120balance": 2761, "\u0120sock": 2762, "\u0120space": 2763, "\u0120jam": 2764, "ragile": 2765, "\u0120fright": 2766, "\u0120organized": 2767, "\u0120branches": 2768, "\u0120roar": 2769, "port": 2770, "\u0120sword": 2771, "alous": 2772, "\u0120Mama": 2773, "\u0120guess": 2774, "\u0120fool": 2775, "\u0120sell": 2776, "\u0120feed": 2777, "\u0120Some": 2778, "\u0120which": 2779, "\u0120horn": 2780, "\u0120present": 2781, "\u0120jealous": 2782, "\u0120yarn": 2783, "ony": 2784, "\u0120fragile": 2785, "\u0120burn": 2786, "\u0120understood": 2787, "\u0120mis": 2788, "\u0120stubb": 2789, "\u0120ter": 2790, "\u0120frustrated": 2791, "Where": 2792, "ray": 2793, "\u0120hose": 2794, "cient": 2795, "\u0120spent": 2796, "\u0120shoe": 2797, "\u0120taught": 2798, "\u0120stubborn": 2799, "\u0120twist": 2800, "\u0120chan": 2801, "\u0120creature": 2802, "\u0120chest": 2803, "\u0120spoiled": 2804, "\u0120relieved": 2805, "ym": 2806, "\u0120ancient": 2807, "ique": 2808, "\u0120wake": 2809, "\u0120fier": 2810, "\u0120pray": 2811, "\u0120fierce": 2812, "\u0120eggs": 2813, "\u0120cab": 2814, "\u0120terri": 2815, "\u0120barn": 2816, "\u0120ord": 2817, "\u0120pumpkin": 2818, "\u0120comfortable": 2819, "\u0120frightened": 2820, "orry": 2821, "\u0120toug": 2822, "\u0120unique": 2823, "\u0120measure": 2824, "\u0120goat": 2825, "\u0120wagon": 2826, "\u0120unus": 2827, "\u0120breath": 2828, "\u0120foolish": 2829, "\u0120useful": 2830, "\u0120exploring": 2831, "dle": 2832, "\u0120straw": 2833, "\u0120unusual": 2834, "\u0120dug": 2835, "\u0120clay": 2836, "\u0120discover": 2837, "\u0120tomato": 2838, "\u0120Pe": 2839, "\u0120dead": 2840, "\u0120finding": 2841, "\u0120police": 2842, "\u0120wrote": 2843, "\u0120clum": 2844, "\u0120exam": 2845, "lace": 2846, "\u0120waves": 2847, "\u0120square": 2848, "\u0120hears": 2849, "\u0120cabin": 2850, "\u0120tells": 2851, "\u0120necklace": 2852, "\u0120dull": 2853, "\u0120clumsy": 2854, "\u0120tough": 2855, "\u0120bubbles": 2856, "\u0120nosy": 2857, "kn": 2858, "\u0120searched": 2859, "Together": 2860, "\u0120washed": 2861, "\u0120bathroom": 2862, "\u0120paws": 2863, "bby": 2864, "ond": 2865, "unn": 2866, "\u0120board": 2867, "fic": 2868, "known": 2869, "\u0120asking": 2870, "\u0120crazy": 2871, "\u0120thankful": 2872, "\u0120sunf": 2873, "\u0120bitter": 2874, "yal": 2875, "\u0120pir": 2876, "berry": 2877, "alk": 2878, "\u0120ind": 2879, "\u0120diffic": 2880, "\u0120rose": 2881, "cil": 2882, "\u0120swan": 2883, "\u0120bloom": 2884, "\u0120unknown": 2885, "\u0120Ella": 2886, "\u0120covered": 2887, "\u0120difficult": 2888, "\u0120add": 2889, "\u0120pencil": 2890, "\u0120finger": 2891, "\u0120ham": 2892, "\u0120hoop": 2893, "\u0120jet": 2894, "\u0120witch": 2895, "\u0120drop": 2896, "Me": 2897, "\u0120'": 2898, "\u0120chicken": 2899, "\u0120gloomy": 2900, "apped": 2901, "\u0120loyal": 2902, "als": 2903, "Here": 2904, "\u0120wealthy": 2905, "com": 2906, "light": 2907, "\u0120unl": 2908, "\u0120cats": 2909, "\u0120ending": 2910, "\u0120guit": 2911, "bled": 2912, "shine": 2913, "\u0120dove": 2914, "\u0120joined": 2915, "\u0120cher": 2916, "anut": 2917, "\u0120mov": 2918, "\u0120terrible": 2919, "\u0120yours": 2920, "iant": 2921, "\u0120U": 2922, "\u0120Rex": 2923, "\u0120salad": 2924, "\u0120Andy": 2925, "\u0120nuts": 2926, "\u0120rat": 2927, "ground": 2928, "\u0120tiger": 2929, "\u0120potato": 2930, "\u0120mask": 2931, "xible": 2932, "selves": 2933, "\u0120value": 2934, "\u0120changed": 2935, "\u0120moving": 2936, "\u0120exciting": 2937, "ormous": 2938, "\u0120Many": 2939, "\u0120body": 2940, "\u0120Tr": 2941, "\u0120toast": 2942, "erp": 2943, "\u0120zip": 2944, "\u0120disg": 2945, "\u0120cheap": 2946, "\u0120guitar": 2947, "irsty": 2948, "\u0120knowing": 2949, "\u0120adventur": 2950, "\u0120yourself": 2951, "\u0120enormous": 2952, "\u0120hairy": 2953, "Every": 2954, "\u0120shoot": 2955, "\u0120Brown": 2956, "\u0120bored": 2957, "\u0120pepper": 2958, "\u0120remind": 2959, "ory": 2960, "land": 2961, "\u0120acorn": 2962, "\u0120adventurous": 2963, "\u0120sunshine": 2964, "\u0120smaller": 2965, "\u0120stuff": 2966, "\u0120hats": 2967, "\u0120solve": 2968, "\u0120Jimmy": 2969, "\u0120flexible": 2970, "\u0120cost": 2971, "rilliant": 2972, "\u0120knife": 2973, "\u0120perform": 2974, "\u0120snacks": 2975, "\u0120nods": 2976, "\u0120shore": 2977, "\u0120brilliant": 2978, "\u0120thirsty": 2979, "\u0120delicate": 2980, "\u0120frown": 2981, "\u0120disgust": 2982, "\u0120collect": 2983, "\u0120stri": 2984, "\u0120seeds": 2985, "\u0120counted": 2986, "\u0120asleep": 2987, "\u0120banana": 2988, "reen": 2989, "\u0120mailbox": 2990, "iness": 2991, "\u0120dough": 2992, "\u0120trick": 2993, "\u0120neighbor": 2994, "ungle": 2995, "\u0120heal": 2996, "live": 2997, "Who": 2998, "\u0120stage": 2999, "ident": 3000, "\u0120market": 3001, "\u0120cube": 3002, "\u0120stat": 3003, "\u0120jungle": 3004, "\u0120squee": 3005, "mbre": 3006, "\u0120explained": 3007, "ates": 3008, "\u0120umbre": 3009, "\u0120disgusting": 3010, "Jim": 3011, "fted": 3012, "\u0120lab": 3013, "\u0120jolly": 3014, "\u0120flash": 3015, "und": 3016, "\u0120fridge": 3017, "inal": 3018, "pid": 3019, "ilt": 3020, "\u0120crane": 3021, "corn": 3022, "\u0120suit": 3023, "\u0120rh": 3024, "iddle": 3025, "\u0120sunflower": 3026, "\u0120times": 3027, "\u0120Al": 3028, "erpill": 3029, "\u0120caterpill": 3030, "\u0120relax": 3031, "\u0120shiver": 3032, "\u0120four": 3033, "\u0120island": 3034, "iginal": 3035, "\u0120harm": 3036, "ict": 3037, "\u0120While": 3038, "ying": 3039, "\u0120stupid": 3040, "\u0120medic": 3041, "\u0120Instead": 3042, "\u0120comb": 3043, "\u0120goose": 3044, "\u0120cro": 3045, "edient": 3046, "\u0120Will": 3047, "\u0120stove": 3048, "If": 3049, "Are": 3050, "\u0120independ": 3051, "Mum": 3052, "most": 3053, "\u0120spring": 3054, "\u0120gem": 3055, "\u0120batter": 3056, "\u0120sighed": 3057, "\u0120vegetables": 3058, "\u0120stones": 3059, "pes": 3060, "\u0120shine": 3061, "How": 3062, "\u0120medicine": 3063, "\u0120depend": 3064, "\u0120rug": 3065, "\u0120Your": 3066, "\u0120careless": 3067, "\u0120original": 3068, "\u0120stamp": 3069, "\u0120gar": 3070, "\u0120cries": 3071, "Inside": 3072, "gu": 3073, "\u0120carrots": 3074, "\u0120scr": 3075, "\u0120successful": 3076, "\u0120sauce": 3077, "\u0120jeep": 3078, "\u0120popcorn": 3079, "\u0120meal": 3080, "\u0120obedient": 3081, "\u0120almost": 3082, "\u0120middle": 3083, "\u0120magn": 3084, "\u0120study": 3085, "\u0120independent": 3086, "\u0120fearful": 3087, "\u0120jack": 3088, "met": 3089, "inky": 3090, "Sorry": 3091, "\u0120Sammy": 3092, "\u0120escape": 3093, "\u0120caterpillar": 3094, "\u0120serious": 3095, "\u0120peanut": 3096, "\u0120bedroom": 3097, "\u0120eager": 3098, "aken": 3099, "\u0120gets": 3100, "ung": 3101, "\u0120parrot": 3102, "\u0120statue": 3103, "\u0120helmet": 3104, "\u0120pebb": 3105, "\u0120No": 3106, "\u0120fountain": 3107, "\u0120raven": 3108, "\u0120pasta": 3109, "\u0120umbrella": 3110, "\u0120compet": 3111, "There": 3112, "\u0120jacket": 3113, "\u0120belonged": 3114, "\u0120dest": 3115, "\u0120filthy": 3116, "\u0120ang": 3117, "\u0120design": 3118, "\u0120borrow": 3119, "\u0120cam": 3120, "erable": 3121, "\u0120houses": 3122, "\u0120prize": 3123, "\u0120hay": 3124, "\u0120brace": 3125, "\u0120standing": 3126, "\u0120miserable": 3127, "\u0120raced": 3128, "\u0120taken": 3129, "ages": 3130, "\u0120fork": 3131, "\u0120crayon": 3132, "\u0120painting": 3133, "io": 3134, "\u0120triang": 3135, "\u0120jug": 3136, "\u0120impressive": 3137, "\u0120choose": 3138, "\u0120fig": 3139, "\u0120tied": 3140, "iable": 3141, "\u0120spotted": 3142, "\u0120lifted": 3143, "\u0120slipped": 3144, "ours": 3145, "\u0120tank": 3146, "\u0120thoughtful": 3147, "\u0120dependable": 3148, "\u0120steal": 3149, "\u0120garage": 3150, "enny": 3151, "\u0120built": 3152, "\u0120mush": 3153, "\u0120er": 3154, "ipe": 3155, "\u0120mole": 3156, "\u0120crawled": 3157, "\u0120scale": 3158, "\u0120boats": 3159, "\u0120pian": 3160, "\u0120pant": 3161, "\u0120hammer": 3162, "\u0120bottom": 3163, "lph": 3164, "\u0120cheerful": 3165, "\u0120using": 3166, "\u0120smoke": 3167, "\u0120picks": 3168, "\u0120moder": 3169, "berries": 3170, "\u0120shows": 3171, "rn": 3172, "\u0120piano": 3173, "\u0120magnet": 3174, "dile": 3175, "codile": 3176, "\u0120hurts": 3177, "inary": 3178, "\u0120ref": 3179, "\u0120crack": 3180, "\u0120eng": 3181, "\u0120aunt": 3182, "\u0120melon": 3183, "\u0120waff": 3184, "\u0120modern": 3185, "\u0120dolph": 3186, "unnel": 3187, "cream": 3188, "pack": 3189, "\u0120tunnel": 3190, "oin": 3191, "\u0120arrow": 3192, "\u0120reliable": 3193, "\u0120hopping": 3194, "\u0120mushroom": 3195, "Timmy": 3196, "\u0120squash": 3197, "\u0120gum": 3198, "\u0120sink": 3199, "\u0120movie": 3200, "\u0120tax": 3201, "\u0120flute": 3202, "\u0120beet": 3203, "\u0120lean": 3204, "Their": 3205, "iv": 3206, "\u0120popular": 3207, "opter": 3208, "icopter": 3209, "\u0120cryst": 3210, "\u0120ones": 3211, "\u0120sil": 3212, "\u0120competit": 3213, "\u0120helicopter": 3214, "aser": 3215, "\u0120needs": 3216, "ipop": 3217, "llipop": 3218, "\u0120crocodile": 3219, "\u0120liz": 3220, "Molly": 3221, "\u0120press": 3222, "\u0120troubled": 3223, "\u0120pige": 3224, "\u0120locked": 3225, "\u0120tricks": 3226, "\u0120lollipop": 3227, "\u0120playful": 3228, "\u0120humble": 3229, "\u0120taxi": 3230, "\u0120kissed": 3231, "\u0120low": 3232, "appy": 3233, "comfortable": 3234, "amond": 3235, "\u0120uncomfortable": 3236, "\u0120rid": 3237, "host": 3238, "\u0120wander": 3239, "atch": 3240, "\u0120angel": 3241, "edy": 3242, "cles": 3243, "\u0120torn": 3244, "\u0120grace": 3245, "\u0120anx": 3246, "\u0120wrapped": 3247, "\u0120muff": 3248, "\u0120twig": 3249, "\u0120pants": 3250, "\u0120disappoin": 3251, "\u0120Sn": 3252, "\u0120helps": 3253, "\u0120diamond": 3254, "\u0120camera": 3255, "atter": 3256, "oto": 3257, "\u0120anxious": 3258, "\u0120ghost": 3259, "\u0120tears": 3260, "\u0120ruined": 3261, "cident": 3262, "\u0120Jenny": 3263, "ilty": 3264, "\u0120quar": 3265, "aff": 3266, "\u0120Even": 3267, "\u0120fis": 3268, "opl": 3269, "\u0120belt": 3270, "eropl": 3271, "\u0120env": 3272, "\u0120guilty": 3273, "\u0120bull": 3274, "\u0120aeropl": 3275, "\u0120helpless": 3276, "\u0120happiness": 3277, "\u0120lizard": 3278, "\u0120boys": 3279, "cut": 3280, "ext": 3281, "\u0120cere": 3282, "\u0120walks": 3283, "cean": 3284, "\u0120passed": 3285, "\u0120meant": 3286, "\u0120ocean": 3287, "\u0120fluffy": 3288, "\u0120wire": 3289, "\u0120nail": 3290, "\u0120bracelet": 3291, "\u0120deaf": 3292, "zed": 3293, "\u0120stretch": 3294, "\u0120candle": 3295, "\u0120cact": 3296, "tt": 3297, "\u0120beetle": 3298, "\u0120mop": 3299, "\u0120harmless": 3300, "umpet": 3301, "\u0120ordinary": 3302, "\u0120answered": 3303, "\u0120collar": 3304, "\u0120cop": 3305, "\u0120bees": 3306, "\u0120tire": 3307, "\u0120shape": 3308, "\u0120quarrel": 3309, "\u0120radio": 3310, "\u0120flashlight": 3311, "\u0120crystal": 3312, "\u0120harder": 3313, "\u0120poured": 3314, "\u0120trumpet": 3315, "\u0120engine": 3316, "Mama": 3317, "\u0120persist": 3318, "\u0120hunt": 3319, "\u0120tooth": 3320, "\u0120cereal": 3321, "\u0120invited": 3322, "\u0120comput": 3323, "\u0120tag": 3324, "\u0120office": 3325, "\u0120melt": 3326, "\u0120spill": 3327, "\u0120charm": 3328, "coa": 3329, "\u0120lit": 3330, "\u0120scoot": 3331, "\u0120comet": 3332, "\u0120triangle": 3333, "ief": 3334, "\u0120mug": 3335, "\u0120rep": 3336, "ube": 3337, "\u0120yogurt": 3338, "\u0120spend": 3339, "\u0120compass": 3340, "\u0120accident": 3341, "\u0120shade": 3342, "hett": 3343, "aghett": 3344, "aghetti": 3345, "\u0120disappointed": 3346, "\u0120licked": 3347, "\u0120cactus": 3348, "\u0120pale": 3349, "\u0120cush": 3350, "\u0120figure": 3351, "\u0120regular": 3352, "\u0120giving": 3353, "\u0120avoc": 3354, "\u0120pro": 3355, "\u0120sheet": 3356, "\u0120whispered": 3357, "aze": 3358, "uth": 3359, "ellig": 3360, "\u0120create": 3361, "\u0120record": 3362, "\u0120barber": 3363, "\u0120intellig": 3364, "\u0120pipe": 3365, "\u0120rode": 3366, "\u0120roof": 3367, "Jane": 3368, "\u0120thread": 3369, "ither": 3370, "\u0120vi": 3371, "\u0120load": 3372, "\u0120libr": 3373, "\u0120gifted": 3374, "ccol": 3375, "\u0120practiced": 3376, "\u0120delight": 3377, "ccoli": 3378, "\u0120harsh": 3379, "asses": 3380, "\u0120pow": 3381, "\u0120dust": 3382, "\u0120True": 3383, "\u0120bicy": 3384, "azz": 3385, "\u0120spaghetti": 3386, "\u0120compassion": 3387, "\u0120sailed": 3388, "urkey": 3389, "ubby": 3390, "\u0120forward": 3391, "\u0120persistent": 3392, "\u0120speed": 3393, "\u0120mitten": 3394, "\u0120cocoa": 3395, "\u0120envel": 3396, "\u0120questions": 3397, "\u0120computer": 3398, "\u0120coo": 3399, "\u0120feathers": 3400, "hip": 3401, "\u0120glove": 3402, "Bobo": 3403, "\u0120rice": 3404, "\u0120shrimp": 3405, "\u0120desk": 3406, "\u0120stream": 3407, "\u0120inse": 3408, "\u0120pigeon": 3409, "\u0120charming": 3410, "\u0120ears": 3411, "\u0120carp": 3412, "lcan": 3413, "\u0120raft": 3414, "\u0120envious": 3415, "\u0120knot": 3416, "\u0120turkey": 3417, "ud": 3418, "\u0120stronger": 3419, "omes": 3420, "\u0120coins": 3421, "\u0120tap": 3422, "lcano": 3423, "weet": 3424, "\u0120trap": 3425, "umbers": 3426, "\u0120aeroplane": 3427, "\u0120trunk": 3428, "\u0120wheat": 3429, "\u0120boxes": 3430, "\u0120chubby": 3431, "\u0120carpet": 3432, "\u0120restless": 3433, "\u0120intelligent": 3434, "\u0120tube": 3435, "\u0120spun": 3436, "\u0120dreams": 3437, "\u0120friendship": 3438, "ulif": 3439, "olin": 3440, "\u0120half": 3441, "\u0120loop": 3442, "\u0120crawl": 3443, "\u0120broccoli": 3444, "\u0120onion": 3445, "\u0120deliver": 3446, "\u0120acce": 3447, "anger": 3448, "\u0120vide": 3449, "\u0120volcano": 3450, "\u0120Jake": 3451, "\u0120sle": 3452, "\u0120track": 3453, "\u0120bri": 3454, "\u0120caulif": 3455, "\u0120vine": 3456, "ye": 3457, "\u0120ticket": 3458, "\u0120thief": 3459, "essie": 3460, "cycle": 3461, "\u0120louder": 3462, "\u0120insect": 3463, "\u0120numbers": 3464, "asing": 3465, "\u0120yaw": 3466, "\u0120haircut": 3467, "ital": 3468, "\u0120sleeping": 3469, "ugg": 3470, "\u0120mill": 3471, "\u0120eventually": 3472, "\u0120alert": 3473, "\u0120excite": 3474, "\u0120pebble": 3475, "\u0120hosp": 3476, "\u0120attract": 3477, "\u0120planet": 3478, "\u0120Today": 3479, "\u0120univer": 3480, "isted": 3481, "ulu": 3482, "\u0120hospital": 3483, "\u0120eraser": 3484, "\u0120returned": 3485, "\u0120destro": 3486, "\u0120graceful": 3487, "\u0120happening": 3488, "ache": 3489, "\u0120OK": 3490, "\u0120Emily": 3491, "\u0120decide": 3492, "\u0120learning": 3493, "\u0120screen": 3494, "rework": 3495, "\u0120nicely": 3496, "\u0120leop": 3497, "\u0120cauliflower": 3498, "\u0120competitive": 3499, "\u0120poem": 3500, "\u0120celebrate": 3501, "\u0120curt": 3502, "\u0120peach": 3503, "\u0120soldier": 3504, "\u0120saus": 3505, "\u0120parade": 3506, "atient": 3507, "\u0120attractive": 3508, "\u0120curtain": 3509, "\u0120dolphin": 3510, "\u0120base": 3511, "\u0120violin": 3512, "\u0120ways": 3513, "Go": 3514, "ats": 3515, "\u0120travel": 3516, "ten": 3517, "\u0120ignorant": 3518, "ulb": 3519, "\u0120wheels": 3520, "\u0120yach": 3521, "\u0120scatter": 3522, "\u0120deter": 3523, "\u0120compassionate": 3524, "\u0120barrel": 3525, "\u0120envelope": 3526, "\u0120bubble": 3527, "\u0120lying": 3528, "\u0120firework": 3529, "\u0120sort": 3530, "\u0120question": 3531, "zzy": 3532, "\u0120Pipp": 3533, "\u0120scooter": 3534, "\u0120determ": 3535, "\u0120rag": 3536, "\u0120bicycle": 3537, "elery": 3538, "\u0120needle": 3539, "\u0120Fr": 3540, "\u0120judge": 3541, "\u0120bulb": 3542, "\u0120leopard": 3543, "\u0120tem": 3544, "\u0120yacht": 3545, "\u0120pony": 3546, "\u0120cricket": 3547, "\u0120order": 3548, "\u0120homes": 3549, "\u0120ador": 3550, "tern": 3551, "\u0120truth": 3552, "\u0120hook": 3553, "dom": 3554, "\u0120rubbed": 3555, "ete": 3556, "igator": 3557, "\u0120bushes": 3558, "Sarah": 3559, "\u0120uncle": 3560, "\u0120cushion": 3561, "\u0120spell": 3562, "\u0120grown": 3563, "\u0120cooked": 3564, "\u0120adorable": 3565, "\u0120chalk": 3566, "\u0120soar": 3567, "\u0120purse": 3568, "\u0120skin": 3569, "\u0120themselves": 3570, "\u0120impatient": 3571, "\u0120celery": 3572, "\u0120tray": 3573, "\u0120shells": 3574, "\u0120pengu": 3575, "\u0120sniff": 3576, "\u0120prun": 3577, "\u0120walls": 3578, "\u0120seal": 3579, "\u0120lively": 3580, "\u0120case": 3581, "\u0120alligator": 3582, "\u0120distant": 3583, "\u0120radish": 3584, "\u0120saying": 3585, "\u0120speak": 3586, "\u0120motorcycle": 3587, "\u0120meat": 3588, "\u0120send": 3589, "illa": 3590, "\u0120spinning": 3591, "\u0120forth": 3592, "\u0120counting": 3593, "\u0120enth": 3594, "\u0120bounced": 3595, "\u0120chain": 3596, "\u0120ed": 3597, "\u0120cleaning": 3598, "ebra": 3599, "\u0120film": 3600, "\u0120slept": 3601, "\u0120pit": 3602, "\u0120surf": 3603, "\u0120marry": 3604, "usia": 3605, "\u0120wallet": 3606, "\u0120enthusia": 3607, "\u0120metal": 3608, "urb": 3609, "ebook": 3610, "\u0120bin": 3611, "\u0120week": 3612, "\u0120notebook": 3613, "\u0120wiped": 3614, "\u0120skip": 3615, "ision": 3616, "chair": 3617, "\u0120biggest": 3618, "\u0120impro": 3619, "\u0120avocado": 3620, "\u0120behave": 3621, "\u0120destroy": 3622, "vator": 3623, "\u0120bandage": 3624, "\u0120laughs": 3625, "\u0120steak": 3626, "\u0120pattern": 3627, "\u0120Sh": 3628, "\u0120post": 3629, "\u0120elevator": 3630, "\u0120Buzz": 3631, "usie": 3632, "\u0120dive": 3633, "\u0120shut": 3634, "\u0120skipped": 3635, "\u0120unlock": 3636, "\u0120diary": 3637, "ject": 3638, "\u0120zebra": 3639, "\u0120bags": 3640, "ating": 3641, "\u0120armchair": 3642, "rage": 3643, "aged": 3644, "under": 3645, "\u0120disturb": 3646, "\u0120oy": 3647, "\u0120pole": 3648, "\u0120showing": 3649, "\u0120gathered": 3650, "\u0120club": 3651, "\u0120nurse": 3652, "bul": 3653, "\u0120earth": 3654, "\u0120enc": 3655, "\u0120stranger": 3656, "\u0120sweater": 3657, "\u0120jellyfish": 3658, "\u0120screw": 3659, "\u0120temp": 3660, "\u0120Poppy": 3661, "\u0120compl": 3662, "\u0120mixer": 3663, "Give": 3664, "\u0120skull": 3665, "\u0120lime": 3666, "\u0120bump": 3667, "bulance": 3668, "\u0120ambulance": 3669, "nam": 3670, "\u0120father": 3671, "\u0120journal": 3672, "Gra": 3673, "\u0120loudly": 3674, "ito": 3675, "\u0120folder": 3676, "\u0120shield": 3677, "\u0120Bet": 3678, "\u0120Lulu": 3679, "\u0120library": 3680, "\u0120Peter": 3681, "\u0120buttons": 3682, "\u0120playground": 3683, "\u0120trucks": 3684, "\u0120ink": 3685, "\u0120lights": 3686, "\u0120tummy": 3687, "\u0120pointing": 3688, "\u0120city": 3689, "\u0120decorate": 3690, "\u0120station": 3691, "irit": 3692, "\u0120prep": 3693, "\u0120falls": 3694, "quito": 3695, "\u0120Polly": 3696, "Billy": 3697, "\u0120Fo": 3698, "\u0120fu": 3699, "ention": 3700, "nger": 3701, "\u0120Birdy": 3702, "lies": 3703, "\u0120herb": 3704, "nament": 3705, "\u0120ornament": 3706, "\u0120modest": 3707, "\u0120guard": 3708, "\u0120mos": 3709, "\u0120knows": 3710, "\u0120cord": 3711, "\u0120polish": 3712, "\u0120marble": 3713, "oby": 3714, "\u0120mosquito": 3715, "umbled": 3716, "\u0120salt": 3717, "\u0120attic": 3718, "\u0120whenever": 3719, "\u0120vest": 3720, "ctop": 3721, "\u0120resc": 3722, "\u0120yet": 3723, "\u0120ple": 3724, "\u0120disappeared": 3725, "ceed": 3726, "\u0120strawberry": 3727, "\u0120once": 3728, "\u0120Mum": 3729, "\u0120kay": 3730, "\u0120brothers": 3731, "\u0120itch": 3732, "\u0120pirate": 3733, "\u0120football": 3734, "\u0120split": 3735, "kele": 3736, "keleton": 3737, "\u0120hipp": 3738, "\u0120aut": 3739, "\u0120led": 3740, "uring": 3741, "ctopus": 3742, "\u0120driving": 3743, "\u0120cable": 3744, "\u0120support": 3745, "\u0120calling": 3746, "\u0120cupboard": 3747, "aky": 3748, "ushed": 3749, "\u0120wishes": 3750, "\u0120complet": 3751, "\u0120tripped": 3752, "\u0120root": 3753, "gl": 3754, "\u0120kayak": 3755, "\u0120octopus": 3756, "obile": 3757, "\u0120added": 3758, "\u0120edge": 3759, "\u0120mild": 3760, "stic": 3761, "\u0120determined": 3762, "\u0120succeed": 3763, "?\".": 3764, "\u0120reading": 3765, "omobile": 3766, "\u0120coal": 3767, "Well": 3768, "utes": 3769, "par": 3770, "\u0120suggest": 3771, "\u0120stack": 3772, "\u0120thunder": 3773, "\u0120kindness": 3774, "\u0120automobile": 3775, "\u0120complain": 3776, "\u0120enthusiastic": 3777, "\u0120sneeze": 3778, "\u0120cartoon": 3779, "\u0120yoga": 3780, "\u0120Little": 3781, "\u0120growl": 3782, "htub": 3783, "\u0120flea": 3784, "la": 3785, "\u0120meadow": 3786, "\u0120drawer": 3787, "\u0120bathtub": 3788, "\u0120ribb": 3789, "ophone": 3790, "\u0120means": 3791, "\u0120hall": 3792, "\u0120golf": 3793, "\u0120skeleton": 3794, "\u0120math": 3795, "\u0120veil": 3796, "\u0120hunter": 3797, "\u0120gor": 3798, "\u0120flame": 3799, "\u0120poke": 3800, "\u0120video": 3801, "\u0120chess": 3802, "\u0120troph": 3803, "\u0120cups": 3804, "\u0120glowing": 3805, "\u0120matt": 3806, "\u0120oyster": 3807, "work": 3808, "\u0120penny": 3809, "\u0120spear": 3810, "\u0120itself": 3811, "\u0120drawings": 3812, "\u0120hippo": 3813, "\u0120repair": 3814, "\u0120switch": 3815, "glasses": 3816, "\u0120sunglasses": 3817, "\u0120teleph": 3818, "\u0120costume": 3819, "\u0120dess": 3820, "\u0120zipp": 3821, ",\u00e2\u0122\u013f": 3822, "\u0120repe": 3823, "\u0120muffin": 3824, "\u0120arg": 3825, "\u0120pastry": 3826, "\u0120pun": 3827, "\u0120rolling": 3828, "\u0120minutes": 3829, "\u0120packed": 3830, "\u0120makeup": 3831, "iron": 3832, "ric": 3833, "\u0120People": 3834, "\u0120waffle": 3835, "case": 3836, "\u0120handle": 3837, "\u0120pear": 3838, "\u0120maze": 3839, "\u0120telephone": 3840, "\u0120pine": 3841, "ait": 3842, "\u0120gear": 3843, "\u0120hedge": 3844, "\u0120mattress": 3845, "\u0120package": 3846, "aving": 3847, "\u0120Miss": 3848, "\u0120shocked": 3849, "ines": 3850, "\u0120trophy": 3851, "\u0120powder": 3852, "\u0120knight": 3853, "\u0120cob": 3854, "\u0120missile": 3855, "\u0120managed": 3856, "\u0120frame": 3857, "\u0120encou": 3858, "\u0120wife": 3859, "\u0120ok": 3860, "\u0120separ": 3861, "web": 3862, "\u0120stairs": 3863, "\u0120rot": 3864, "\u0120camp": 3865, "urch": 3866, "rophone": 3867, "\u0120magaz": 3868, "\u0120colour": 3869, "\u0120grapes": 3870, "time": 3871, "\u0120file": 3872, "head": 3873, "\u0120Tina": 3874, "\u0120basketball": 3875, "Bye": 3876, "old": 3877, "per": 3878, "\u0120cobweb": 3879, "Re": 3880, "Jimmy": 3881, "anas": 3882, "\u0120Tweet": 3883, "See": 3884, "\u0120perm": 3885, "\u0120wool": 3886, "\u0120microphone": 3887, "esday": 3888, "\u0120eye": 3889, "\u0120leash": 3890, "\u0120gasp": 3891, "iew": 3892, "keep": 3893, "\u0120weep": 3894, "\u0120barking": 3895, "ature": 3896, "\u0120safely": 3897, "\u0120Dan": 3898, "\u0120tear": 3899, "\u0120view": 3900, "ffe": 3901, "\u0120slides": 3902, "\u0120steps": 3903, "istol": 3904, "ffee": 3905, "\u0120bananas": 3906, "\u0120staff": 3907, "\u0120spirit": 3908, "\u0120task": 3909, "\u0120giggled": 3910, "\u0120hoc": 3911, "\u0120hockey": 3912, "\u0120vend": 3913, "\u0120those": 3914, "\u0120gorilla": 3915, "Jill": 3916, "\u0120cooler": 3917, "\u0120Rose": 3918, "was": 3919, "cing": 3920, "\u0120early": 3921, "\u0120marched": 3922, "rosc": 3923, "\u0120mint": 3924, "\u0120Look": 3925, "washer": 3926, "\u0120flour": 3927, "\u0120hotel": 3928, "hic": 3929, "\u0120sailor": 3930, "\u0120dessert": 3931, "\u0120photo": 3932, "roscope": 3933, "\u0120vehic": 3934, "ilot": 3935, "\u0120often": 3936, "\u0120church": 3937, "\u0120Pete": 3938, "\u0120cooking": 3939, "\u0120remain": 3940, "\u0120five": 3941, "\u0120sausage": 3942, "otter": 3943, "\u0120ten": 3944, "\u0120tools": 3945, "\u0120medal": 3946, "\u0120either": 3947, "\u0120fireman": 3948, "chor": 3949, "\u0120grandpa": 3950, "\u0120otter": 3951, "\u0120baseball": 3952, "\u0120pretending": 3953, "\u0120pistol": 3954, "\u0120dishwasher": 3955, "\u0120rever": 3956, "\u0120organize": 3957, "\u0120pee": 3958, "\u0120vendor": 3959, "\u0120knock": 3960, "\u0120sight": 3961, "\u0120grill": 3962, "\u0120temple": 3963, "\u0120battery": 3964, "\u0120thinking": 3965, "\u0120opens": 3966, "\u0120ow": 3967, "\u0120realised": 3968, "\u0120iron": 3969, "\u0120laser": 3970, "\u0120sne": 3971, "\u0120sandbox": 3972, "\u0120oil": 3973, "\u0120patch": 3974, "\u0120hours": 3975, "\u0120rise": 3976, "\u0120whip": 3977, "'d": 3978, "ctory": 3979, "\u0120Give": 3980, "\u0120anchor": 3981, "\u0120trash": 3982, "ense": 3983, "\u0120short": 3984, "ney": 3985, "\u0120Betty": 3986, "\u0120rhin": 3987, "\u0120factory": 3988, "seum": 3989, "\u0120may": 3990, "\u0120ward": 3991, "ately": 3992, "\u0120cardboard": 3993, "ugged": 3994, "\u0120lotion": 3995, "Al": 3996, "\u0120message": 3997, "\u0120valu": 3998, "\u0120wardrobe": 3999, "\u0120cell": 4000, "\u0120museum": 4001, "apers": 4002, "\u0120ur": 4003, "ination": 4004, "\u0120hanging": 4005, "ucet": 4006, "ailable": 4007, "\u0120Sunny": 4008, "\u0120Zoom": 4009, "\u0120hive": 4010, "eer": 4011, "\u0120towers": 4012, "keeper": 4013, "\u0120blackboard": 4014, "\u0120mem": 4015, "\u0120excitement": 4016, "\u0120coffee": 4017, "\u0120pilot": 4018, "ready": 4019, "Fluffy": 4020, "\u0120napkin": 4021, "\u0120penguin": 4022, "ron": 4023, "\u0120check": 4024, "\u0120reward": 4025, "loo": 4026, "\u0120quit": 4027, "\u0120Pippin": 4028, "\u0120cane": 4029, "\u0120picking": 4030, "place": 4031, "\u0120Snow": 4032, "azor": 4033, "\u0120faucet": 4034, "\u0120ig": 4035, "\u0120passport": 4036, "\u0120Rob": 4037, "\u0120stumbled": 4038, "\u0120dreamed": 4039, "\u0120igloo": 4040, "\u0120Bessie": 4041, "aroo": 4042, "angaroo": 4043, "\u0120freez": 4044, "\u0120juicy": 4045, "\u0120allowed": 4046, "play": 4047, "\u0120holds": 4048, "\u0120already": 4049, "\u0120available": 4050, "\u0120sett": 4051, "\u0120bathe": 4052, "\u0120tornado": 4053, "imney": 4054, "\u0120fingers": 4055, "htray": 4056, "\u0120hanger": 4057, "\u0120newsp": 4058, "\u0120size": 4059, "\u0120laund": 4060, "\u0120lend": 4061, "\u0120chimney": 4062, "\u0120laundry": 4063, "\u0120oak": 4064, "\u0120fisher": 4065, "\u0120kangaroo": 4066, "\u0120men": 4067, "\u0120Everywhere": 4068, "\u0120telling": 4069, "Em": 4070, "\u0120novel": 4071, "body": 4072, "\u0120mummy": 4073, "\u0120pal": 4074, "\u0120mule": 4075, "\u0120cherries": 4076, "\u0120notice": 4077, "\u0120practice": 4078, "\u0120spilled": 4079, "\u0120reind": 4080, "\u0120complete": 4081, "\u0120enjoying": 4082, "\u0120microscope": 4083, "ampoo": 4084, "\u0120gain": 4085, "\u0120sub": 4086, "\u0120fireplace": 4087, "\u0120imagine": 4088, "anda": 4089, "arian": 4090, "\u0120display": 4091, "ocer": 4092, "\u0120Zip": 4093, "\u0120fastest": 4094, "\u0120magazine": 4095, "\u0120hurry": 4096, "\u0120cabinet": 4097, "\u0120shrink": 4098, "\u0120ashtray": 4099, "Wait": 4100, "\u0120cows": 4101, "\u0120Spike": 4102, "Joe": 4103, "gen": 4104, "\u0120palace": 4105, "\u0120improve": 4106, "aches": 4107, "\u0120rake": 4108, "\u0120reindeer": 4109, "\u0120falling": 4110, "oceros": 4111, "\u0120skirt": 4112, "ured": 4113, "\u0120discovered": 4114, "\u0120stared": 4115, "\u0120roared": 4116, "aid": 4117, "\u0120silver": 4118, "\u0120tub": 4119, "\u0120trail": 4120, "Is": 4121, "\u0120miner": 4122, "come": 4123, "\u0120bill": 4124, "iction": 4125, "\u0120fog": 4126, "\u0120ax": 4127, "stairs": 4128, "ilet": 4129, "\u0120hut": 4130, "\u0120happier": 4131, "\u0120taller": 4132, "ictionary": 4133, "\u0120oats": 4134, "\u0120fisherman": 4135, "\u0120object": 4136, "\u0120por": 4137, "vision": 4138, "\u0120valuable": 4139, "\u0120shampoo": 4140, "\u0120holes": 4141, "\u0120offered": 4142, "\u0120boots": 4143, "\u0120rhinoceros": 4144, "\u0120names": 4145, "\u0120toilet": 4146, "\u0120climbing": 4147, "\u0120blin": 4148, "vice": 4149, "Ow": 4150, "\u0120stretched": 4151, "iest": 4152, "\u0120zipper": 4153, "\u0120listening": 4154, "\u0120sym": 4155, "\u0120bathrobe": 4156, "alend": 4157, "\u0120jewelry": 4158, "\u0120Here": 4159, "\u0120jokes": 4160, "\u0120television": 4161, "\u0120prov": 4162, "\u0120calend": 4163, "\u0120stops": 4164, "\u0120axe": 4165, "\u0120jumps": 4166, "\u0120fuel": 4167, "\u0120sparkly": 4168, "cu": 4169, "\u0120perfume": 4170, "\u0120Susie": 4171, "\u0120bury": 4172, "bol": 4173, "Mummy": 4174, "\u0120pressed": 4175, "\u0120Kim": 4176, "reek": 4177, "\u0120rece": 4178, "fa": 4179, "\u0120Toby": 4180, "\u0120neat": 4181, "\u0120creek": 4182, "\u0120popped": 4183, "\u0120opera": 4184, "\u0120calendar": 4185, "\u0120snap": 4186, "\u0120gasped": 4187, "\u0120attach": 4188, "\u0120symbol": 4189, "\u0120Mar": 4190, "\u0120tuna": 4191, "\u0120papers": 4192, "Mr": 4193, "\u0120unpack": 4194, "\u0120resist": 4195, "\u0120dictionary": 4196, "\u0120subway": 4197, "\u0120letters": 4198, "\u0120freezer": 4199, "\u0120chose": 4200, "\u0120pinch": 4201, "zag": 4202, "\u0120spoke": 4203, "\u0120anyway": 4204, "\u0120super": 4205, "\u0120porch": 4206, "\u0120helper": 4207, "affe": 4208, "\u0120bikes": 4209, "\u0120lie": 4210, "arry": 4211, "iches": 4212, "\u0120tightly": 4213, "\u0120comfort": 4214, "\u0120shaking": 4215, "\u0120bookcase": 4216, "\u0120son": 4217, "\u0120razor": 4218, "aurant": 4219, "\u0120sandwiches": 4220, "\u0120Are": 4221, "igzag": 4222, "\u0120weigh": 4223, "\u0120against": 4224, "\u0120stickers": 4225, "\u0120restaurant": 4226, "\u0120newspaper": 4227, "\u0120blouse": 4228, "\u0120vehicle": 4229, "\u0120swinging": 4230, "\u0120disag": 4231, "\u0120ped": 4232, "\u0120nature": 4233, "\u0120squirrels": 4234, "ival": 4235, "\u0120belongs": 4236, "\u0120swamp": 4237, "\u0120incl": 4238, "\u0120butterflies": 4239, "\u0120gym": 4240, "\u0120growing": 4241, "\u0120buckle": 4242, "omed": 4243, "\u0120stirred": 4244, "\u0120mustache": 4245, "\u0120billboard": 4246, "xy": 4247, "\u0120beep": 4248, "te": 4249, "\u0120alarm": 4250, "\u0120lightning": 4251, "\u0120lip": 4252, "\u0120fest": 4253, "\u0120hung": 4254, "utor": 4255, "\u0120distance": 4256, "ogn": 4257, "\u0120cards": 4258, "\u0120obser": 4259, "\u0120agree": 4260, "Little": 4261, "\u0120ext": 4262, "\u0120tease": 4263, "\u0120recogn": 4264, "\u0120rubber": 4265, "ik": 4266, "\u0120hate": 4267, "fast": 4268, "ef": 4269, "Ouch": 4270, "\u0120doesn": 4271, "\u0120musician": 4272, "\u0120advice": 4273, "\u0120beef": 4274, "\u0120serve": 4275, "aspoon": 4276, "\u0120sweetie": 4277, "\u0120model": 4278, "lter": 4279, "\u0120crib": 4280, "\u0120blueberries": 4281, "\u0120sofa": 4282, "\u0120circles": 4283, "\u0120breakfast": 4284, "\u0120tutor": 4285, "asis": 4286, "\u0120bookshe": 4287, "stri": 4288, "\u0120giraffe": 4289, "\u0120festival": 4290, "\u0120separate": 4291, "\u0120shelter": 4292, "\u0120gas": 4293, "\u0120airport": 4294, "\u0120olive": 4295, "\u0120Big": 4296, "\u0120rail": 4297, "\u0120bookshelf": 4298, "\u0120frogs": 4299, "\u0120teaspoon": 4300, "\u0120reverse": 4301, "\u0120junk": 4302, "\u0120riding": 4303, "\u0120pleased": 4304, "\u0120drain": 4305, "\u0120Mrs": 4306, "\u0120wipe": 4307, "\u0120oasis": 4308, "\u0120soil": 4309, "\u0120ahead": 4310, "\u0120rescue": 4311, "\u0120leaving": 4312, "ummer": 4313, "\u0120painter": 4314, "\u0120squeeze": 4315, "\u0120chance": 4316, "\u0120poked": 4317, "\u0120knob": 4318, "\u0120Teddy": 4319, "\u0120peeked": 4320, "\u0120lumber": 4321, "\u0120trains": 4322, "\u0120extra": 4323, "\u0120slipp": 4324, "\u0120quiz": 4325, "\u0120refused": 4326, "res": 4327, "rmomet": 4328, "\u0120page": 4329, "\u0120rules": 4330, "\u0120happens": 4331, "\u0120sounded": 4332, "\u0120ins": 4333, "\u0120point": 4334, "\u0120winter": 4335, "\u0120dancer": 4336, "\u0120Grandpa": 4337, "\u0120birdc": 4338, "\u0120disappear": 4339, "rmometer": 4340, "\u0120Dolly": 4341, "\u0120weather": 4342, "\u0120waste": 4343, "\u0120lic": 4344, "\u0120birdcage": 4345, "\u0120theater": 4346, "\u0120reef": 4347, "\u0120carrying": 4348, "Daisy": 4349, "\u0120invite": 4350, "iform": 4351, "\u0120goal": 4352, "\u0120ostri": 4353, "\u0120uniform": 4354, "\u0120swung": 4355, "\u0120trade": 4356, "\u0120cliff": 4357, "\u0120wig": 4358, "ience": 4359, "\u0120lawn": 4360, "ola": 4361, "\u0120leaned": 4362, "\u0120Pandy": 4363, "angu": 4364, "\u0120accept": 4365, "\u0120admire": 4366, "\u0120fort": 4367, "\u0120accidentally": 4368, "\u0120pastel": 4369, "bbles": 4370, "\u0120stom": 4371, "\u0120langu": 4372, "\u0120twir": 4373, "\u0120suff": 4374, "\u0120panda": 4375, "riger": 4376, "\u0120bet": 4377, "rigerator": 4378, "\u0120peek": 4379, "render": 4380, "\u0120blinked": 4381, "\u0120starts": 4382, "\u0120refrigerator": 4383, "\u0120anywhere": 4384, "!\".": 4385, "\u0120imagined": 4386, "\u0120dreaming": 4387, "\u0120remove": 4388, "night": 4389, "\u0120shower": 4390, "\u0120Lee": 4391, "\u0120Co": 4392, "\u0120classroom": 4393, "\u0120ceiling": 4394, "\u0120caring": 4395, "ium": 4396, "\u0120grand": 4397, "\u0120missing": 4398, "aked": 4399, "\u0120license": 4400, "\u0120stable": 4401, "\u0120thermometer": 4402, "\u0120monkeys": 4403, "astic": 4404, "\u0120warned": 4405, "\u0120summer": 4406, "\u0120Where": 4407, "\u0120above": 4408, "\u0120brick": 4409, "ected": 4410, "\u0120cudd": 4411, "\u0120problems": 4412, "amber": 4413, "\u0120chasing": 4414, "\u0120label": 4415, "\u0120apron": 4416, "\u0120sent": 4417, "urnit": 4418, "urniture": 4419, "\u0120lawy": 4420, "\u0120lid": 4421, "uggage": 4422, "med": 4423, "\u0120respectful": 4424, "\u0120furniture": 4425, "\u0120frowned": 4426, "\u0120zoomed": 4427, "\u0120pages": 4428, "\u0120prevent": 4429, "\u0120bent": 4430, "\u0120luggage": 4431, "\u0120mistakes": 4432, "\u0120sunset": 4433, "\u0120ostrich": 4434, "ison": 4435, "\u0120suggested": 4436, "\u0120windows": 4437, "ations": 4438, "\u0120jail": 4439, "low": 4440, "\u0120wine": 4441, "\u0120ribbon": 4442, "\u0120older": 4443, "\u0120shouts": 4444, "\u0120grape": 4445, "\u0120Cl": 4446, "\u0120strug": 4447, "ucture": 4448, "\u0120structure": 4449, "\u0120spoil": 4450, "eor": 4451, "\u0120fixing": 4452, "\u0120chamber": 4453, "\u0120lions": 4454, "\u0120delay": 4455, "\u0120finds": 4456, "\u0120handed": 4457, "\u0120searching": 4458, "\u0120unite": 4459, "Did": 4460, "\u0120fought": 4461, "\u0120lawyer": 4462, "\u0120brightly": 4463, "\u0120pair": 4464, "\u0120meeting": 4465, "\u0120choice": 4466, "\u0120surprises": 4467, "\u0120Un": 4468, "\u0120Ellie": 4469, "\u0120art": 4470, "Ch": 4471, "\u0120favour": 4472, "eterin": 4473, "eterinarian": 4474, "adium": 4475, "\u0120stadium": 4476, "\u0120proudly": 4477, "iki": 4478, "\u0120veterinarian": 4479, "vet": 4480, "\u0120chairs": 4481, "rod": 4482, "\u0120slip": 4483, "\u0120Spe": 4484, "\u0120sadly": 4485, "\u0120Bow": 4486, "\u0120incre": 4487, "\u0120Carl": 4488, "\u0120puddles": 4489, "\u0120berry": 4490, "\u0120introd": 4491, "\u0120ranch": 4492, "veal": 4493, "\u0120Boun": 4494, "\u0120argue": 4495, "\u0120V": 4496, "\u0120admired": 4497, "\u0120cur": 4498, "\u0120favourite": 4499, "Your": 4500, "\u0120inf": 4501, "\u0120excitedly": 4502, "\u0120rac": 4503, "\u0120grabs": 4504, "mend": 4505, "\u0120steam": 4506, "thank": 4507, "\u0120human": 4508, "eorge": 4509, "sity": 4510, "\u0120Hel": 4511, "\u0120pushing": 4512, "\u0120saving": 4513, "\u0120Red": 4514, "\u0120reveal": 4515, "ommend": 4516, "alley": 4517, "\u0120yield": 4518, "olog": 4519, "\u0120mall": 4520, "\u0120reminded": 4521, "\u0120recommend": 4522, "\u0120leak": 4523, "\u0120surrender": 4524, "\u0120harb": 4525, "\u0120appl": 4526, "cuss": 4527, "aul": 4528, "\u0120weap": 4529, "\u0120regret": 4530, "\u0120putting": 4531, "\u0120valley": 4532, "\u0120mineral": 4533, "\u0120evening": 4534, "chan": 4535, "elcome": 4536, "\u0120matches": 4537, "\u0120forgave": 4538, "\u0120sneezed": 4539, "\u0120pup": 4540, "\u0120aw": 4541, "\u0120rushed": 4542, "ecause": 4543, "\u0120spade": 4544, "\u0120apolog": 4545, "\u0120plates": 4546, "\u0120discuss": 4547, "\u0120beg": 4548, "\u0120prepare": 4549, "\u0120harbor": 4550, "\u0120ignore": 4551, "\u0120country": 4552, "\u0120language": 4553, "\u0120Buzzy": 4554, "\u0120pulls": 4555, "\u0120plastic": 4556, "\u0120supply": 4557, "\u0120float": 4558, "\u0120sniffed": 4559, "\u0120Jazz": 4560, "\u0120replace": 4561, "\u0120meas": 4562, "\u0120shovel": 4563, "\u0120Bill": 4564, "\u0120raise": 4565, "\u0120Next": 4566, "\u0120fre": 4567, "\u0120cared": 4568, "\u0120socks": 4569, "\u0120strip": 4570, "\u0120doors": 4571, "\u0120mystery": 4572, "\u0120lives": 4573, "\u0120restore": 4574, "\u0120sticker": 4575, "\u0120sudden": 4576, "ari": 4577, "\u0120kinds": 4578, "\u0120slippery": 4579, "ero": 4580, "\u0120Ow": 4581, "\u0120player": 4582, "\u0120panic": 4583, "ricane": 4584, "\u0120hoping": 4585, "iday": 4586, "\u0120shone": 4587, "lex": 4588, "ude": 4589, "hero": 4590, "\u0120Mike": 4591, "\u0120Binky": 4592, "\u0120superhero": 4593, "\u0120delighted": 4594, "\u0120gro": 4595, "Yay": 4596, "\u0120chickens": 4597, "\u0120shoulder": 4598, "\u0120rained": 4599, "\u0120colourful": 4600, "\u0120breat": 4601, "\u0120Alice": 4602, "\u0120claw": 4603, "\u0120Bubbles": 4604, "Yuck": 4605, "\u0120softly": 4606, "rise": 4607, "\u0120port": 4608, "Grandma": 4609, "\u0120hol": 4610, "icer": 4611, "\u0120holiday": 4612, "\u0120\u00e2\u0122": 4613, "\u0120barks": 4614, "ason": 4615, "\u0120throwing": 4616, "\u0120planes": 4617, "Mary": 4618, "\u0120bend": 4619, "\u0120Freddy": 4620, "\u0120shakes": 4621, "\u0120infant": 4622, "\u0120ended": 4623, "\u0120shivering": 4624, "\u0120kneel": 4625, "\u0120sunrise": 4626, "\u0120pushes": 4627, "\u0120Olive": 4628, "\u0120thanks": 4629, "\u0120fresh": 4630, "\u0120suffer": 4631, "\u0120points": 4632, "imed": 4633, "wards": 4634, "\u0120Pat": 4635, "\u0120tip": 4636, "\u0120Speedy": 4637, "\u0120freeze": 4638, "\u0120keeping": 4639, "\u0120Would": 4640, "\u0120giggle": 4641, "\u0120copper": 4642, "\u0120smells": 4643, "\u0120dear": 4644, "ah": 4645, "\u0120enter": 4646, "\u0120provide": 4647, "cast": 4648, "chanic": 4649, "\u0120dishes": 4650, "\u0120End": 4651, "\u0120applau": 4652, "cond": 4653, "\u0120unh": 4654, "Next": 4655, "\u0120heads": 4656, "\u0120hurricane": 4657, "\u0120cherry": 4658, "\u0120thumb": 4659, "\u0120menu": 4660, "\u0120meowed": 4661, "\u0120mass": 4662, "\u0120second": 4663, "\u0120brighter": 4664, "ince": 4665, "\u0120sandcast": 4666, "\u0120mechanic": 4667, "\u0120wre": 4668, "\u0120sprayed": 4669, "\u0120letting": 4670, "\u0120event": 4671, "\u0120weapon": 4672, "\u0120laught": 4673, "\u0120x": 4674, "\u0120laughter": 4675, "\u0120clapping": 4676, "\u0120feelings": 4677, "Will": 4678, "icky": 4679, "\u0120splashing": 4680, "ement": 4681, "\u0120Or": 4682, "acked": 4683, "\u0120castles": 4684, "\u0120Fl": 4685, "cer": 4686, "\u0120score": 4687, "apping": 4688, "\u0120universe": 4689, "\u0120navy": 4690, "\u0120dem": 4691, "\u0120sticky": 4692, "ophie": 4693, "\u0120rooms": 4694, "\u0120row": 4695, "\u0120flies": 4696, "igi": 4697, "\u0120Dave": 4698, "\u0120unhappy": 4699, "\u0120greedy": 4700, "\u0120dare": 4701, "\u0120alive": 4702, "\u0120breaks": 4703, "\u0120ener": 4704, "\u0120courage": 4705, "\u0120invit": 4706, "Ready": 4707, "\u0120repeat": 4708, "\u0120demand": 4709, "gie": 4710, "\u0120trusted": 4711, "Lisa": 4712, "\u0120somewhere": 4713, "arlie": 4714, "\u0120prune": 4715, "bles": 4716, "\u0120wreck": 4717, "\u0120Y": 4718, "\u0120skill": 4719, "\u0120examine": 4720, "\u0120parts": 4721, "year": 4722, "\u0120eaten": 4723, "oe": 4724, "All": 4725, "erc": 4726, "enry": 4727, "\u0120mention": 4728, "\u0120raining": 4729, "\u0120Help": 4730, "\u0120snug": 4731, "Buddy": 4732, "\u0120throws": 4733, "\u0120jogged": 4734, "quest": 4735, "\u0120starting": 4736, "\u0120rush": 4737, "\u0120poison": 4738, "\u0120pirates": 4739, "heart": 4740, "\u0120vac": 4741, "\u0120content": 4742, "Emma": 4743, "\u0120Kiki": 4744, "\u0120sigh": 4745, "\u0120flapped": 4746, "\u0120drops": 4747, "\u0120chirp": 4748, "\u0120sport": 4749, "Qu": 4750, "\u0120sparkled": 4751, "\u0120Zoomy": 4752, "\u0120given": 4753, "\u0120streng": 4754, "\u0120steel": 4755, "Ann": 4756, "\u0120bumped": 4757, "\u0120yawned": 4758, "\u0120stud": 4759, "\u0120request": 4760, "\u0120scold": 4761, "\u0120myself": 4762, "\u0120strength": 4763, "\u0120shrugged": 4764, "Mark": 4765, "\u0120coats": 4766, "\u0120punish": 4767, "\u0120equ": 4768, "\u0120university": 4769, "\u0120paid": 4770, "\u0120Johnny": 4771, "\u0120pigs": 4772, "\u0120scratch": 4773, "\u0120toe": 4774, "\u0120exerc": 4775, "\u0120tracks": 4776, "\u0120upstairs": 4777, "\u0120prayed": 4778, "\u0120crossed": 4779, "\u0120squeezed": 4780, "\u0120impressed": 4781, "\u0120flood": 4782, "\u0120bouncing": 4783, "Alice": 4784, "\u0120rabbits": 4785, "ges": 4786, "\u0120badly": 4787, "..": 4788, "\u0120warn": 4789, "\u0120leather": 4790, "\u0120tug": 4791, "\u0120expect": 4792, "\u0120news": 4793, "\u0120tide": 4794, "\u0120Ted": 4795, "\u0120minute": 4796, "\u0120bears": 4797, "\u0120claws": 4798, "\u0120buzz": 4799, "\u0120sweetheart": 4800, "\u0120Sm": 4801, "yth": 4802, "\u0120nation": 4803, "Sh": 4804, "ythm": 4805, "\u0120vacation": 4806, "\u0120hist": 4807, "\u0120heat": 4808, "\u0120strawberries": 4809, "\u0120observe": 4810, "\u0120explored": 4811, "\u0120settle": 4812, "\u0120sandcastle": 4813, "\u0120yawn": 4814, "\u0120history": 4815, "\u0120Lilly": 4816, "\u0120Lola": 4817, "mare": 4818, "\u0120Mummy": 4819, "\u0120Sque": 4820, "ially": 4821, "inking": 4822, "\u0120believed": 4823, "\u0120horses": 4824, "Daddy": 4825, "\u0120Hoppy": 4826, "\u0120checked": 4827, "\u0120Mandy": 4828, "\u0120tour": 4829, "\u0120network": 4830, "\u0120cheek": 4831, "\u0120Under": 4832, "\u0120offer": 4833, "\u0120easily": 4834, "\u0120placed": 4835, "spec": 4836, "\u0120spots": 4837, "\u0120snowball": 4838, "ween": 4839, "men": 4840, "\u0120energy": 4841, "\u0120Bee": 4842, "\u0120imagination": 4843, "\u0120blueberry": 4844, "otten": 4845, "\u0120between": 4846, "specially": 4847, "\u0120Gigi": 4848, "izes": 4849, "\u0120daisy": 4850, "\u0120waving": 4851, "reeze": 4852, "reat": 4853, "\u0120vroom": 4854, "\u0120soak": 4855, "\u0120safari": 4856, "\u0120rhythm": 4857, "\u0120massage": 4858, "\u0120stomach": 4859, "\u0120baking": 4860, "quake": 4861, "\u0120nightmare": 4862, "\u0120insisted": 4863, "\u0120blowing": 4864, "\u0120entered": 4865, "Before": 4866, "\u0120stair": 4867, "\u0120palm": 4868, "\u0120beauty": 4869, "\u0120twisted": 4870, "\u0120bother": 4871, "\u0120writing": 4872, "\u0120scoop": 4873, "\u0120prunes": 4874, "\u0120brain": 4875, "\u0120ing": 4876, "ipment": 4877, "\u0120poppy": 4878, "\u0120hills": 4879, "noon": 4880, "\u0120afternoon": 4881, "\u0120equipment": 4882, "\u0120especially": 4883, "\u0120Ru": 4884, "hest": 4885, "\u0120sir": 4886, "\u0120pad": 4887, "\u0120See": 4888, "\u0120ingred": 4889, "\u0120calls": 4890, "\u0120ingredient": 4891, "\u0120Fox": 4892, "\u0120earthquake": 4893, "\u0120ignored": 4894, "\u0120Snowy": 4895, "\u0120burned": 4896, "\u0120nobody": 4897, "mble": 4898, "\u0120sty": 4899, "apa": 4900, "\u0120sew": 4901, "isty": 4902, "xygen": 4903, "\u0120hearts": 4904, "\u0120lear": 4905, "\u0120learnt": 4906, "\u0120lemonade": 4907, "\u0120increase": 4908, "illie": 4909, "Jenny": 4910, "\u0120gaz": 4911, "\u0120backpack": 4912, "\u0120mailman": 4913, "\u0120whistled": 4914, "\u0120pedal": 4915, "\u0120Sk": 4916, "Fred": 4917, "\u0120shopkeeper": 4918, "ffic": 4919, "\u0120permit": 4920, "\u0120tremble": 4921, "\u0120yucky": 4922, "anges": 4923, "\u0120moves": 4924, "\u0120introduce": 4925, "\u0120lemons": 4926, "\u0120crash": 4927, "\u0120beans": 4928, "\u0120floated": 4929, "edn": 4930, "ednesday": 4931, "ittens": 4932, "Welcome": 4933, "\u0120planned": 4934, "\u0120strike": 4935, "\u0120traffic": 4936, "\u0120include": 4937, "\u0120slap": 4938, "\u0120racing": 4939, "\u0120Lucky": 4940, "resses": 4941, "\u0120wisdom": 4942, "\u0120pur": 4943, "\u0120wags": 4944, "\u0120Finny": 4945, "laimed": 4946, "\u0120George": 4947, "\u0120luck": 4948, "\u0120following": 4949, "\u0120price": 4950, "ecting": 4951, "\u0120mama": 4952, "\u0120pitch": 4953, "\u0120below": 4954, "\u0120Elly": 4955, "\u0120Have": 4956, "Le": 4957, "\u0120weight": 4958, "\u0120exclaimed": 4959, "house": 4960, "\u0120buried": 4961, "\u0120follows": 4962, "\u0120comf": 4963, "\u0120recognize": 4964, "\u0120ingredients": 4965, "\u0120\u010a": 4966, "\u0120furt": 4967, "tain": 4968, "mem": 4969, "\u0120candles": 4970, "eme": 4971, "Mimi": 4972, "\u0120marbles": 4973, "riage": 4974, "unday": 4975, "emember": 4976, "eration": 4977, "\u0120Alex": 4978, "\u0120apart": 4979, "\u0120Wednesday": 4980, "\u0120growled": 4981, "uct": 4982, "ores": 4983, "\u0120conf": 4984, "\u0120teaching": 4985, "\u0120hopes": 4986, "\u0120folded": 4987, "\u0120closely": 4988, "\u0120Finn": 4989, "\u0120Who": 4990, "\u0120heel": 4991, "\u0120Su": 4992, "\u0120Sunday": 4993, "\u0120encourage": 4994, "\u0120Paul": 4995, "\u0120Owl": 4996, "\u0120zigzag": 4997, "\u0120pulling": 4998, "\u0120bouncy": 4999, "\u0120further": 5000, "\u0120chewed": 5001, "\u0120digging": 5002, "\u0120winning": 5003, "Woof": 5004, "With": 5005, "\u0120dresses": 5006, "\u0120image": 5007, "rec": 5008, "cery": 5009, "\u0120encoura": 5010, "\u0120shouting": 5011, "\u0120grocery": 5012, "\u0120twisty": 5013, "\u0120peanuts": 5014, "\u0120puzzles": 5015, "bbing": 5016, "\u0120Dog": 5017, "look": 5018, "\u0120scrat": 5019, "\u0120chores": 5020, "\u0120whisper": 5021, "\u0120Is": 5022, "\u0120spike": 5023, "\u0120Froggy": 5024, "\u0120cape": 5025, "\u0120snail": 5026, "\u0120acorns": 5027, "\u0120worms": 5028, "hood": 5029, "\u0120deeper": 5030, "\u0120urge": 5031, "ifi": 5032, "\u0120exper": 5033, "\u0120Whenever": 5034, "\u0120Tilly": 5035, "\u0120Squeaky": 5036, "\u0120Grace": 5037, "\u0120planted": 5038, "\u0120attention": 5039, "ecture": 5040, "\u0120exercise": 5041, "\u0120Danny": 5042, "\u0120cub": 5043, "\u0120operation": 5044, "\u0120underground": 5045, "\u0120hon": 5046, "\u0120agre": 5047, "\u0120quite": 5048, "\u0120creatures": 5049, "\u0120simp": 5050, "Everyone": 5051, "\u0120struggle": 5052, "oral": 5053, "\u0120Mittens": 5054, "ddy": 5055, "\u0120blood": 5056, "\u0120lecture": 5057, "\u0120washing": 5058, "\u0120hurting": 5059, "\u0120vanished": 5060, "\u0120gifts": 5061, "\u0120dressed": 5062, "\u0120invitation": 5063, "\u0120solved": 5064, "\u0120licks": 5065, "\u0120snuggled": 5066, "\u0120Sharing": 5067, "ippy": 5068, "\u0120ble": 5069, "\u0120marriage": 5070, "\u0120quietly": 5071, "\u0120warning": 5072, "\u0120jazz": 5073, "\u0120breathe": 5074, "reci": 5075, "\u0120elephants": 5076, "\u0120sizes": 5077, "\u0120dried": 5078, "\u0120fallen": 5079, "\u0120landscape": 5080, "ories": 5081, "\u0120sprink": 5082, "\u0120neighbour": 5083, "\u0120mice": 5084, "uesday": 5085, "\u0120appreci": 5086, "\u0120Sophie": 5087, "\u0120Joey": 5088, "\u0120\u00e2\u0122\u0135": 5089, "\u0120eagerly": 5090, "\u0120sailing": 5091, "\u0120Coco": 5092, "\u0120paused": 5093, "ips": 5094, "\u0120counter": 5095, "\u0120Good": 5096, "\u0120Bounce": 5097, "\u0120Penny": 5098, "\u0120worth": 5099, "looking": 5100, "\u0120Rock": 5101, "\u0120oxygen": 5102, "Because": 5103, "\u0120release": 5104, "\u0120shined": 5105, "Not": 5106, "pted": 5107, "\u0120reaches": 5108, "\u0120balan": 5109, "\u0120Zara": 5110, "isses": 5111, "\u0120oh": 5112, "\u0120kisses": 5113, "\u0120style": 5114, "\u0120bricks": 5115, "\u0120plays": 5116, "\u0120glo": 5117, "\u0120Tuesday": 5118, "\u0120ideas": 5119, "sed": 5120, "\u0120inst": 5121, "\u0120wob": 5122, "\u0120fireworks": 5123, "Bella": 5124, "iggly": 5125, "ucked": 5126, "\u0120seeing": 5127, "\u0120flap": 5128, "ops": 5129, "\u0120accepted": 5130, "right": 5131, "\u0120Pip": 5132, "Today": 5133, "\u0120blink": 5134, "mm": 5135, "\u0120Ros": 5136, "\u0120tremb": 5137, "These": 5138, "\u0120muddy": 5139, "\u0120memory": 5140, "\u0120married": 5141, "\u0120tomatoes": 5142, "\u0120exit": 5143, "\u0120Annie": 5144, "\u0120wagging": 5145, "\u0120fash": 5146, "Remy": 5147, "\u0120Charlie": 5148, "\u0120wandered": 5149, "unately": 5150, "ipping": 5151, "\u0120gloves": 5152, "\u0120captain": 5153, "\u0120pillows": 5154, "\u0120receive": 5155, "\u0120resp": 5156, "\u0120Pinky": 5157, "\u0120during": 5158, "\u0120Everything": 5159, "etch": 5160, "\u0120web": 5161, "\u0120petals": 5162, "\u0120watered": 5163, "\u0120Eventually": 5164, "\u0120si": 5165, "ived": 5166, "\u0120manage": 5167, "\u0120pinched": 5168, "\u0120brings": 5169, "ux": 5170, "\u0120vanish": 5171, "\u0120cakes": 5172, "\u0120fashion": 5173, "\u0120Bluey": 5174, "\u0120printer": 5175, "\u0120destroyed": 5176, "\u0120treasures": 5177, "nce": 5178, "\u0120allow": 5179, "ups": 5180, "\u0120hadn": 5181, "\u0120worse": 5182, "\u0120Fifi": 5183, "Surpr": 5184, "\u0120vel": 5185, "\u0120hits": 5186, "\u0120bur": 5187, "uxu": 5188, "\u0120velvet": 5189, "\u0120appear": 5190, "\u0120disagree": 5191, "do": 5192, "\u0120catching": 5193, "\u0120scattered": 5194, "\u0120Ro": 5195, "\u0120memories": 5196, "\u0120sorts": 5197, "\u0120Papa": 5198, "\u0120hers": 5199, "\u0120scolded": 5200, "\u0120signs": 5201, "\u0120pears": 5202, "\u0120oranges": 5203, "\u0120bones": 5204, "\u0120rang": 5205, "\u0120snapped": 5206, "\u0120sits": 5207, "\u0120seats": 5208, "Bl": 5209, "\u0120gazed": 5210, "\u0120raised": 5211, "\u0120Maria": 5212, "\u0120zipped": 5213, "\u0120pies": 5214, "\u0120prints": 5215, "\u0120shot": 5216, "\u0120sliding": 5217, "\u0120God": 5218, "\u0120fro": 5219, "\u0120easier": 5220, "ssible": 5221, "\u0120skills": 5222, "\u0120climbs": 5223, "\u0120twirled": 5224, "ccer": 5225, "\u0120blankets": 5226, "ester": 5227, "\u0120forgotten": 5228, "\u0120applaud": 5229, "\u0120baked": 5230, "Yum": 5231, "esterday": 5232, "\u0120difference": 5233, "orted": 5234, "\u0120luxu": 5235, "\u0120golden": 5236, "ising": 5237, "\u0120kitty": 5238, "\u0120Tw": 5239, "\u0120cutting": 5240, "\u0120season": 5241, "aggie": 5242, "\u0120nowhere": 5243, "\u0120crow": 5244, "\u0120soccer": 5245, "\u0120dared": 5246, "\u0120bites": 5247, "\u0120Henry": 5248, "\u0120Harry": 5249, "anny": 5250, "\u0120celebrated": 5251, "\u0120lung": 5252, "choo": 5253, "chie": 5254, "\u0120straight": 5255, "\u0120unlocked": 5256, "sters": 5257, "\u0120sorting": 5258, "\u0120collected": 5259, "\u0120bleed": 5260, "aped": 5261, "\u0120welcomed": 5262, "\u0120visited": 5263, "\u0120spoons": 5264, "\u0120ours": 5265, "\u0120stitch": 5266, "\u0120jogging": 5267, "Surprise": 5268, "medi": 5269, "\u0120emer": 5270, "\u0120Spark": 5271, "mediately": 5272, "\u0120isn": 5273, "\u0120tong": 5274, "\u0120trave": 5275, "\u0120winner": 5276, "umble": 5277, "\u0120since": 5278, "\u0120ruin": 5279, "\u0120prett": 5280, "Ok": 5281, "Moral": 5282, "\u0120Tony": 5283, "\u0120attached": 5284, "\u0120weeping": 5285, "\u0120marching": 5286, "\u0120luxury": 5287, "\u0120simple": 5288, "\u0120Each": 5289, "\u0120shouldn": 5290, "\u0120guessed": 5291, "\u0120zero": 5292, "\u0120created": 5293, "\u0120stuffed": 5294, "\u0120pets": 5295, "ction": 5296, "\u0120waist": 5297, "\u0120famil": 5298, "\u0120urged": 5299, "\u0120bowed": 5300, "\u0120selling": 5301, "\u0120floating": 5302, "rr": 5303, "\u0120Smith": 5304, "\u0120bye": 5305, "\u0120King": 5306, "\u0120vict": 5307, "\u0120kingdom": 5308, "\u0120olives": 5309, "\u0120kicking": 5310, "\u0120Wiggly": 5311, "\u0120punished": 5312, "\u0120Liz": 5313, "\u0120Baby": 5314, "sit": 5315, "\u0120toes": 5316, "\u0120An": 5317, "\u0120grant": 5318, "\u0120muscles": 5319, "\u0120jewels": 5320, "\u0120Rosie": 5321, "\u0120beds": 5322, "\u0120melted": 5323, "Goodbye": 5324, "\u0120slice": 5325, "\u0120grin": 5326, "\u0120understanding": 5327, "\u0120collection": 5328, "\u0120tore": 5329, "\u0120measured": 5330, "aker": 5331, "\u0120cras": 5332, "omeday": 5333, "iers": 5334, "\u0120trapped": 5335, "\u0120lined": 5336, "'ve": 5337, "\u0120acted": 5338, "fortunately": 5339, "\u0120encouraged": 5340, "va": 5341, "\u0120Sandy": 5342, "\u0120received": 5343, "\u0120waffles": 5344, "\u0120Before": 5345, "\u0120Wally": 5346, "\u0120west": 5347, "\u0120meow": 5348, "ents": 5349, "\u0120patterns": 5350, "rin": 5351, "ino": 5352, "eath": 5353, "\u0120brus": 5354, "\u0120mouths": 5355, "kins": 5356, "ring": 5357, "\u0120Kate": 5358, "Meow": 5359, "\u0120peaches": 5360, "\u0120breeze": 5361, "aded": 5362, "une": 5363, "\u0120printed": 5364, "\u0120soldiers": 5365, "\u0120someday": 5366, "\u0120potatoes": 5367, "\u0120pupil": 5368, "umes": 5369, "\u0120Millie": 5370, "\u0120drinks": 5371, "\u0120shed": 5372, "\u0120experience": 5373, "\u0120Tuna": 5374, "eep": 5375, "\u0120presents": 5376, "\u0120firef": 5377, "\u0120Ruby": 5378, "\u0120surround": 5379, "\u0120none": 5380, "osed": 5381, "ann": 5382, "\u0120voices": 5383, "\u0120drinking": 5384, "\u0120Uncle": 5385, "ishing": 5386, "\u0120relaxed": 5387, "\u0120victory": 5388, "cus": 5389, "\u0120paints": 5390, "\u0120breaking": 5391, "eve": 5392, "\u0120hurried": 5393, "ission": 5394, "\u0120twink": 5395, "\u0120tongue": 5396, "\u0120recor": 5397, "\u0120costumes": 5398, "\u0120flat": 5399, "\u0120mentioned": 5400, "\u0120begged": 5401, "\u0120teasing": 5402, "\u0120whistling": 5403, "\u0120fetch": 5404, "\u0120permission": 5405, "\u0120sip": 5406, "\u0120disagreed": 5407, "\u0120pearl": 5408, "akes": 5409, "\u0120stro": 5410, "vest": 5411, "\u0120These": 5412, "\u0120esc": 5413, "\u0120appro": 5414, "\u0120skipping": 5415, "\u0120fishing": 5416, "\u0120May": 5417, "Leo": 5418, "\u0120highest": 5419, "\u0120pra": 5420, "\u0120watches": 5421, "\u0120sorted": 5422, "\u0120ringing": 5423, "ship": 5424, "\u0120tonight": 5425, "\u0120Bo": 5426, "\u0120opin": 5427, "\u0120lets": 5428, "icing": 5429, "\u0120Qu": 5430, "\u0120perfectly": 5431, "\u0120shadows": 5432, "\u0120immediately": 5433, "\u0120herbs": 5434, "\u0120warmth": 5435, "\u0120spit": 5436, "\u0120remained": 5437, "ther": 5438, "\u0120Its": 5439, "walk": 5440, "Bobby": 5441, "irring": 5442, "Jen": 5443, "\u0120sneak": 5444, "\u0120six": 5445, "\u0120lips": 5446, "\u0120kneeled": 5447, "Blue": 5448, "\u0120contest": 5449, "\u0120Che": 5450, "utter": 5451, "\u0120cartoons": 5452, "\u0120sidewalk": 5453, "\u0120colours": 5454, "\u0120stamps": 5455, "\u0120ago": 5456, "Ha": 5457, "\u0120Toto": 5458, "\u0120Boo": 5459, "\u0120Follow": 5460, "\u0120east": 5461, "\u0120headed": 5462, "oved": 5463, "\",": 5464, "\u0120strang": 5465, "\u0120ladyb": 5466, "\u0120fed": 5467, "\u0120supposed": 5468, "\u0120roots": 5469, "\u0120lick": 5470, "\u0120crunch": 5471, "\u0120mixing": 5472, "\u0120works": 5473, "\u0120decorations": 5474, "\u0120melting": 5475, "\u0120known": 5476, "\u0120emergen": 5477, "Mandy": 5478, "\u0120rested": 5479, "\u0120Ab": 5480, "\u0120lines": 5481, "\u0120Suzy": 5482, "\u0120lily": 5483, "\u0120Jul": 5484, "\u0120instr": 5485, "\u0120laid": 5486, "\u0120Gr": 5487, "\u0120succeeded": 5488, "\u0120cones": 5489, "\u0120wiggle": 5490, "ety": 5491, "\u0120bang": 5492, "sing": 5493, "\u0120shock": 5494, "\u0120setting": 5495, "\u0120Slow": 5496, "\u0120studied": 5497, "\u0120strangers": 5498, "\u0120Rocky": 5499, "Really": 5500, "\u0120twigs": 5501, "\u0120brid": 5502, "\u0120theirs": 5503, "\u0120Dr": 5504, "\u0120girls": 5505, "boo": 5506, "!\",": 5507, "\u0120screams": 5508, "\u0120lands": 5509, "\u0120ordered": 5510, "\u0120stirring": 5511, "\u0120moments": 5512, "\u0120fields": 5513, "\u0120alright": 5514, "\u0120stealing": 5515, "Andy": 5516, "\u0120rul": 5517, "\u0120bravely": 5518, "avid": 5519, "\u0120Both": 5520, "\u0120mister": 5521, "!'": 5522, "\u0120invest": 5523, "\u0120scratched": 5524, "\u0120playtime": 5525, "\u0120ripped": 5526, "\u0120investig": 5527, "\u0120tucked": 5528, "\u0120resting": 5529, "\u0120burning": 5530, "ishes": 5531, "\u0120Clara": 5532, "\u0120Chicky": 5533, "\u0120bridges": 5534, "\u0120officer": 5535, "please": 5536, "Sammy": 5537, "Bird": 5538, "abies": 5539, "\u0120settled": 5540, "\u0120matched": 5541, "\u0120achie": 5542, "\u0120tex": 5543, "\u0120texture": 5544, "Happy": 5545, "\u0120waits": 5546, "\u0120turning": 5547, "\u0120Sky": 5548, "Peter": 5549, "ored": 5550, "\u0120trembling": 5551, "isten": 5552, "\u0120nails": 5553, "atie": 5554, "\u0120muffins": 5555, "\u0120Someone": 5556, "ids": 5557, "\u0120escaped": 5558, "\u0120James": 5559, "\u0120piles": 5560, "\u0120investigate": 5561, "osity": 5562, "\u0120broom": 5563, "\u0120ladybug": 5564, "\u0120sore": 5565, "\u0120Pepper": 5566, "\u0120appreciate": 5567, "\u0120admir": 5568, "\u0120threat": 5569, "\u0120babies": 5570, "\u0120silence": 5571, "\u0120sisters": 5572, "\u0120emergency": 5573, "\u0120area": 5574, "ides": 5575, "\u0120dads": 5576, "\u0120answers": 5577, "\u0120pupp": 5578, "\u0120keys": 5579, "\u0120chewing": 5580, "\u0120slapped": 5581, "\u0120wiz": 5582, "\u0120importance": 5583, "Boo": 5584, "\u0120served": 5585, "\u0120Hop": 5586, "\u0120safety": 5587, "izing": 5588, "Would": 5589, "Bu": 5590, "\u0120sparkle": 5591, "\u0120touching": 5592, "\u0120Later": 5593, "\u0120soared": 5594, "igail": 5595, "\u0120sings": 5596, "\u0120hen": 5597, "allen": 5598, "Ella": 5599, "bers": 5600, "antly": 5601, "Momo": 5602, "\u0120Dino": 5603, "\u0120keeps": 5604, "\u0120amazement": 5605, "\u0120challen": 5606, "\u0120twin": 5607, "\u0120hesit": 5608, "\u0120revealed": 5609, "achel": 5610, "\u0120item": 5611, "\u0120dire": 5612, "\u0120soaked": 5613, "zing": 5614, "\u0120writ": 5615, "\u0120foods": 5616, "\u0120rides": 5617, "\u0120dinosaurs": 5618, "\u0120recorded": 5619, "\u0120tickle": 5620, "\u0120inch": 5621, "\u0120Zigzag": 5622, "\u0120Me": 5623, "\u0120wizard": 5624, "\u0120vet": 5625, "\u0120trips": 5626, "\u0120glowed": 5627, "\u0120Frog": 5628, "Mmm": 5629, "\u0120hi": 5630, "\u0120beamed": 5631, "\u0120quack": 5632, "\u0120curled": 5633, "\u0120hated": 5634, "\u0120wink": 5635, "\u0120shopping": 5636, "\u0120eats": 5637, "Eventually": 5638, "\u0120Bug": 5639, "\u0120praised": 5640, "\u0120wooden": 5641, "\u0120bringing": 5642, "\u0120mittens": 5643, "\u0120studying": 5644, "\u0120guy": 5645, "\u0120brushes": 5646, "\u0120spaceship": 5647, "\u0120gust": 5648, "\u0120crawling": 5649, "\u0120Something": 5650, "Cat": 5651, "\u0120ruler": 5652, "\u0120flav": 5653, "\u0120downstairs": 5654, "\u0120shooting": 5655, "\u0120tastes": 5656, "\u0120napping": 5657, "\u0120sprinkles": 5658, "\u0120marks": 5659, "\u0120cuddled": 5660, "\u0120dot": 5661, "hello": 5662, "plash": 5663, "\u0120fut": 5664, "ales": 5665, "aved": 5666, "\u0120future": 5667, "\u0120monsters": 5668, "\u0120collecting": 5669, "\u0120measuring": 5670, "\u0120Happy": 5671, "'.": 5672, "\u0120families": 5673, "\u0120Out": 5674, "\u0120First": 5675, "\u0120Mo": 5676, "\u0120thrill": 5677, "\u0120oat": 5678, "irts": 5679, "\u0120result": 5680, "Jake": 5681, "\u0120approached": 5682, "\u0120Rabbit": 5683, "\u0120crunchy": 5684, "act": 5685, "Un": 5686, "ding": 5687, "\u0120remem": 5688, "\u0120bleeding": 5689, "\u0120remembers": 5690, "\u0120nicer": 5691, "\u0120beat": 5692, "\u0120sneaky": 5693, "\u0120disturbed": 5694, "\u0120leader": 5695, "\u0120scaring": 5696, "Or": 5697, "hind": 5698, "\u0120peel": 5699, "\u0120Hope": 5700, "\u0120firemen": 5701, "\u0120neighborhood": 5702, "\u0120Star": 5703, "\u0120grey": 5704, "\u0120Not": 5705, "\u0120motion": 5706, "\u0120noon": 5707, "\u0120possible": 5708, "Emily": 5709, "Somet": 5710, "\u0120apologized": 5711, "ues": 5712, "\u0120weighed": 5713, "Cl": 5714, "\u0120Did": 5715, "\u0120tickets": 5716, "\u0120naps": 5717, "\u0120loose": 5718, "\u0120pride": 5719, "\u0120youth": 5720, "\u0120swims": 5721, "ped": 5722, "\u0120strings": 5723, "\u0120recognized": 5724, "\u0120siren": 5725, "\u0120poking": 5726, "fied": 5727, "\u0120Ho": 5728, "cious": 5729, "elvet": 5730, "\u0120tricked": 5731, "\u0120wonders": 5732, "\u0120gained": 5733, "ha": 5734, "\u0120wanting": 5735, "\u0120crashed": 5736, "\u0120obe": 5737, "\u0120seesaw": 5738, "\u0120worker": 5739, "unnies": 5740, "ls": 5741, "oming": 5742, "\u0120draws": 5743, "\u0120scooped": 5744, ".'": 5745, "\u0120zooming": 5746, "\u0120opinion": 5747, "\u0120yelling": 5748, "\u0120prepared": 5749, "\u0120grinned": 5750, "\u0120Slowly": 5751, "\u0120awe": 5752, "\u0120poems": 5753, "\u0120doggy": 5754, "\u0120acting": 5755, "\u0120Beep": 5756, "\u0120happiest": 5757, "\u0120chef": 5758, "\u0120sneaked": 5759, "\u0120respons": 5760, "\u0120eff": 5761, "\u0120Always": 5762, "\u0120Lizzy": 5763, "\u0120owned": 5764, "\u0120bunnies": 5765, "\u0120anytime": 5766, "\u0120struck": 5767, "\u0120pedals": 5768, "oys": 5769, "\u0120knelt": 5770, "ena": 5771, "Ollie": 5772, "\u0120secrets": 5773, "\u0120pause": 5774, "\u0120decorated": 5775, "\u0120horns": 5776, "\u0120agreement": 5777, "\u0120Squ": 5778, "ided": 5779, "\u0120frost": 5780, "\u0120tallest": 5781, "\u0120obey": 5782, "Remember": 5783, "riends": 5784, "ogo": 5785, "\u0120Stop": 5786, "\u0120gigg": 5787, "Have": 5788, "\u0120decides": 5789, "\u0120Once": 5790, "\u0120behaved": 5791, "\u0120tugged": 5792, "\u0120sides": 5793, "\u0120woof": 5794, "\u0120slim": 5795, "zen": 5796, "\u0120goodnight": 5797, "\u0120keeper": 5798, "\u0120sparkling": 5799, "\u0120chirped": 5800, "\u0120precious": 5801, "mother": 5802, "uggling": 5803, "ien": 5804, "lier": 5805, "Tr": 5806, "\u0120repeated": 5807, "\u0120claps": 5808, "indy": 5809, "affes": 5810, "\u0120snowballs": 5811, "\u0120contain": 5812, "rs": 5813, "\u0120Ray": 5814, "\u0120ourselves": 5815, "allow": 5816, "\u0120giraffes": 5817, "\u0120balancing": 5818, "\u0120kindly": 5819, "\u0120spending": 5820, "\u0120writes": 5821, "ays": 5822, "ppers": 5823, "\u0120Like": 5824, "omas": 5825, "\u0120prop": 5826, "\u0120hissed": 5827, "First": 5828, "\u0120frozen": 5829, "\u0120frosting": 5830, "\u0120effort": 5831, "\u0120buzzing": 5832, "\u0120struggled": 5833, "oh": 5834, "\u0120Steve": 5835, "\u0120admiring": 5836, "\u0120rele": 5837, "iggy": 5838, "\u0120sweeties": 5839, "\u0120Velvet": 5840, "\u0120slimy": 5841, "\u0120brushed": 5842, "\u0120Am": 5843, "\u0120bloomed": 5844, "Susie": 5845, "\u0120polished": 5846, "\u0120Zoe": 5847, "arth": 5848, "\u0120comfy": 5849, "\u0120boo": 5850, "\u0120staying": 5851, "\u0120rubbing": 5852, "Ducky": 5853, "\u0120rocking": 5854, "\u0120pockets": 5855, "\u0120thrilled": 5856, "\u0120beside": 5857, "\u0120comple": 5858, "\u0120Aunt": 5859, "\u0120Maggie": 5860, "Ah": 5861, "\u0120eight": 5862, "urry": 5863, "isdom": 5864, "\u0120machines": 5865, "\u0120earlier": 5866, "\u0120yesterday": 5867, "\u0120seems": 5868, "\u0120rust": 5869, "\u0120Keep": 5870, "Sp": 5871, "\u0120traveled": 5872, "\u0120folding": 5873, "\u0120boom": 5874, "\u0120cracked": 5875, "ities": 5876, "\u0120hugging": 5877, "\u0120radishes": 5878, "\u0120Stitch": 5879, "\u0120opening": 5880, "\u0120loving": 5881, "\u0120circus": 5882, "\u0120surrounded": 5883, "\u0120curiosity": 5884, "\u0120Rachel": 5885, "\u0120spraying": 5886, "\u0120demanded": 5887, "anted": 5888, "\u0120paintings": 5889, "amie": 5890, "\u0120Green": 5891, "\u0120removed": 5892, "\u0120gaze": 5893, "\u0120honk": 5894, "\u0120pebbles": 5895, "\u0120zookeeper": 5896, "\u0120hardly": 5897, "\u0120catches": 5898, "edding": 5899, "\u0120sting": 5900, "\u0120stripes": 5901, "\u0120powers": 5902, "\u0120loaded": 5903, "\u0120Pippa": 5904, "Sometimes": 5905, "\u0120splashes": 5906, "\u0120pots": 5907, "\u0120petted": 5908, "\u0120matching": 5909, "\u0120David": 5910, "Thanks": 5911, "\u0120toss": 5912, "\u0120stare": 5913, "\u0120belly": 5914, "Yummy": 5915, "ibb": 5916, "\u0120whatever": 5917, "\u0120apologize": 5918, "\u0120rocked": 5919, "\u0120comforted": 5920, "\u0120Bree": 5921, "\u0120decision": 5922, "\u0120ribbons": 5923, "\u0120Joy": 5924, "\u0120Birdie": 5925, "ern": 5926, "\u0120struggling": 5927, "\u0120expected": 5928, "\u0120deser": 5929, "\u0120steep": 5930, "wh": 5931, "\u0120protected": 5932, "\u0120neighbors": 5933, "\u0120smiley": 5934, "\u0120chases": 5935, "During": 5936, "\u0120granted": 5937, "\u0120crumb": 5938, "\u0120Mat": 5939, "\u0120purred": 5940, "\u0120diving": 5941, "\u0120sadness": 5942, "Whiskers": 5943, "\u0120organizing": 5944, "lowers": 5945, "\u0120eagle": 5946, "\u0120heroes": 5947, "\u0120dipped": 5948, "\u0120sunlight": 5949, "\u0120lied": 5950, "\u0120pastels": 5951, "\u0120Frank": 5952, "Ex": 5953, "\u0120safer": 5954, "\u0120roads": 5955, "\u0120scru": 5956, "\u0120argued": 5957, "\u0120Milly": 5958, "\u0120goals": 5959, "\u0120Water": 5960, "\u0120discovery": 5961, "\u0120Abigail": 5962, "\u0120villag": 5963, "\u0120peered": 5964, "Ro": 5965, "\u0120Bouncy": 5966, "use": 5967, "loe": 5968, "\u0120tim": 5969, "\u0120dragons": 5970, "\u0120buildings": 5971, "\u0120buckets": 5972, "\u0120parties": 5973, "\u0120beard": 5974, "\u0120wedding": 5975, "Rex": 5976, "\u0120flutter": 5977, "\u0120planets": 5978, "\u0120ann": 5979, "\u0120Robby": 5980, "\u0120polishing": 5981, "\u0120fasc": 5982, "ira": 5983, "\u0120released": 5984, "\u0120Chr": 5985, "\u0120crabs": 5986, "\u0120Gogo": 5987, "\u0120tails": 5988, "\u0120Watch": 5989, "\u0120sausages": 5990, "\u0120argu": 5991, "\u0120contro": 5992, "\u0120bottles": 5993, "\u0120wiggled": 5994, "\u0120teased": 5995, "uke": 5996, "\u0120arguing": 5997, "\u0120sled": 5998, "\u0120padd": 5999, "\u0120dragged": 6000, "\u0120Car": 6001, "\u0120roaring": 6002, "\u0120clearing": 6003, "\u0120shirts": 6004, "\u0120movies": 6005, "\u0120gathering": 6006, "\u0120airpl": 6007, "\u0120wid": 6008, "joyed": 6009, "\u0120teaches": 6010, "\u0120spiders": 6011, "\u0120limes": 6012, "\u0120Remember": 6013, "\u0120Dare": 6014, "\u0120overjoyed": 6015, "\u0120actually": 6016, "\u0120sighs": 6017, "\u0120continue": 6018, "\u0120cuddle": 6019, "\u0120soaring": 6020, "\u0120smallest": 6021, "\u0120Jess": 6022, "\u0120drives": 6023, "\u0120Ju": 6024, "\u0120sparkles": 6025, "\u0120rip": 6026, "\u0120situ": 6027, "\u0120cubes": 6028, "\u0120refres": 6029, "\u0120talent": 6030, "\u0120challenge": 6031, "\u0120Olly": 6032, "\u0120grandmother": 6033, "\u0120Splash": 6034, "\u0120pouring": 6035, "umm": 6036, "\u0120pretends": 6037, "\u0120fascin": 6038, "\u0120cuts": 6039, "\u0120shrug": 6040, "\u0120quarreling": 6041, "\u0120peppers": 6042, "\u0120bank": 6043, "\u0120shivered": 6044, "\u0120mane": 6045, "\u0120dusty": 6046, "\u0120Jenn": 6047, "ley": 6048, "\u0120wondering": 6049, "\u0120villagers": 6050, "\u0120stretching": 6051, "njoy": 6052, "ib": 6053, "\u0120weeks": 6054, "\u0120wherever": 6055, "\u0120darker": 6056, "jam": 6057, "Tiny": 6058, "sses": 6059, "\u0120X": 6060, "\u0120rings": 6061, "\u0120onwards": 6062, "\u0120Katie": 6063, "\u0120united": 6064, "Achoo": 6065, "\u0120bead": 6066, "\u0120Everyday": 6067, "\u0120Being": 6068, "\u0120prettiest": 6069, "Johnny": 6070, "\u0120caut": 6071, "\u0120realize": 6072, "\u0120company": 6073, "\u0120penguins": 6074, "annah": 6075, "Luna": 6076, "Fr": 6077, "\u0120Spring": 6078, "\u0120bedtime": 6079, "\u0120completed": 6080, "\u0120Wisdom": 6081, "\u0120Leave": 6082, "\u00e2\u0122\u013f.": 6083, "\u0120knights": 6084, "\u0120flags": 6085, "\u0120Je": 6086, "\u0120Because": 6087, "\u0120playroom": 6088, "\u0120Prin": 6089, "\u0120actions": 6090, "\u0120Zero": 6091, "\u0120learns": 6092, "\u0120gotten": 6093, "\u0120patience": 6094, "inda": 6095, "dam": 6096, "\u0120kites": 6097, "\u0120responsible": 6098, "\u0120fears": 6099, "\u0120destination": 6100, "\u0120wires": 6101, "\u0120reply": 6102, "\u0120wrist": 6103, "\u0120dam": 6104, "aws": 6105, "\u0120packing": 6106, "\u0120mountains": 6107, "\u0120fault": 6108, "\u0120applauded": 6109, "\u0120scrubbed": 6110, "\u0120ma": 6111, "\u0120crept": 6112, "\u0120Ava": 6113, "Uh": 6114, "\u0120Earth": 6115, "\u0120satis": 6116, "\u0120third": 6117, "\u0120phot": 6118, "\u0120pencils": 6119, "\u0120wins": 6120, "\u0120sticking": 6121, "\u0120baker": 6122, "\u0120visiting": 6123, "\u0120wound": 6124, "\u0120uses": 6125, "\u0120peas": 6126, "\u0120reminder": 6127, "\u0120control": 6128, "ashed": 6129, "Grandpa": 6130, "\u0120joking": 6131, "\u0120awake": 6132, "\u0120instruct": 6133, "\u0120staring": 6134, "\u0120healed": 6135, "\u0120Put": 6136, "An": 6137, "\u0120hitting": 6138, "\u0120Fish": 6139, "\u0120screaming": 6140, "\u0120begin": 6141, "Rob": 6142, "uckily": 6143, "\u0120Friends": 6144, "\u0120Moo": 6145, "icorn": 6146, "\u0120helmets": 6147, "enty": 6148, "\u0120unicorn": 6149, "seek": 6150, "\u0120towels": 6151, "Silly": 6152, "\u0120Lou": 6153, "\u0120chips": 6154, "ica": 6155, "\u0120creation": 6156, "\u0120wasted": 6157, "bie": 6158, "Mar": 6159, "\u0120Behind": 6160, "laire": 6161, "\u0120masks": 6162, "\u0120items": 6163, "\u0120forgi": 6164, "ler": 6165, "\u0120firefight": 6166, "\u0120outdo": 6167, "\u0120lollipops": 6168, "Watch": 6169, "\u0120heav": 6170, "\u0120guns": 6171, "\u0120died": 6172, "\u0120Hippy": 6173, "\u0120seas": 6174, "\u0120glitter": 6175, "uddles": 6176, "\u0120arrive": 6177, "\u0120weren": 6178, "\u0120stole": 6179, "\u0120scales": 6180, "\u0120perched": 6181, "\u0120accom": 6182, "\u0120logs": 6183, "\u0120achieve": 6184, "die": 6185, "\u0120practicing": 6186, "ining": 6187, "\u0120whose": 6188, "Stay": 6189, "\u0120pumpkins": 6190, "\u0120instructions": 6191, "\u0120swoop": 6192, "\u0120batteries": 6193, "\u0120candies": 6194, "\u0120agrees": 6195, "\u0120project": 6196, "\u0120snakes": 6197, "\u0120chirping": 6198, "Benny": 6199, "\u0120shelves": 6200, "\u0120protecting": 6201, "\u0120parked": 6202, "\u0120exact": 6203, "\u0120Cra": 6204, "\u0120patiently": 6205, "\u0120activ": 6206, "\u0120videos": 6207, "\u0120shoulders": 6208, "\u0120blows": 6209, "hee": 6210, "Fo": 6211, "\u0120promises": 6212, "go": 6213, "\u0120dent": 6214, "usan": 6215, "uest": 6216, "jamas": 6217, "\u0120examined": 6218, "\u0120airplane": 6219, "Doggy": 6220, "\u0120roses": 6221, "ners": 6222, "\u0120accompl": 6223, "\u0120tasks": 6224, "Dave": 6225, "\u0120Hoot": 6226, "Poppy": 6227, "\u0120Bop": 6228, "Bunny": 6229, "\u0120beads": 6230, "\u0120bowls": 6231, "\u0120crumbs": 6232, "zes": 6233, "\u0120listens": 6234, "\u0120Love": 6235, "\u0120Catty": 6236, "\u0120Brownie": 6237, "Pete": 6238, "\u0120Ol": 6239, "\u0120dolphins": 6240, "\u0120cough": 6241, "\u0120bunch": 6242, "\u0120guest": 6243, "cakes": 6244, "\u0120requested": 6245, "\u0120remote": 6246, "\u0120improved": 6247, "anta": 6248, "\u0120reaching": 6249, "\u0120brand": 6250, "ayla": 6251, "\u0120alien": 6252, "\u0120Bye": 6253, "irm": 6254, "\u0120copy": 6255, "\u0120Sun": 6256, "\u0120cheering": 6257, "\u0120photos": 6258, "\u0120Julie": 6259, "\u0120Chew": 6260, "uggles": 6261, "Bad": 6262, "\u0120Jan": 6263, "\u0120Blink": 6264, "Time": 6265, "\u0120cans": 6266, "\u0120Cuddles": 6267, "...": 6268, "\u0120timer": 6269, "\u0120By": 6270, "\u0120replaced": 6271, "athy": 6272, "\u0120workers": 6273, "\u0120stern": 6274, "\u0120Enjoy": 6275, "aster": 6276, "\u0120neither": 6277, "Mike": 6278, "\u0120passing": 6279, "\u0120misses": 6280, "\u0120curtains": 6281, "\u0120confl": 6282, "Chirpy": 6283, "\u0120rainbows": 6284, "\u0120rubs": 6285, "George": 6286, "uctantly": 6287, "\u0120rolls": 6288, "\u0120patted": 6289, "ilo": 6290, "\u0120pajamas": 6291, "\u0120outdoors": 6292, "esome": 6293, "dies": 6294, "\u0120complaining": 6295, "\u0120Squirrel": 6296, "Lola": 6297, "Run": 6298, "\u0120puppet": 6299, "\u0120Princess": 6300, "\u0120closes": 6301, "\u0120beneath": 6302, "\u0120lap": 6303, "\u0120drums": 6304, "\u0120tune": 6305, "\u0120Beth": 6306, "\u0120Mouse": 6307, "\u0120filling": 6308, "Miss": 6309, "angled": 6310, "\u0120refuse": 6311, "\u0120Sorry": 6312, "\u0120sweat": 6313, "\u0120faced": 6314, "\u0120seven": 6315, "\u0120balanced": 6316, "eal": 6317, "\u0120rescued": 6318, "neath": 6319, "bl": 6320, "\u0120quacked": 6321, "\u0120Abby": 6322, "uded": 6323, "Paul": 6324, "istle": 6325, "\u0120awesome": 6326, "\u01201": 6327, "\u0120mission": 6328, "\u0120However": 6329, "\u0120guys": 6330, "\u0120conflict": 6331, "\u0120cautious": 6332, "\u0120vent": 6333, "\u0120observed": 6334, "\u0120cause": 6335, "\u0120introduc": 6336, "\u0120Thomas": 6337, "\u0120pastries": 6338, "\u0120\u0120": 6339, "\u0120Our": 6340, "\u0120exactly": 6341, "\u0120doctors": 6342, "\u0120rule": 6343, "\u0120becoming": 6344, "\u0120policeman": 6345, "\u0120mes": 6346, "uly": 6347, "\u0120rockets": 6348, "you": 6349, "\u0120Yes": 6350, "\u0120Dot": 6351, "\u0120fairies": 6352, "lay": 6353, "\u0120pout": 6354, "\u0120insist": 6355, "\u0120blooming": 6356, "\u0120tractor": 6357, "\u0120farther": 6358, "\u0120Sad": 6359, "avi": 6360, "Oops": 6361, "Great": 6362, "\u0120remembering": 6363, "\u0120included": 6364, "gers": 6365, "\u0120curly": 6366, "Zoom": 6367, "Fine": 6368, "\u0120teamwork": 6369, "zie": 6370, "\u0120fascinated": 6371, "\u0120wobbled": 6372, "\u0120slam": 6373, "\u0120truly": 6374, "\u0120helpers": 6375, "\u0120sights": 6376, "\u0120paddle": 6377, "\u0120stumble": 6378, "\u0120firm": 6379, "onn": 6380, "Henry": 6381, "\u0120Jilly": 6382, "acob": 6383, "\u0120caused": 6384, "\u0120prayer": 6385, "\u0120spong": 6386, "\u0120recording": 6387, "kelly": 6388, "ais": 6389, "\u0120traded": 6390, "\u0120starfish": 6391, "\u0120supplies": 6392, "\u0120thro": 6393, "\u0120pointy": 6394, "\u0120situation": 6395, "\u0120inviting": 6396, "eah": 6397, "\u0120neighbourhood": 6398, "\u0120everyday": 6399, "\u0120ornaments": 6400, "\u0120Ally": 6401, "inkle": 6402, "\u0120valued": 6403, "\u0120adding": 6404, "Some": 6405, "\u0120reluctantly": 6406, "\u0120dots": 6407, "\u0120stays": 6408, "\u0120tables": 6409, "\u0120prettier": 6410, "\u0120bare": 6411, "\u0120desert": 6412, "\u0120snowmen": 6413, "\u0120steady": 6414, "\u0120minerals": 6415, "araway": 6416, "\u0120thorn": 6417, "ody": 6418, "\u0120ast": 6419, "\u0120glasses": 6420, "\u0120faraway": 6421, "sm": 6422, "\u0120Get": 6423, "\u0120Foxy": 6424, "\u0120swooped": 6425, "\u0120Welcome": 6426, "\u0120Two": 6427, "\u0120Sure": 6428, "\u0120unf": 6429, "\u0120forks": 6430, "\u0120usually": 6431, "\u0120usual": 6432, "Polly": 6433, "\u0120dar": 6434, "\u0120Jamie": 6435, "\u0120winked": 6436, "\u0120sneezing": 6437, "\u0120solut": 6438, "\u0120loading": 6439, "\u0120sponge": 6440, "\u0120Quick": 6441, "\u0120insects": 6442, "\u0120pans": 6443, "Dog": 6444, "\u0120sobbed": 6445, "\u0120Santa": 6446, "James": 6447, "\u0120growling": 6448, "arter": 6449, "\u0120throat": 6450, "\u0120Chloe": 6451, "\u0120noses": 6452, "\u0120Josh": 6453, "\u0120Dizzy": 6454, "\u0120scarves": 6455, "\u0120confident": 6456, "\u0120yourselves": 6457, "\u0120Want": 6458, "agull": 6459, "\u0120homework": 6460, "\u0120superheroes": 6461, "\u0120Stay": 6462, "Joey": 6463, "rrr": 6464, "\u0120smarter": 6465, "\u0120windy": 6466, "\u0120librarian": 6467, "Tina": 6468, "\u0120Kids": 6469, "\u0120gems": 6470, "Days": 6471, "ora": 6472, "\u0120underneath": 6473, "\u0120kicks": 6474, "\u0120knowled": 6475, "\u0120itchy": 6476, "\u0120knowledge": 6477, "\u0120jackets": 6478, "\u0120Skelly": 6479, "\u0120For": 6480, "\u0120surface": 6481, "\u0120untie": 6482, "\u0120comm": 6483, "\u0120Duck": 6484, "\u0120princesses": 6485, "...\"": 6486, "Those": 6487, "ido": 6488, "Hold": 6489, "Yeah": 6490, "coon": 6491, "\u0120squares": 6492, "\u0120Henny": 6493, "\u0120warnings": 6494, "\u0120giggling": 6495, "iar": 6496, "\u0120reads": 6497, "vin": 6498, "Our": 6499, "\u0120choo": 6500, "eed": 6501, "son": 6502, "\u0120younger": 6503, "\u0120clowns": 6504, "\u0120Mix": 6505, "Toby": 6506, "\u0120ropes": 6507, "\u0120biting": 6508, "\u0120crowd": 6509, "\u0120Unfortunately": 6510, "pite": 6511, "Danny": 6512, "True": 6513, "\u0120seagull": 6514, "\u0120paddled": 6515, "\u0120wears": 6516, "\u0120delivered": 6517, "\u0120Mon": 6518, "\u0120twirl": 6519, "\u0120onions": 6520, "\u0120buzzed": 6521, "\u0120complained": 6522, "\u0120bumpy": 6523, "\u0120stem": 6524, "Ew": 6525, "\u0120piggy": 6526, "Mrs": 6527, "\u0120Anne": 6528, "\u0120direction": 6529, "ouch": 6530, "\u0120dived": 6531, "Roar": 6532, "\u0120tangled": 6533, "\u0120startled": 6534, "ults": 6535, "\u0120leaning": 6536, "bbie": 6537, "\u0120Ant": 6538, "\u0120Jones": 6539, "\u0120badge": 6540, "\u0120Po": 6541, "Grace": 6542, "\u0120unp": 6543, "\u0120deal": 6544, "though": 6545, "Annie": 6546, "\u0120vowed": 6547, "\u0120napkins": 6548, "anes": 6549, "\u0120tickled": 6550, "\u0120risk": 6551, "\u0120covers": 6552, "\u0120pec": 6553, "Shh": 6554, "\u0120yells": 6555, "\u0120satisfied": 6556, "int": 6557, "\u0120knocks": 6558, "\u0120refreshed": 6559, "tuce": 6560, "\u0120Sc": 6561, "cuse": 6562, "\u0120cous": 6563, "\u0120arrows": 6564, "Maggie": 6565, "\u0120Whistle": 6566, "Pe": 6567, "\u0120wipes": 6568, "\u0120speaking": 6569, "\u0120lettuce": 6570, "\u0120guessing": 6571, "Unfortunately": 6572, "\u0120Quack": 6573, "\u0120ripe": 6574, "\u0120Susan": 6575, "\u0120hides": 6576, "\u0120choices": 6577, "\u0120Dodo": 6578, "\u0120Rover": 6579, "Buzz": 6580, "\u0120signed": 6581, "\u0120slower": 6582, "\u0120seeker": 6583, "\u0120introduced": 6584, "\u0120singer": 6585, "\u0120creating": 6586, "\u0120Matt": 6587, "\u0120froze": 6588, "\u0120cent": 6589, "\u0120joked": 6590, "\u0120squeal": 6591, "\u0120toaster": 6592, "\u0120explorers": 6593, "fit": 6594, "\u0120avo": 6595, "Sophie": 6596, "\u0120praying": 6597, "\u0120written": 6598, "\u0120discovering": 6599, "\u0120provided": 6600, "\u0120Dara": 6601, "\u0120refle": 6602, "\u0120Lion": 6603, "Excuse": 6604, "\u0120mushrooms": 6605, "\u0120Jeff": 6606, "\u0120Paws": 6607, "\u0120paying": 6608, "\u0120knees": 6609, "ences": 6610, "\u0120hider": 6611, "\u0120wandering": 6612, "\u0120Ash": 6613, "\u0120images": 6614, "Charlie": 6615, "\u0120stung": 6616, "\u0120Wink": 6617, "\u0120magnets": 6618, "\u0120barely": 6619, "\u0120behaving": 6620, "\u0120tipto": 6621, "?\",": 6622, "\u0120marked": 6623, "brush": 6624, "\u0120restored": 6625, "\u0120Dee": 6626, "\u0120leading": 6627, "lled": 6628, "Big": 6629, "\u0120chuck": 6630, "ados": 6631, "\u0120nine": 6632, "\u0120greet": 6633, "Teddy": 6634, "\u0120gears": 6635, "\u0120bravery": 6636, "\u0120Snuggles": 6637, "ky": 6638, "\u0120competition": 6639, "\u0120outfit": 6640, "oline": 6641, "\u0120wishing": 6642, "\u0120properly": 6643, "\u0120ventured": 6644, "tle": 6645, "aa": 6646, "\u0120muscle": 6647, "\u0120dances": 6648, "\u0120chat": 6649, "\u0120salty": 6650, "\u0120pens": 6651, "amb": 6652, "\u0120Betsy": 6653, "\u0120ranger": 6654, "\u0120Ziggy": 6655, "\u0120deserve": 6656, "\u0120however": 6657, "sequ": 6658, "\u0120matters": 6659, "\u0120darkness": 6660, "\u0120burst": 6661, "\u0120Fu": 6662, "\u0120rainy": 6663, "\u0120cobwebs": 6664, "\u0120ruining": 6665, "\u0120chefs": 6666, "\u0120consequ": 6667, "\u0120blocking": 6668, "\u0120bak": 6669, "usted": 6670, "itely": 6671, "sty": 6672, "\u0120scur": 6673, "\u0120vines": 6674, "\u0120fab": 6675, "abel": 6676, "\u0120fabric": 6677, "\u0120entire": 6678, "\u0120basement": 6679, "\u0120performed": 6680, "\u0120least": 6681, "\u0120Buggy": 6682, "Sn": 6683, "\u0120scratches": 6684, "\u0120heavier": 6685, "\u0120Claire": 6686, "\u0120mints": 6687, "\u0120twirling": 6688, "\u0120avocados": 6689, "However": 6690, "\u0120Linda": 6691, "rink": 6692, "fl": 6693, "\u0120scurried": 6694, "\u0120losing": 6695, "\u0120sunflowers": 6696, "\u0120Jenna": 6697, "\u0120rainco": 6698, "\u0120swords": 6699, "Tweet": 6700, "\u0120click": 6701, "\u0120\u010a\u0120": 6702, "agic": 6703, "\u0120Laser": 6704, "\u0120silent": 6705, "\u0120jobs": 6706, "\u0120necklaces": 6707, "\u0120flames": 6708, "\u0120Luke": 6709, "\u0120relief": 6710, "\u0120Grumpy": 6711, "\u0120snat": 6712, "\u0120sewed": 6713, "\u0120rotting": 6714, "len": 6715, "Listen": 6716, "Follow": 6717, "\u0120tricky": 6718, "Jerry": 6719, "\u0120lighter": 6720, "ophia": 6721, "\u0120bows": 6722, "\u0120Skip": 6723, "\u0120exha": 6724, "\u0120solution": 6725, "\u0120consequences": 6726, "Alex": 6727, "\u0120Lena": 6728, "\u0120tires": 6729, "\u0120stain": 6730, "Beep": 6731, "\u0120unpacked": 6732, "Ab": 6733, "\u0120partic": 6734, "rance": 6735, "\u0120races": 6736, "\u0120pins": 6737, "\u0120bumps": 6738, "\u0120wraps": 6739, "aisies": 6740, "\u0120wow": 6741, "\u0120decorating": 6742, "\u0120backed": 6743, "cher": 6744, "\u0120dentist": 6745, "\u0120purr": 6746, "\u0120needles": 6747, "\u0120cautiously": 6748, "\u0120lifting": 6749, "izzie": 6750, "\u0120Pr": 6751, "\u0120accomplish": 6752, "\u0120triangles": 6753, "\u0120daisies": 6754, "ept": 6755, "\u0120hesitated": 6756, "\u0120annoy": 6757, "\u0120Those": 6758, "\u0120growls": 6759, "\u0120crackers": 6760, "oke": 6761, "\u0120stomped": 6762, "\u0120grabbing": 6763, "\u0120cott": 6764, "\u0120figured": 6765, "\u0120bodies": 6766, "\u0120mater": 6767, "\u0120buying": 6768, "\u0120Tree": 6769, "\u0120material": 6770, "\u0120Rolly": 6771, "\u0120Fido": 6772, "\u0120Adam": 6773, "\u0120swans": 6774, "\u0120ties": 6775, "\u0120gri": 6776, "vers": 6777, "\u0120grows": 6778, "\u0120sweets": 6779, "\u0120Goodbye": 6780, "\u0120El": 6781, "\u0120owners": 6782, "\u0120flavor": 6783, "\u0120cheeks": 6784, "\u0120Cathy": 6785, "\u0120suffering": 6786, "\u0120Jessie": 6787, "vroom": 6788, "\u0120fact": 6789, "\u0120groups": 6790, "cl": 6791, "bly": 6792, "\u0120forehead": 6793, "\u0120lungs": 6794, "Harry": 6795, "\u0120repa": 6796, "\u0120interested": 6797, "\u0120bakery": 6798, "\u0120Milo": 6799, "\u0120freed": 6800, "Lilly": 6801, "itches": 6802, "\u0120Nothing": 6803, "\u0120chuckled": 6804, "For": 6805, "\u0120swept": 6806, "\u0120conn": 6807, "?'": 6808, "\u0120thud": 6809, "\u0120exhausted": 6810, "Tw": 6811, "\u0120twinkling": 6812, "\u0120tapped": 6813, "\u0120nect": 6814, "rosty": 6815, "\u0120nectar": 6816, "elle": 6817, "\u0120feast": 6818, "\u0120darling": 6819, "indr": 6820, "\u0120Mad": 6821, "\u0120worries": 6822, "\u0120uns": 6823, "\u0120tunnels": 6824, "\u0120fuzzy": 6825, "\u0120repaired": 6826, "\u0120reason": 6827, "\u0120Trust": 6828, "\u0120Copper": 6829, "\u0120Ball": 6830, "\u0120activities": 6831, "lets": 6832, "\u0120pecked": 6833, "\u0120Hannah": 6834, "\u0120entrance": 6835, "\u0120Try": 6836, "\u0120raindr": 6837, "\u0120meals": 6838, "\u0120Listen": 6839, "\u0120particular": 6840, "\u0120completely": 6841, "\u0120mailed": 6842, "ctions": 6843, "\u0120nests": 6844, "\u0120waiter": 6845, "\u0120cuddly": 6846, "\u0120sense": 6847, "Ru": 6848, "\u0120Nana": 6849, "\u0120colored": 6850, "arky": 6851, "\u0120leap": 6852, "step": 6853, "band": 6854, "\u0120plenty": 6855, "\u0120peeking": 6856, "\u0120slammed": 6857, "\u0120Cara": 6858, "no": 6859, "\u0120players": 6860, "\u0120month": 6861, "\u0120budge": 6862, "\u0120Birthday": 6863, "\u0120Q": 6864, "\u0120scra": 6865, "\u0120includ": 6866, "\u0120forgets": 6867, "\u0120den": 6868, "\u0120handful": 6869, "\u0120Oliver": 6870, "\u0120mer": 6871, "ossible": 6872, "\u0120genie": 6873, "\u0120Christ": 6874, "\u0120stool": 6875, "\u0120talks": 6876, "\u0120Pup": 6877, "\u0120Suzie": 6878, "\u0120passports": 6879, "\u0120feeding": 6880, "\u0120films": 6881, "\u0120baths": 6882, "\u0120impossible": 6883, "\u0120determination": 6884, "May": 6885, "\u0120printing": 6886, "boat": 6887, "\u0120designed": 6888, "\u0120buses": 6889, "\u0120opp": 6890, "ueen": 6891, "lephant": 6892, "\u0120suitcase": 6893, "\u0120bars": 6894, "\u0120counts": 6895, "\u0120stolen": 6896, "\u0120spreading": 6897, "\u0120spikes": 6898, "\u0120Snap": 6899, "\u0120wiping": 6900, "\u0120steer": 6901, "\u0120lamb": 6902, "\u0120Rain": 6903, "\u0120honked": 6904, "etty": 6905, "Whee": 6906, "\u0120cowb": 6907, "\u0120separated": 6908, "blings": 6909, "\u0120siblings": 6910, "\u0120hops": 6911, "\u0120chop": 6912, "\u0120sewing": 6913, "\u0120fires": 6914, "\u0120Twinkle": 6915, "\u0120fever": 6916, "\u0120twinkle": 6917, "\u0120ty": 6918, "\u0120camping": 6919, "\u0120Mira": 6920, "\u0120lower": 6921, "\u0120changing": 6922, "yes": 6923, "retch": 6924, "\u0120behavi": 6925, "\u0120Bloom": 6926, "mas": 6927, "\u0120liqu": 6928, "\u0120celebration": 6929, "but": 6930, "\u0120squealed": 6931, "\u0120dollhouse": 6932, "Sunny": 6933, "\u0120backward": 6934, "\u0120age": 6935, "\u0120snatched": 6936, "\u0120cash": 6937, "ho": 6938, "\u0120twice": 6939, "lee": 6940, "\u0120sway": 6941, "itched": 6942, "\u0120celebrating": 6943, "\u0120Peanut": 6944, "\u0120shrinking": 6945, "\u0120ache": 6946, "weed": 6947, "\u0120kings": 6948, "rious": 6949, "\u0120shops": 6950, "\u0120kittens": 6951, "cope": 6952, "Rose": 6953, "\u0120Jessica": 6954, "\u0120Jacob": 6955, "rig": 6956, "\u0120Gina": 6957, "aura": 6958, "\u0120hus": 6959, "\u0120touches": 6960, "airy": 6961, "\u0120pancakes": 6962, "nies": 6963, "\u0120avoid": 6964, "\u0120spat": 6965, "\u0120Frosty": 6966, "hog": 6967, "\u0120Nina": 6968, "\u0120paths": 6969, "ives": 6970, "cky": 6971, "\u0120Hold": 6972, "\u0120rotten": 6973, "\u0120calmed": 6974, "Sandy": 6975, "\u0120seaweed": 6976, "\u0120dropping": 6977, "\u0120Mel": 6978, "iles": 6979, "Pipp": 6980, "\u0120twisting": 6981, "\u0120stroked": 6982, "\u0120Jon": 6983, "\u0120untied": 6984, "llen": 6985, "\u0120playhouse": 6986, "Millie": 6987, "\u0120students": 6988, "\u0120puppies": 6989, "\u0120Sof": 6990, "hi": 6991, "\u0120screws": 6992, "\u0120astron": 6993, "\u0120Re": 6994, "\u0120somebody": 6995, "igning": 6996, "\u0120liquid": 6997, "aren": 6998, "ammy": 6999, "\u0120wakes": 7000, "\u0120squish": 7001, "\u0120Woof": 7002, "\u0120bracelets": 7003, "\u0120astronaut": 7004, "immer": 7005, "\u0120thrown": 7006, "\u0120loops": 7007, "\u0120Other": 7008, "Luckily": 7009, "\u0120wrapping": 7010, "\u0120plain": 7011, "\u0120tramp": 7012, "\u0120planning": 7013, "\u0120skunk": 7014, "\u0120aimed": 7015, "\u0120pennies": 7016, "\u0120shoo": 7017, "\u0120lifts": 7018, "\u0120dancers": 7019, "\u0120sparks": 7020, "\u0120firefly": 7021, "pen": 7022, "\u0120poster": 7023, "yan": 7024, "endy": 7025, "\u0120cust": 7026, "\u0120Christmas": 7027, "Dan": 7028, "\u0120rewarded": 7029, "\u0120objects": 7030, "\u0120directions": 7031, "using": 7032, "ingo": 7033, "\u0120reflection": 7034, "\u0120husband": 7035, "\u00e2\u0122\u0136": 7036, "Take": 7037, "river": 7038, "\u0120clues": 7039, "uppy": 7040, "\u0120leads": 7041, "\u0120increased": 7042, "\u0120blocked": 7043, "\u0120rising": 7044, "\u0120dod": 7045, "\u0120cousin": 7046, "\u0120Yesterday": 7047, "\u0120Without": 7048, "\u0120forgetting": 7049, "rigued": 7050, "\u0120custom": 7051, "Kate": 7052, "\u0120trampoline": 7053, "\u0120beginning": 7054, "\u0120storekeeper": 7055, "\u0120pouted": 7056, "\u0120zebras": 7057, "\u0120hedgehog": 7058, "\u0120aff": 7059, "\u0120\u00e2\u0122\u013a": 7060, "\u0120borrowed": 7061, "\u0120Rollie": 7062, "\u0120snowfl": 7063, "\u0120countryside": 7064, "Jump": 7065, "\u0120mesmer": 7066, "\u0120Jay": 7067, "\u0120vehicles": 7068, "\u0120instrum": 7069, "\u0120Mic": 7070, "\u0120Kayla": 7071, "\u0120Up": 7072, "\u0120frowning": 7073, "ivity": 7074, "Pat": 7075, "Under": 7076, "\u0120marker": 7077, "yond": 7078, "\u0120presses": 7079, "\u0120beyond": 7080, "\u0120Queen": 7081, "\u0120damage": 7082, "\u0120Only": 7083, "iece": 7084, "ivery": 7085, "\u0120fart": 7086, "\u0120Tara": 7087, "\u0120Biggie": 7088, "jo": 7089, "\u0120health": 7090, "\u0120whispers": 7091, "\u0120swimsuit": 7092, "\u0120slips": 7093, "\u0120nibb": 7094, "\u0120Julia": 7095, "armer": 7096, "\u0120warmer": 7097, "\u0120flapping": 7098, "\u0120tiptoed": 7099, "\u0120regretted": 7100, "itted": 7101, "Zip": 7102, "\u0120laying": 7103, "\u0120Robo": 7104, "ades": 7105, "\u0120yelp": 7106, "\u0120Fire": 7107, "\u0120rains": 7108, "\u0120glued": 7109, "\u0120everybody": 7110, "\u0120creations": 7111, "\u0120hearing": 7112, "\u0120swir": 7113, "\u0120colder": 7114, "iversity": 7115, "ael": 7116, "\u0120shaped": 7117, "\u0120Elephant": 7118, "\u0120streets": 7119, "\u0120fins": 7120, "\u0120rusty": 7121, "\u0120cushions": 7122, "Out": 7123, "\u0120san": 7124, "\u0120farthest": 7125, "\u0120creativity": 7126, "\u0120Mikey": 7127, "ans": 7128, "\u0120sale": 7129, "Always": 7130, "Co": 7131, "\u0120strongest": 7132, "ibbit": 7133, "\u0120fits": 7134, "\u0120Sparky": 7135, "\u0120bells": 7136, "\u0120dollars": 7137, "\u0120Larry": 7138, "\u0120earn": 7139, "iam": 7140, "angle": 7141, "\u0120lending": 7142, "\u0120Moon": 7143, "\u0120Chirp": 7144, "eese": 7145, "\u0120cashier": 7146, "Milly": 7147, "\u0120including": 7148, "\u0120sniffs": 7149, "\u0120sank": 7150, "\u0120raincoat": 7151, "\u0120Rich": 7152, "\u0120trembled": 7153, "\u0120stopping": 7154, "\u0120source": 7155, "iti": 7156, "imon": 7157, "ae": 7158, "\u0120Missy": 7159, "\u0120wobbly": 7160, "\u0120indeed": 7161, "ters": 7162, "\u0120guests": 7163, "\u0120single": 7164, "\u0120recommended": 7165, "\u0120wee": 7166, "\u0120spells": 7167, "\u0120accomplishment": 7168, "\u0120belts": 7169, "\u0120surprising": 7170, "\u0120ends": 7171, "\u0120hopeful": 7172, "eet": 7173, "\u0120seasons": 7174, "\u0120Take": 7175, "\u0120Snowman": 7176, "\u0120Els": 7177, "Bear": 7178, "\u0120plans": 7179, "ichael": 7180, "\u0120supported": 7181, "stick": 7182, "illed": 7183, "\u0120suffered": 7184, "\u0120artist": 7185, "\u0120performance": 7186, "Nina": 7187, "\u0120slowed": 7188, "\u0120gross": 7189, "\u0120flavors": 7190, "iding": 7191, "ertain": 7192, "\u0120spins": 7193, "cho": 7194, "Quack": 7195, "\u0120labels": 7196, "uing": 7197, "\u0120raindrops": 7198, "\u0120delivery": 7199, "arac": 7200, "\u0120raccoon": 7201, "\u0120forgiving": 7202, "obody": 7203, "\u0120Woo": 7204, "\u0120pours": 7205, "the": 7206, "ility": 7207, "\u0120vanilla": 7208, "\u0120turtles": 7209, "\u0120stands": 7210, "Bill": 7211, "uess": 7212, "\u0120recipe": 7213, "\u0120beam": 7214, "\u0120tying": 7215, "\u0120Sw": 7216, "\u0120geese": 7217, "\u0120willing": 7218, "\u0120robber": 7219, "\u0120drawn": 7220, "Vroom": 7221, "\u0120wept": 7222, "\u0120Bones": 7223, "\u0120charac": 7224, "\u0120pops": 7225, "\u0120corners": 7226, "\u0120Sophia": 7227, "elia": 7228, "\u0120queens": 7229, "\u0120sailboat": 7230, "\u0120grip": 7231, "\u0120die": 7232, "\u0120drivers": 7233, "itude": 7234, "\u0120moo": 7235, "\u0120hallway": 7236, "\u0120imagining": 7237, "\u0120seconds": 7238, "\u0120Fuzzy": 7239, "Mine": 7240, "\u0120preparing": 7241, "\u0120widened": 7242, "\u0120adult": 7243, "\u0120Spirit": 7244, "\u0120grocer": 7245, "\u0120coop": 7246, "\u0120talented": 7247, "\u0120Pam": 7248, "\u0120Beaky": 7249, "\u0120Izzy": 7250, "ummies": 7251, "\u0120sailors": 7252, "lling": 7253, "\u0120softer": 7254, "\u0120aside": 7255, "\u0120watering": 7256, "\u0120sending": 7257, "\u0120knots": 7258, "\u0120unsure": 7259, "\u0120tipped": 7260, "Lulu": 7261, "\u0120treehouse": 7262, "\u0120horiz": 7263, "\u0120Lizzie": 7264, "\u0120notes": 7265, "\u0120echo": 7266, "igers": 7267, "\u0120achieved": 7268, "\u0120horizon": 7269, "\u0120squeak": 7270, "\u0120delivering": 7271, "\u0120pleasure": 7272, "\u0120hotter": 7273, "\u0120Stella": 7274, "Clara": 7275, "\u0120pupils": 7276, "\u0120burrow": 7277, "\u0120angels": 7278, "\u0120curiously": 7279, "Ellie": 7280, "\u0120yum": 7281, "\u0120blinking": 7282, "\u0120June": 7283, "\u0120tweet": 7284, "\u0120symbols": 7285, "\u0120det": 7286, "\u0120Stretch": 7287, "wk": 7288, "\u0120passen": 7289, "\u0120Rudy": 7290, "\u0120Cindy": 7291, "\u0120tummies": 7292, "\u0120tiss": 7293, "\u0120pigeons": 7294, "\u0120figures": 7295, "umbling": 7296, "oey": 7297, "\u0120bandages": 7298, "\u0120Robert": 7299, "\u0120coup": 7300, "\u0120Doctor": 7301, "\u0120robots": 7302, "alph": 7303, "\u0120tossed": 7304, "\u0120hour": 7305, "\u0120backwards": 7306, "\u0120roars": 7307, "Baby": 7308, "\u0120merma": 7309, "uzz": 7310, "\u0120rather": 7311, "atur": 7312, "Maria": 7313, "cited": 7314, "\u0120Play": 7315, "\u0120Crab": 7316, "Moo": 7317, "ighting": 7318, "Dolly": 7319, "\u0120groceries": 7320, "\u0120zipping": 7321, "Put": 7322, "Very": 7323, "\u0120unw": 7324, "prin": 7325, "\u0120among": 7326, "\u0120blown": 7327, "\u0120icing": 7328, "!\u00e2\u0122\u013f.": 7329, "\u0120rumble": 7330, "\u0120afterwards": 7331, "ipper": 7332, "\u0120screwd": 7333, "ushing": 7334, "\u0120sped": 7335, "\u0120prove": 7336, "\u0120glee": 7337, "\u0120Titi": 7338, "\u0120Tia": 7339, "\u0120dip": 7340, "\u0120overcome": 7341, "Ruby": 7342, "Quick": 7343, "\u0120surfboard": 7344, "\u0120shovels": 7345, "\u0120slices": 7346, "\u0120Toot": 7347, "\u0120merry": 7348, "\u0120wobble": 7349, "\u0120mate": 7350, "\u0120Turt": 7351, "\u0120Abbie": 7352, "\u0120heading": 7353, "\u0120disturbing": 7354, "\u0120swall": 7355, "\u0120reversed": 7356, "\u0120firefighters": 7357, "Jul": 7358, "\u0120swallowed": 7359, "\u0120chip": 7360, "\u0120scored": 7361, "\u0120flipped": 7362, "eds": 7363, "awn": 7364, "\u0120Jump": 7365, "\u0120squeezing": 7366, "usty": 7367, "Frank": 7368, "aty": 7369, "Su": 7370, "\u0120waking": 7371, "\u0120intrigued": 7372, "Sad": 7373, "Like": 7374, "\u0120maker": 7375, "\u0120Barky": 7376, "Betty": 7377, "\u0120puff": 7378, "\u0120hawk": 7379, "\u0120encouraging": 7380, "\u0120aud": 7381, "\u0120Ex": 7382, "osen": 7383, "onies": 7384, "\u0120chosen": 7385, "hew": 7386, "\u0120Farmer": 7387, "\u0120Ang": 7388, "\u0120couple": 7389, "\u0120designs": 7390, "\u0120slipping": 7391, "\u0120screwdriver": 7392, "\u0120squishy": 7393, "\u0120Emmy": 7394, "\u0120gardener": 7395, "\u0120center": 7396, "\u0120rivers": 7397, "\u0120respond": 7398, "\u0120markers": 7399, "iley": 7400, "\u0120tigers": 7401, "\u0120jars": 7402, "pecting": 7403, "\u0120frowns": 7404, "bird": 7405, "\u0120fluttered": 7406, "\u0120Sadly": 7407, "\u0120Kit": 7408, "Ribbit": 7409, "\u0120firefighter": 7410, "\u0120Sl": 7411, "\u0120Ryan": 7412, "\u0120suits": 7413, "\u0120secure": 7414, "\u0120sprinkled": 7415, "\u0120creamy": 7416, "ashes": 7417, "\u0120sharks": 7418, "\u0120ignoring": 7419, "\u0120bru": 7420, "\u0120giggles": 7421, "\u0120tissue": 7422, "\u0120tighter": 7423, "\u0120firmly": 7424, "ounce": 7425, "\u0120Laura": 7426, "fly": 7427, "\u0120shown": 7428, "\u0120familiar": 7429, "\u0120thorns": 7430, "Spike": 7431, "\u0120Wo": 7432, "\u0120drawers": 7433, "child": 7434, "\u0120Zee": 7435, "\u0120express": 7436, "Car": 7437, "ments": 7438, "\u0120def": 7439, "\u0120daring": 7440, "\u0120crossing": 7441, "\u0120audience": 7442, "\u0120performing": 7443, "\u0120coloured": 7444, "\u0120cloudy": 7445, "\u0120cor": 7446, "\u0120ais": 7447, "\u0120Nick": 7448, "rat": 7449, "\u0120pedaled": 7450, "Get": 7451, "\u0120mixture": 7452, "\u0120til": 7453, "\u0120gracefully": 7454, "ggy": 7455, "\u0120haircuts": 7456, "\u0120yielded": 7457, "\u0120ponies": 7458, "\u0120disob": 7459, "\u0120crowns": 7460, "\u0120bits": 7461, "\u0120todd": 7462, "\u0120Sleep": 7463, "\u0120nervously": 7464, "\u0120hangers": 7465, "bbled": 7466, "\u0120Patch": 7467, "Zoomy": 7468, "\u0120pays": 7469, "\u01202": 7470, "\u0120peck": 7471, "\u0120stroke": 7472, "\u0120ev": 7473, "fall": 7474, "Bang": 7475, "een": 7476, "\u0120respected": 7477, "\u0120napped": 7478, "\u0120Ron": 7479, "aven": 7480, "\u0120minded": 7481, "ddie": 7482, "Bessie": 7483, "ably": 7484, "Boys": 7485, "\u0120tested": 7486, "ading": 7487, "parent": 7488, "\u0120Chris": 7489, "Kim": 7490, "\u0120University": 7491, "\u0120Near": 7492, "\u0120beeh": 7493, "\u0120Turtle": 7494, "\u0120surfing": 7495, "\u0120neighbours": 7496, "arrow": 7497, "vered": 7498, "\u0120shady": 7499, "iona": 7500, "arlings": 7501, "\u0120magician": 7502, "\u0120enthusiasm": 7503, "\u0120darlings": 7504, "\u0120wisely": 7505, "\u0120stitches": 7506, "\u0120sails": 7507, "kend": 7508, "Dear": 7509, "\u0120weekend": 7510, "\u0120thoughts": 7511, "Freddy": 7512, "\u0120Tweetie": 7513, "\u0120reminds": 7514, "\u0120temper": 7515, "oring": 7516, "tha": 7517, "antha": 7518, "\u0120surroundings": 7519, "\u0120spits": 7520, "\u0120fleas": 7521, "\u0120teams": 7522, "\u0120lessons": 7523, "\u0120fills": 7524, "\u0120flip": 7525, "\u0120Along": 7526, "\u0120paintbrush": 7527, "\u0120melons": 7528, "\u0120mermaid": 7529, "oni": 7530, "Katie": 7531, "rac": 7532, "\u0120grandchild": 7533, "\u0120hoops": 7534, "\u0120explo": 7535, "\u0120elbow": 7536, "\u0120sports": 7537, "Guess": 7538, "\u0120lies": 7539, "\u0120Fighting": 7540, "\u0120panicked": 7541, "\u0120cleaner": 7542, "\u0120amount": 7543, "cused": 7544, "\u0120longest": 7545, "\u0120scooters": 7546, "\u0120lent": 7547, "ita": 7548, "immering": 7549, "\u0120sill": 7550, "\u0120beloved": 7551, "Pippin": 7552, "\u0120beehive": 7553, "Alright": 7554, "ongrat": 7555, "oga": 7556, "lle": 7557, "ongratul": 7558, "\u0120oysters": 7559, "\u0120grandparent": 7560, "\u0120forgiven": 7561, "\u0120magazines": 7562, "\u0120arr": 7563, "\u0120Wise": 7564, "\u0120elf": 7565, "\u0120repeating": 7566, "\u0120discussed": 7567, "\u0120sweetest": 7568, "\u0120Thanks": 7569, "Keep": 7570, "\u0120wadd": 7571, "\u0120Maya": 7572, "\u0120reass": 7573, "\u0120lace": 7574, "\u0120Granny": 7575, "\u0120nightmares": 7576, "\u0120tubes": 7577, "\u0120Willy": 7578, "Am": 7579, "\u0120understands": 7580, "\u0120spoonful": 7581, "\u0120nood": 7582, "\u0120bathing": 7583, "\u0120Zoey": 7584, "asty": 7585, "\u0120sweep": 7586, "\u0120manners": 7587, "onna": 7588, "crow": 7589, "Uncle": 7590, "\u0120wrink": 7591, "\u0120sprang": 7592, "\u0120nur": 7593, "\u0120bully": 7594, "\u0120Holly": 7595, "\u0120guide": 7596, "\u0120Yet": 7597, "\u0120crew": 7598, "romise": 7599, "ancy": 7600, "Jazz": 7601, "\u0120breathed": 7602, "while": 7603, "steps": 7604, "ilda": 7605, "ently": 7606, "\u0120Bally": 7607, "\u0120bulbs": 7608, "\u0120neare": 7609, "\u0120grassy": 7610, "\u0120wiggly": 7611, "\u0120testing": 7612, "\u0120spies": 7613, "\u0120coug": 7614, "\u0120solving": 7615, "\u0120sheets": 7616, "\u0120Roo": 7617, "\u0120footsteps": 7618, "ntil": 7619, "Afterwards": 7620, "\u0120speeding": 7621, "\u0120focused": 7622, "ounced": 7623, "cept": 7624, "?!\"": 7625, "\u0120mesmerized": 7626, "\u0120camel": 7627, "\u0120braver": 7628, "\u0120hesitant": 7629, "\u0120Sparkle": 7630, "\u0120licking": 7631, "\u0120rushing": 7632, "\u0120Well": 7633, "ne": 7634, "\u0120joining": 7635, "\u0120Puppy": 7636, "\u0120polar": 7637, "\u0120greeted": 7638, "\u0120Martha": 7639, "espite": 7640, "anna": 7641, "--": 7642, "\u0120Bubb": 7643, "Which": 7644, "Kiki": 7645, "\u0120worn": 7646, "\u0120materials": 7647, "\u0120changes": 7648, "\u0120aren": 7649, "\u0120Nobody": 7650, "undred": 7651, "\u0120stored": 7652, "\u0120bicycles": 7653, "\u0120mast": 7654, "\u0120anger": 7655, "Leave": 7656, "\u0120peacefully": 7657, "\u0120ships": 7658, "\u0120spice": 7659, "\u0120terrified": 7660, "\u0120nuzz": 7661, "\u0120gonna": 7662, "\u0120Show": 7663, "\u0120politely": 7664, "Snow": 7665, "\u0120spills": 7666, "\u0120scarecrow": 7667, "\u0120knives": 7668, "\u0120evil": 7669, "\u0120Mixy": 7670, "ppies": 7671, "\u0120burying": 7672, "ca": 7673, "\u0120healing": 7674, "\u0120donkey": 7675, "\u0120aeroplanes": 7676, "freeze": 7677, "Even": 7678, "\u0120seals": 7679, "\u0120scattering": 7680, "\u0120miles": 7681, "\u0120Chewy": 7682, "amboo": 7683, "\u0120dump": 7684, "\u0120worrying": 7685, "Bee": 7686, "zoom": 7687, "beep": 7688, "David": 7689, "\u0120Lenny": 7690, "\u0120puzzled": 7691, "\u0120stacked": 7692, "\u0120Kip": 7693, "Penny": 7694, "\u0120Nice": 7695, "\u0120loses": 7696, "dding": 7697, "\u0120travelled": 7698, "\u0120baskets": 7699, "\u0120Win": 7700, "\u0120Okay": 7701, "\u0120gazing": 7702, "\u0120blast": 7703, "ipes": 7704, "\u0120Tess": 7705, "Hurry": 7706, "\u0120temperature": 7707, "\u0120und": 7708, "\u0120tasting": 7709, "\u0120dripping": 7710, "\u0120clue": 7711, "\u0120believing": 7712, "\u0120pinching": 7713, "erm": 7714, "\u0120soaking": 7715, "\u0120rats": 7716, "\u012010": 7717, "isc": 7718, "\u0120sandy": 7719, "rect": 7720, "\u0120Isn": 7721, "\u0120Simon": 7722, "rey": 7723, "anwhile": 7724, "gling": 7725, "\u0120Abi": 7726, "Binky": 7727, "\u0120punishment": 7728, "\u0120banged": 7729, "\u0120humans": 7730, "\u0120crashing": 7731, "\u0120force": 7732, "\u0120Ana": 7733, "\u0120hundred": 7734, "\u0120gest": 7735, "\u0120Lia": 7736, "\u0120swimmer": 7737, "\u0120Chess": 7738, "\u0120snowflakes": 7739, "\u0120relaxing": 7740, "\u0120resisted": 7741, "\u0120beeped": 7742, "\u0120Fairy": 7743, "\u0120quarreled": 7744, "form": 7745, "elie": 7746, "\u0120ramp": 7747, "\u0120Wendy": 7748, "\u0120joins": 7749, "abby": 7750, "\u0120backpacks": 7751, "\u0120Ph": 7752, "years": 7753, "\u0120dressing": 7754, "\u0120delayed": 7755, "\u0120toddler": 7756, "\u0120Luckily": 7757, "\u0120flight": 7758, "\u0120covering": 7759, "\u0120Te": 7760, "orter": 7761, "Two": 7762, "Open": 7763, "By": 7764, "\u0120encouragement": 7765, "\u0120benches": 7766, "\u0120toward": 7767, "\u0120scraped": 7768, "\u0120purpose": 7769, "\u0120focus": 7770, "\u0120Judy": 7771, "Bow": 7772, "\u0120correct": 7773, "'.\"": 7774, "\u0120lipstick": 7775, "\u0120bamboo": 7776, "Spe": 7777, "\u0120twinkled": 7778, "\u0120potion": 7779, "\u0120permitted": 7780, "\u0120months": 7781, "\u0120Cow": 7782, "\u0120languages": 7783, "\u0120orders": 7784, "\u0120freedom": 7785, "Tony": 7786, "\u0120risks": 7787, "\u0120poppies": 7788, "\u0120master": 7789, "shm": 7790, "\u0120noodles": 7791, "\u0120faded": 7792, "\u0120wounds": 7793, "shmallow": 7794, "rier": 7795, "Kids": 7796, "isions": 7797, "\u0120Jojo": 7798, "\u0120creams": 7799, "\u0120birdhouse": 7800, "\u0120cells": 7801, "\u0120annoyed": 7802, "\u0120Herb": 7803, "opes": 7804, "\u0120sniffing": 7805, "\u0120cheers": 7806, "\u0120adults": 7807, "Birdy": 7808, "\u0120unwra": 7809, "ecca": 7810, "Buzzy": 7811, "\u0120puck": 7812, "\u0120opinions": 7813, "\u0120floats": 7814, "andas": 7815, "Instead": 7816, "\u0120flown": 7817, "\u0120sneezes": 7818, "\u0120scen": 7819, "\u0120handsome": 7820, "\u0120Hug": 7821, "\u0120nodding": 7822, "\u0120Mint": 7823, "\u0120smelling": 7824, "\u0120burnt": 7825, "\u01205": 7826, "\u0120drifted": 7827, "ider": 7828, "bage": 7829, "\u0120within": 7830, "\u0120scient": 7831, "\u0120height": 7832, "\u0120damaged": 7833, "\u0120bothering": 7834, "\u0120tearing": 7835, "\u0120slither": 7836, "\u0120pleaded": 7837, "\u0120instruments": 7838, "\u0120ease": 7839, "\u0120Ali": 7840, "Back": 7841, "\u0120scientist": 7842, "\u0120Marie": 7843, "Mira": 7844, "Goodnight": 7845, "\u0120pound": 7846, "\u0120seller": 7847, "\u0120handing": 7848, "da": 7849, "\u0120germ": 7850, "\u0120Say": 7851, "\u0120wasting": 7852, "\u0120files": 7853, "\u0120results": 7854, "\u0120dreamt": 7855, "\u0120Mabel": 7856, "bell": 7857, "\u0120explains": 7858, "\u0120destroying": 7859, "\u0120brushing": 7860, "ousy": 7861, "\u0120hiss": 7862, "\u0120characters": 7863, "\u0120Razor": 7864, "\u0120Cr": 7865, "Carl": 7866, "\u0120certain": 7867, "\u0120Ste": 7868, "Pandy": 7869, "Behind": 7870, "\u0120sweaty": 7871, "unched": 7872, "\u0120business": 7873, "\u0120Robbie": 7874, "\u0120talents": 7875, "\u0120onward": 7876, "Try": 7877, "\u0120engines": 7878, "\u0120bravest": 7879, "ition": 7880, "\u0120sternly": 7881, "\u0120Pen": 7882, "\u0120Janie": 7883, "prints": 7884, "\u0120postman": 7885, "\u0120mosquitoes": 7886, "\u0120minds": 7887, "cake": 7888, "\u0120tuck": 7889, "\u0120scares": 7890, "urious": 7891, "\u0120stomp": 7892, "\u0120apologised": 7893, "uel": 7894, "\u0120manag": 7895, "\u0120snuck": 7896, "\u0120bitten": 7897, "attered": 7898, "\u0120tilted": 7899, "\u0120switched": 7900, "\u0120reminding": 7901, "\u0120decisions": 7902, "\u0120singers": 7903, "\u0120desper": 7904, "\u0120behavior": 7905, "\u0120Poor": 7906, "ashing": 7907, "\u0120Judge": 7908, "bbers": 7909, "inny": 7910, "\u0120squeaked": 7911, "\u0120peeled": 7912, "\u0120Everybody": 7913, "\u0120yumm": 7914, "\u0120purrs": 7915, "\u0120Bra": 7916, "\u0120treated": 7917, "\u0120smashed": 7918, "\u0120rustling": 7919, "\u0120displayed": 7920, "\u0120Until": 7921, "\u0120neatly": 7922, "\u0120matey": 7923, "\u0120planting": 7924, "\u0120Bess": 7925, "inier": 7926, "\u0120marshmallow": 7927, "\u0120insp": 7928, "\u0120yelped": 7929, "\u0120sy": 7930, "\u0120grandparents": 7931, "\u0120cracks": 7932, "\u0120bellies": 7933, "aver": 7934, "\u0120shines": 7935, "\u0120scamp": 7936, "\u0120Navy": 7937, "\u0120hoo": 7938, "\u0120failed": 7939, "\u0120coloring": 7940, "\u0120Yoga": 7941, "\u0120zooms": 7942, "\u0120Make": 7943, "rup": 7944, "\u0120nasty": 7945, "\u0120breathing": 7946, "\u0120combed": 7947, "\u0120pandas": 7948, "\u0120despite": 7949, "line": 7950, "\u0120address": 7951, "ighing": 7952, "\u0120waterfall": 7953, "uffin": 7954, "omp": 7955, "cc": 7956, "\u0120Loop": 7957, "\u0120Angel": 7958, "Tilly": 7959, "\u0120wider": 7960, "\u0120robbers": 7961, "\u0120antic": 7962, "Play": 7963, "Abigail": 7964, "\u0120sweaters": 7965, "\u0120echoed": 7966, "\u0120doorway": 7967, "\u0120Todd": 7968, "evin": 7969, "\u0120edges": 7970, "\u0120inj": 7971, "\u0120Shadow": 7972, "Aunt": 7973, "\u0120gap": 7974, "\u0120disobey": 7975, "\u0120Blinky": 7976, "wise": 7977, "Liz": 7978, "\u0120Michael": 7979, "sss": 8050, "\u0120tar": 7981, "\u0120Flick": 7982, "oscope": 7983, "orking": 7984, "Wake": 7985, "\u0120taped": 7986, "\u0120magnif": 7987, "ulp": 7988, "father": 7989, "\u0120scolds": 7990, "\u0120flaps": 7991, "\u0120action": 7992, "\u0120crawls": 7993, "\u0120Mindy": 7994, "Ros": 7995, "\u0120swap": 7996, "\u0120gobbled": 7997, "\u0120backs": 7998, "\u0120Gary": 7999, "\u0120warri": 8000, "\u0120Fishy": 8001, "\u0120Eddie": 8002, "Slow": 8003, "\u0120steth": 8004, "\u0120sever": 8005, "\u0120shinier": 8006, "\u0120probably": 8007, "\u0120newspapers": 8008, "\u0120several": 8009, "\u0120occ": 8010, "Rock": 8011, "Lena": 8012, "\u0120encount": 8013, "\u0120Meg": 8014, "\u0120serving": 8015, "\u0120quieter": 8016, "\u0120plucked": 8017, "\u0120connected": 8018, "tock": 8019, "\u0120Share": 8020, "\u0120ouch": 8021, "igger": 8022, "Ted": 8023, "Adam": 8024, "\u0120gesture": 8025, "Too": 8026, "Fl": 8027, "\u0120student": 8028, "\u0120plot": 8029, "\u0120doorbell": 8030, "\u0120squaw": 8031, "\u0120cares": 8032, "fire": 8033, "\u0120rescuing": 8034, "\u0120grandson": 8035, "\u0120Se": 8036, "\u0120spy": 8037, "\u0120simply": 8038, "\u0120rows": 8039, "\u0120goo": 8040, "iel": 8041, "\u0120whistles": 8042, "mies": 8043, "vant": 8044, "Shrink": 8045, "Magic": 8046, "\u0120snaps": 8047, "\u0120shorter": 8048, "\u0120astronauts": 8049, "\u0120unpacking": 8051, "\u0120cottage": 8052, "\u0120Time": 8053, "\u0120swo": 8054, "\u0120accidents": 8055, "ibi": 8056, "\u0120swollen": 8057, "\u0120mood": 8058, "\u0120Nut": 8059, "Steve": 8060, "abelle": 8061, "\u0120Zippy": 8062, "\u0120Mousy": 8063, "anie": 8064, "Zara": 8065, "\u0120bothered": 8066, "Hannah": 8067, "\u0120stethoscope": 8068, "found": 8069, "\u0120trusting": 8070, "\u0120causing": 8071, "Mat": 8072, "Mad": 8073, "\u0120leapt": 8074, "\u0120dresser": 8075, "aint": 8076, "\u0120sou": 8077, "\u0120proper": 8078, "\u0120pills": 8079, "retty": 8080, "\u0120throughout": 8081, "Olive": 8082, "\u0120runner": 8083, "\u0120prayers": 8084, "\u0120Dina": 8085, "\u0120joyful": 8086, "Thomas": 8087, "\u0120Karen": 8088, "mates": 8089, "\u0120locks": 8090, "\u0120Prince": 8091, "Jamie": 8092, "\u0120goats": 8093, "what": 8094, "\u0120target": 8095, "rest": 8096, "\u0120Wait": 8097, "\u0120dears": 8098, "\u0120Bang": 8099, "artled": 8100, "Red": 8101, "\u0120waddled": 8102, "\u0120munch": 8103, "\u0120flips": 8104, "\u0120Cro": 8105, "onnie": 8106, "\u0120lowered": 8107, "\u0120stepping": 8108, "\u0120cons": 8109, "\u0120Jackie": 8110, "\u0120teachers": 8111, "\u0120cowboy": 8112, "\u0120Toys": 8113, "\u0120inches": 8114, "\u0120envelopes": 8115, "ears": 8116, "\u0120char": 8117, "\u0120Vroom": 8118, "\u0120explorer": 8119, "\u0120anticip": 8120, "\u0120playd": 8121, "\u0120Ready": 8122, "\u0120Ruff": 8123, "\u0120Ralph": 8124, "unity": 8125, "Nice": 8126, "Finn": 8127, "\u0120Bad": 8128, "ening": 8129, "\u0120knocking": 8130, "\u0120floors": 8131, "\u0120efforts": 8132, "\u0120Pl": 8133, "\u0120uniforms": 8134, "lied": 8135, "\u0120plug": 8136, "\u0120Tri": 8137, "\u0120aware": 8138, "\u0120footprints": 8139, "Someone": 8140, "\u0120nearly": 8141, "\u0120Fiona": 8142, "llas": 8143, "\u0120disc": 8144, "\u0120Ria": 8145, "ivi": 8146, "\u0120whimp": 8147, "\u0120trot": 8148, "\u0120sens": 8149, "\u0120glitt": 8150, "\u0120appreciation": 8151, "oosh": 8152, "\u0120necks": 8153, "\u0120collap": 8154, "\u0120checks": 8155, "\u0120lapt": 8156, "\u0120except": 8157, "ici": 8158, "\u0120charge": 8159, "\u0120Jacky": 8160, "\u0120fluttering": 8161, "\u0120umbrellas": 8162, "acy": 8163, "\u0120sandcastles": 8164, "\u0120Davey": 8165, "\u0120statues": 8166, "\u0120stamped": 8167, "\u0120Honey": 8168, "omb": 8169, "iscuit": 8170, "ails": 8171, "Hoppy": 8172, "\u0120shrank": 8173, "\u0120Amelia": 8174, "rily": 8175, "\u0120prick": 8176, "\u0120finishing": 8177, "\u0120adds": 8178, "rons": 8179, "\u0120stroll": 8180, "\u0120hunters": 8181, "\u0120dodged": 8182, "\u0120chocolates": 8183, "\u0120passengers": 8184, "\u0120germs": 8185, "oger": 8186, "nie": 8187, "\u0120wrig": 8188, "\u0120aprons": 8189, "\u0120aisle": 8190, "\u0120sets": 8191, ".'\"": 8192, "\u0120Gerry": 8193, "\u0120weeds": 8194, "\u0120novels": 8195, "\u0120demanding": 8196, "\u0120Taking": 8197, "gles": 8198, "\u0120scratching": 8199, "\u0120meows": 8200, "issa": 8201, "Dr": 8202, "\u0120nurses": 8203, "Lucky": 8204, "\u0120minding": 8205, "\u0120discussing": 8206, "urrender": 8207, "\u0120killed": 8208, "\u0120driveway": 8209, "\u0120Cari": 8210, "\u0120becomes": 8211, "\u0120toolbox": 8212, "\u0120laptop": 8213, "\u0120haird": 8214, "\u0120Eliz": 8215, "\u0120posit": 8216, "\u0120attack": 8217, "\u0120Sadie": 8218, "\u0120Gl": 8219, "\u0120Despite": 8220, "Speedy": 8221, "sol": 8222, "\u0120scampered": 8223, "\u0120bounces": 8224, "\u0120supplied": 8225, "\u0120sprays": 8226, "\u0120deed": 8227, "\u0120tempt": 8228, "\u0120suggestion": 8229, "\u0120friendships": 8230, "\u0120burns": 8231, "Coco": 8232, "\u0120slapping": 8233, "\u0120closing": 8234, "Arrr": 8235, "\u0120invites": 8236, "\u0120belongings": 8237, "\u0120anticipation": 8238, "\u0120springing": 8239, "\u0120form": 8240, "\u0120erase": 8241, "\u0120cotton": 8242, "\u0120Stan": 8243, "\u0120twists": 8244, "\u0120rays": 8245, "\u0120snuggle": 8246, "\u0120forgives": 8247, "\u0120models": 8248, "\u0120shall": 8249, "\u0120massages": 8250, "\u0120humming": 8251, "\u0120responded": 8252, "\u0120newfound": 8253, "\u0120ghosts": 8254, "\u0120expecting": 8255, "\u0120Shelly": 8256, "\u0120cheated": 8257, "Does": 8258, "\u0120Wooly": 8259, "Gigi": 8260, "otte": 8261, "\u0120traveling": 8262, "\u0120Ne": 8263, "\u0120cond": 8264, "\u0120battle": 8265, "\u0120although": 8266, "\u0120arran": 8267, "alloween": 8268, "\u0120mommies": 8269, "\u0120invitations": 8270, "\u0120carries": 8271, "\u0120aim": 8272, "\u0120refreshing": 8273, "\u0120presented": 8274, "hel": 8275, "\u0120twenty": 8276, "\u0120rowed": 8277, "\u0120Bumpy": 8278, "ots": 8279, "\u0120squir": 8280, "rie": 8281, "arlotte": 8282, "\u0120foxes": 8283, "\u0120cooper": 8284, "\u0120final": 8285, "\u0120duckling": 8286, "\u0120cafe": 8287, "\u0120Bibi": 8288, "Pip": 8289, "\u0120marshmallows": 8290, "\u0120clicked": 8291, "\u0120Zipper": 8292, "oor": 8293, "\u0120jets": 8294, "\u0120designing": 8295, "\u0120beaver": 8296, "five": 8297, "\u0120Muffin": 8298, "\u0120Halloween": 8299, "\u0120mugs": 8300, "\u0120Whoever": 8301, "\u0120drown": 8302, "\u0120Although": 8303, "\u0120tricycle": 8304, "\u0120picnics": 8305, "\u0120oppos": 8306, "\u0120convin": 8307, "\u0120Ruth": 8308, "\u0120Excited": 8309, "iens": 8310, "\u0120Cle": 8311, "\u0120scoops": 8312, "\u0120congratul": 8313, "\u0120Pop": 8314, "\u0120Maddie": 8315, "po": 8316, "Sadly": 8317, "\u0120\u00e2\u0122\u0136": 8318, "\u0120travels": 8319, "\u0120aliens": 8320, "\u0120tests": 8321, "\u0120questioned": 8322, "\u0120Speed": 8323, "inted": 8324, "\u0120strips": 8325, "\u0120craft": 8326, "\u0120Im": 8327, "Near": 8328, "atty": 8329, "Mouse": 8330, "covered": 8331, "\u0120defe": 8332, "\u0120Flutter": 8333, "\u0120Bubba": 8334, "iri": 8335, "Br": 8336, "\u0120fights": 8337, "roken": 8338, "Ball": 8339, "\u0120opposite": 8340, "\u0120Biggy": 8341, "Hmm": 8342, "Find": 8343, "Elly": 8344, "Chloe": 8345, "\u0120rout": 8346, "\u0120grandfather": 8347, "\u0120encountered": 8348, "\u0120Never": 8349, "\u0120decl": 8350, "inch": 8351, "\u0120afford": 8352, "\u0120raising": 8353, "iment": 8354, "\u0120upside": 8355, "\u0120Vivi": 8356, "Meanwhile": 8357, "Jess": 8358, "\u0120flashed": 8359, "\u0120calmly": 8360, "\u0120Rita": 8361, "\u0120yawning": 8362, "\u0120sincere": 8363, "\u0120realizes": 8364, "aturday": 8365, "Trust": 8366, "Choo": 8367, "\u0120crystals": 8368, "\u0120buddy": 8369, "\u0120Samantha": 8370, "\u0120cupcakes": 8371, "\u0120buckled": 8372, "byes": 8373, "Both": 8374, "\u0120winners": 8375, "\u0120defin": 8376, "verse": 8377, "ris": 8378, "\u0120conc": 8379, "',": 8380, "\u0120weapons": 8381, "\u0120caw": 8382, "shadow": 8383, "Josh": 8384, "\u0120packages": 8385, "\u0120cheat": 8386, "\u0120Saturday": 8387, "\u0120sacks": 8388, "\u0120messes": 8389, "\u0120goodbyes": 8390, "\u0120coach": 8391, "\u0120attem": 8392, "quet": 8393, "\u0120convers": 8394, "\u0120Truck": 8395, "\u0120Flo": 8396, "val": 8397, "\u0120drift": 8398, "\u0120caps": 8399, "\u0120Mina": 8400, "\u0120Eva": 8401, "emies": 8402, "\u0120enemies": 8403, "asha": 8404, "\u0120yummiest": 8405, "\u0120scrub": 8406, "\u0120swallow": 8407, "\u0120returning": 8408, "\u0120admiration": 8409, "\u0120Softy": 8410, "\u0120Megan": 8411, "Since": 8412, "\u0120sprout": 8413, "\u0120Louise": 8414, "\u0120unable": 8415, "\u0120Playing": 8416, "\u0120Another": 8417, "ooks": 8418, "\u0120sadder": 8419, "\u0120freezing": 8420, "\u0120brightest": 8421, "\u0120bless": 8422, "\u0120Yawn": 8423, "rian": 8424, "\u0120respon": 8425, "reverse": 8426, "\u0120response": 8427, "\u0120cosy": 8428, "\u0120Oh": 8429, "\u0120diamonds": 8430, "\u0120bride": 8431, "stalk": 8432, "\u0120reapp": 8433, "\u0120opport": 8434, "\u0120honking": 8435, "\u0120garbage": 8436, "\u0120Man": 8437, "\u0120whispering": 8438, "\u0120stretches": 8439, "\u0120prevented": 8440, "erk": 8441, "antastic": 8442, "\u0120whoever": 8443, "\u0120odd": 8444, "\u0120awful": 8445, "\u0120Gray": 8446, "alth": 8447, "\u0120weighs": 8448, "\u0120journeys": 8449, "\u0120awoke": 8450, "Brrr": 8451, "\u0120traps": 8452, "\u0120spices": 8453, "\u0120dragonfly": 8454, "off": 8455, "\u0120born": 8456, "\u0120reassured": 8457, "\u0120clip": 8458, "ivia": 8459, "\u0120stall": 8460, "\u0120beanstalk": 8461, "\u0120argum": 8462, "\u0120examining": 8463, "\u0120definitely": 8464, "\u0120beetles": 8465, "\u0120automobiles": 8466, "\u0120Maisy": 8467, "mine": 8468, "Hop": 8469, "\u0120visitors": 8470, "\u0120stuffing": 8471, "\u0120playdate": 8472, "\u0120washes": 8473, "cie": 8474, "broken": 8475, "\u0120wiser": 8476, "\u0120customer": 8477, "uper": 8478, "emma": 8479, "Rachel": 8480, "\u0120travelling": 8481, "\u0120Sofia": 8482, "\u0120Jolly": 8483, "\u0120Flop": 8484, "ouquet": 8485, "\u0120hairdress": 8486, "\u0120bouquet": 8487, "\u0120Nurse": 8488, "orse": 8489, "bble": 8490, ",'": 8491, "\u0120tumbled": 8492, "\u0120decoration": 8493, "\u0120campfire": 8494, "\u0120Elle": 8495, "\u0120honesty": 8496, "\u0120bud": 8497, "vy": 8498, "ebecca": 8499, "Only": 8500, "\u0120bomb": 8501, "\u0120welcoming": 8502, "\u0120offering": 8503, "\u0120wealth": 8504, "\u0120troubles": 8505, "\u0120occas": 8506, "\u0120Ot": 8507, "\u0120Jax": 8508, "\u0120Hello": 8509, "\u0120loudest": 8510, "\u0120inspired": 8511, "\u0120increasing": 8512, "\u0120type": 8513, "\u0120parted": 8514, "\u0120groan": 8515, "\u0120Chick": 8516, "\u0120Nutty": 8517, "irac": 8518, "\u0120whales": 8519, "\u0120Thunder": 8520, "\u0120Ricky": 8521, "\u0120declared": 8522, "\u0120correctly": 8523, "yler": 8524, "ooky": 8525, "fus": 8526, "\u0120beaks": 8527, "\u0120Quacky": 8528, "athan": 8529, "\u0120cleared": 8530, "\u0120cowboys": 8531, "\u0120nuzzled": 8532, "\u0120Dotty": 8533, "\u0120prizes": 8534, "Finny": 8535, "\u0120warmly": 8536, "\u0120Missile": 8537, "\u0120rewards": 8538, "\u0120obeyed": 8539, "\u0120customers": 8540, "Should": 8541, "\u0120sirens": 8542, "\u0120comforting": 8543, "\u0120Fel": 8544, "shaped": 8545, "\u0120connect": 8546, "\u0120Flappy": 8547, "match": 8548, "\u0120towns": 8549, "\u0120Magic": 8550, "\u0120Bingo": 8551, "elieve": 8552, "\u0120rely": 8553, "\u0120Vicky": 8554, "Honey": 8555, "\u0120trigger": 8556, "\u0120owns": 8557, "\u0120insisting": 8558, "\u0120fantastic": 8559, "\u0120bends": 8560, "\u0120Fe": 8561, "\u0120spoiling": 8562, "\u0120hairdresser": 8563, "\u0120surrendered": 8564, "\u0120supporting": 8565, "\u0120shares": 8566, "\u0120poses": 8567, "\u0120pipes": 8568, "\u0120cleans": 8569, "rench": 8570, "Sun": 8571, "Outside": 8572, "Julie": 8573, "\u0120wrinkled": 8574, "\u0120Cook": 8575, "\u0120chopped": 8576, "\u0120recorder": 8577, "\u0120moons": 8578, "\u0120beaming": 8579, "unes": 8580, "ellow": 8581, "Beth": 8582, "\u0120thanking": 8583, "\u0120snowy": 8584, "\u0120Wolf": 8585, "enn": 8586, "\u0120scurry": 8587, "\u0120experien": 8588, "\u0120enjoyable": 8589, "\u0120active": 8590, "\u0120coral": 8591, "\u0120Piggy": 8592, "\u0120environ": 8593, "\u0120dollar": 8594, "\u0120Kevin": 8595, "worm": 8596, "elope": 8597, "\u0120loc": 8598, "Je": 8599, "\u0120streamers": 8600, "\u0120Bub": 8601, "udged": 8602, "\u0120Patty": 8603, "\u0120Mother": 8604, "\u0120Zack": 8605, "inger": 8606, "Suzy": 8607, "\u0120examp": 8608, "\u0120shorts": 8609, "\u0120shooed": 8610, "\u0120environment": 8611, "Tree": 8612, "\u0120ill": 8613, "\u0120scent": 8614, "\u0120bruises": 8615, "uster": 8616, "\u0120grat": 8617, "\u0120Luc": 8618, "Bo": 8619, "\u0120hisses": 8620, "\u0120steering": 8621, "\u0120self": 8622, "\u0120plugged": 8623, "\u0120Elsa": 8624, "\u0120warrior": 8625, "yl": 8626, "\u0120visits": 8627, "\u0120exercises": 8628, "screen": 8629, "irl": 8630, "aptain": 8631, "\u0120dangers": 8632, "\u0120cuddles": 8633, "\u0120Rel": 8634, "\u0120Ar": 8635, "\u0120unfortunately": 8636, "\u0120squished": 8637, "\u0120signing": 8638, "\u0120Light": 8639, "bee": 8640, "Ray": 8641, "\u0120pilots": 8642, "\u0120disappoint": 8643, "munk": 8644, "\u0120gratitude": 8645, "\u0120applauding": 8646, "\u0120providing": 8647, "\u0120Moppy": 8648, "alf": 8649, "\u0120tickles": 8650, "\u0120ting": 8651, "\u0120Rub": 8652, "Grow": 8653, "\u0120storms": 8654, "\u0120nights": 8655, "\u0120jud": 8656, "\u0120convinced": 8657, "\u0120badger": 8658, "\u0120Elsie": 8659, "\u0120youn": 8660, "\u0120responsib": 8661, "\u0120choosing": 8662, "\u0120Kelly": 8663, "Joy": 8664, "\u0120youngest": 8665, "\u0120nearest": 8666, "\u0120brains": 8667, "\u0120activity": 8668, "Abby": 8669, "\u0120exploded": 8670, "\u0120coughed": 8671, "\u0120arranged": 8672, "Claire": 8673, "\u0120rewarding": 8674, "\u0120Tre": 8675, "\u0120Fly": 8676, "pr": 8677, "good": 8678, "erpiece": 8679, "\u0120sunscreen": 8680, "\u0120peep": 8681, "\u0120bond": 8682, "\u0120Floppy": 8683, "asers": 8684, "Mon": 8685, "\u0120Tweety": 8686, "\u0120Sweet": 8687, "\u0120Katy": 8688, "\u0120Sal": 8689, "ilities": 8690, "\u0120annoying": 8691, "eow": 8692, "\u0120soapy": 8693, "sn": 8694, "meow": 8695, "Splash": 8696, "\u0120rails": 8697, "\u0120laces": 8698, "\u0120threads": 8699, "\u0120tapping": 8700, "\u0120offic": 8701, "\u0120appreciated": 8702, "\u0120Pine": 8703, "\u0120Phil": 8704, "boards": 8705, "\u0120weighing": 8706, "\u0120heartbroken": 8707, "\u0120emerged": 8708, "\u0120congratulated": 8709, "\u0120Pick": 8710, "Danger": 8711, "\u0120Sil": 8712, "\u0120crocodiles": 8713, "\u0120clerk": 8714, "\u0120scram": 8715, "\u0120attempt": 8716, "\u0120Nancy": 8717, "water": 8718, "Ahoy": 8719, "\u0120messed": 8720, "\u0120example": 8721, "\u0120dial": 8722, "\u0120Min": 8723, "\u0120Kay": 8724, "\u0120De": 8725, "\u0120Any": 8726, "Momma": 8727, "\u0120hooks": 8728, "\u0120Jonny": 8729, "\u0120tops": 8730, "\u0120chipmunk": 8731, "\u0120soot": 8732, "\u0120guarding": 8733, "\u0120bathed": 8734, "raged": 8735, "\u0120manager": 8736, "\u0120Tippy": 8737, "ortunately": 8738, "\u0120Microscope": 8739, "Friends": 8740, "etah": 8741, "Snowy": 8742, "\u0120masterpiece": 8743, "\u0120Baa": 8744, "\u0120erasers": 8745, "\u0120tips": 8746, "\u0120finishes": 8747, "\u0120fet": 8748, "\u0120common": 8749, "\u0120Tomorrow": 8750, "mbers": 8751, "\u0120trotted": 8752, "\u0120nibbled": 8753, "\u0120members": 8754, "\u0120digs": 8755, "People": 8756, "\u0120kinder": 8757, "\u0120cheetah": 8758, "\u0120particularly": 8759, "\u0120chews": 8760, "\u0120blond": 8761, "ircle": 8762, "\u0120rips": 8763, "\u0120beast": 8764, "Lizzy": 8765, "\u0120argument": 8766, "ative": 8767, "\u0120faith": 8768, "\u0120Helping": 8769, "\u0120earned": 8770, "Anne": 8771, "\u0120observing": 8772, "\u0120forgiveness": 8773, "\u0120Joke": 8774, "\u0120Cici": 8775, "chievous": 8776, "\u0120instantly": 8777, "\u0120fishes": 8778, "\u0120experienced": 8779, "\u0120curl": 8780, "\u0120cheaper": 8781, "\u0120Jumpy": 8782, "Rosie": 8783, "\u0120mischievous": 8784, "\u0120generosity": 8785, "\u0120cages": 8786, "\u0120Twist": 8787, "Gr": 8788, "Baa": 8789, "\u0120meowing": 8790, "\u0120foam": 8791, "mered": 8792, "Cindy": 8793, "\u0120stores": 8794, "\u0120grandd": 8795, "\u0120Ag": 8796, "etchup": 8797, "\u0120mattered": 8798, "\u0120teles": 8799, "\u0120passes": 8800, "\u0120limp": 8801, "Sque": 8802, "\u0120sleeps": 8803, "iolet": 8804, "\u0120breaths": 8805, "ordinary": 8806, "ettle": 8807, "ending": 8808, "\u0120trans": 8809, "\u0120rin": 8810, "\u0120gasps": 8811, "\u0120Freddie": 8812, "Got": 8813, "\u0120rumbling": 8814, "\u0120hatch": 8815, "\u0120Momma": 8816, "over": 8817, "abra": 8818, "\u0120tin": 8819, "\u0120grassho": 8820, "\u0120accomplished": 8821, "\u0120Hopper": 8822, "acing": 8823, "\u0120thump": 8824, "\u0120telescope": 8825, "\u0120strum": 8826, "\u0120smartest": 8827, "\u0120mats": 8828, "\u0120whined": 8829, "\u0120moat": 8830, "Gina": 8831, "\u0120scrambled": 8832, "\u0120farmers": 8833, "\u0120Ice": 8834, "\u0120drip": 8835, "Robbie": 8836, "\u0120syrup": 8837, "\u0120gardens": 8838, "\u0120collapsed": 8839, "\u0120angrily": 8840, "\u0120More": 8841, "ouraged": 8842, "idey": 8843, "\u0120vegg": 8844, "\u0120styles": 8845, "\u0120forests": 8846, "\u0120experiences": 8847, "\u0120discoveries": 8848, "hole": 8849, "\u0120tor": 8850, "\u0120medals": 8851, "\u0120types": 8852, "\u0120otters": 8853, "\u0120meaning": 8854, "\u0120faint": 8855, "\u0120conqu": 8856, "\u0120Pig": 8857, "\u0120Does": 8858, "pit": 8859, "adabra": 8860, "acock": 8861, "\u0120snapping": 8862, "\u0120hardest": 8863, "\u0120fif": 8864, "ering": 8865, "\u0120movements": 8866, "\u0120expression": 8867, "\u0120surv": 8868, "\u0120chilly": 8869, "\u0120bubbly": 8870, "\u0120affect": 8871, "Pinky": 8872, "\u0120vests": 8873, "\u0120unfair": 8874, "\u0120court": 8875, "Whenever": 8876, "\u0120toothbrush": 8877, "\u0120scores": 8878, "\u0120extraordinary": 8879, "Never": 8880, "\u0120attitude": 8881, "\u0120vibr": 8882, "\u0120horri": 8883, "\u0120bluebird": 8884, "\u0120Monkey": 8885, "mel": 8886, "lls": 8887, "Mo": 8888, "\u0120spears": 8889, "\u0120ketchup": 8890, "\u0120Berry": 8891, "Mother": 8892, "\u0120sooner": 8893, "\u0120grasshopper": 8894, "\u0120behaviour": 8895, "Karen": 8896, "\u0120patches": 8897, "\u0120habit": 8898, "yd": 8899, "erts": 8900, "\u0120pokes": 8901, "\u0120momma": 8902, "\u0120afar": 8903, "\u0120Ashley": 8904, "lo": 8905, "ieves": 8906, "Jacob": 8907, "\u0120thicker": 8908, "\u0120scri": 8909, "\u0120Friend": 8910, "Jon": 8911, "\u0120squeezes": 8912, "\u0120slithered": 8913, "\u0120shrunk": 8914, "\u0120classmates": 8915, "\u0120Terry": 8916, "\u0120Fle": 8917, "\u0120icky": 8918, "\u0120prickly": 8919, "\u0120glittering": 8920, "\u0120expert": 8921, "\u0120topp": 8922, "\u0120kneeling": 8923, "\u0120announced": 8924, "\u0120Super": 8925, "\u0120Riri": 8926, "elling": 8927, "\u0120peacock": 8928, "\u0120marking": 8929, "ctric": 8930, "\u0120costs": 8931, "\u0120Cally": 8932, "\u0120Achoo": 8933, "\u0120zigzags": 8934, "\u0120watermel": 8935, "\u0120thieves": 8936, "\u0120skirts": 8937, "\u0120jumper": 8938, "\u0120hood": 8939, "\u0120acts": 8940, "\u0120Zog": 8941, "\u0120App": 8942, "\u0120wolves": 8943, "\u0120Swim": 8944, "\u0120Cloud": 8945, "Papa": 8946, "\u0120thumbs": 8947, "\u0120squeaky": 8948, "\u0120concer": 8949, "\u0120cocoon": 8950, "\u0120woodcut": 8951, "\u0120boards": 8952, "\u0120Eliza": 8953, "\u0120Becky": 8954, "\u0120servant": 8955, "idence": 8956, "affle": 8957, "\u0120cheating": 8958, "\u0120Jason": 8959, "bu": 8960, "\u0120trading": 8961, "\u0120raking": 8962, "cat": 8963, "Jessie": 8964, "\u0120explaining": 8965, "\u0120Eric": 8966, "rick": 8967, "\u0120tidied": 8968, "\u0120biscuit": 8969, "\u0120lunchtime": 8970, "\u0120luckily": 8971, "\u0120Ac": 8972, "Frog": 8973, "\u0120Puffy": 8974, "\u0120spilling": 8975, "\u0120Day": 8976, "Fire": 8977, "\u0120transform": 8978, "\u0120desserts": 8979, "\u0120Use": 8980, "\u0120Maddy": 8981, "\u0120Daniel": 8982, "\u0120Animal": 8983, "\u00e2\u0122\u00a6": 8984, "ror": 8985, "anced": 8986, "\u0120Mine": 8987, "\u0120Still": 8988, "\u0120Gill": 8989, "rough": 8990, "amma": 8991, "\u0120messages": 8992, "\u0120mirac": 8993, "\u0120Captain": 8994, "idy": 8995, "\u0120windowsill": 8996, "\u0120chill": 8997, "\u0120beating": 8998, "\u0120Tammy": 8999, "\u0120Lung": 9000, "\u0120Gilly": 9001, "oot": 9002, "\u0120seeking": 9003, "\u0120actor": 9004, "\u0120Rainbow": 9005, "\u0120Lina": 9006, "\u0120William": 9007, "sess": 9008, "its": 9009, "\u0120Math": 9010, "pril": 9011, "Any": 9012, "\u0120foreshadow": 9013, "war": 9014, "acles": 9015, "Bluey": 9016, "\u0120leans": 9017, "\u0120Step": 9018, "\u0120Pinch": 9019, "\u0120Hi": 9020, "racadabra": 9021, "Freeze": 9022, "Bounce": 9023, "\u0120watermelon": 9024, "\u0120hissing": 9025, "\u0120flashing": 9026, "\u0120dev": 9027, "\u0120cloths": 9028, "\u0120Tiger": 9029, "\u0120Monster": 9030, "\u0120Frankie": 9031, "pop": 9032, "\u0120winding": 9033, "\u0120positive": 9034, "\u0120funn": 9035, "\u0120discouraged": 9036, "\u0120Wil": 9037, "\u0120woodcutter": 9038, "\u0120forts": 9039, "\u0120dripped": 9040, "\u0120compete": 9041, "\u0120teapot": 9042, "\u0120pressing": 9043, "\u0120disagreeing": 9044, "icking": 9045, "\u0120glimmering": 9046, "\u0120veggies": 9047, "\u0120trusts": 9048, "\u0120tidying": 9049, "\u0120kangaroos": 9050, "\u0120Peep": 9051, "\u0120tempted": 9052, "\u0120landing": 9053, "\u0120Flora": 9054, "\u0120dock": 9055, "\u0120shallow": 9056, "\u0120overw": 9057, "\u0120formed": 9058, "eling": 9059, "\u0120rack": 9060, "\u0120fade": 9061, "\u0120Tooth": 9062, "flowers": 9063, "\u0120worst": 9064, "\u0120electric": 9065, "\u0120cops": 9066, "Nothing": 9067, "\u0120apology": 9068, "iving": 9069, "creams": 9070, "ai": 9071, "\u0120sleds": 9072, "\u0120Silver": 9073, "\u0120Life": 9074, "upid": 9075, "\u0120comets": 9076, "\u0120ass": 9077, "Owl": 9078, "\u0120sav": 9079, "\u0120Shark": 9080, "\u0120Mag": 9081, "\u0120Jelly": 9082, "Bug": 9083, "\u0120situations": 9084, "\u0120papa": 9085, "\u0120officers": 9086, "\u0120conversation": 9087, "\u01204": 9088, "Rain": 9089, "\u0120Roger": 9090, "\u0120Charlotte": 9091, "storm": 9092, "aye": 9093, "\u0120suns": 9094, "\u0120ding": 9095, "\u00e2\u0122\u013f,": 9096, "\u0120zips": 9097, "\u0120structures": 9098, "\u0120scurrying": 9099, "\u0120pizzas": 9100, "\u0120overwhel": 9101, "\u0120miller": 9102, "\u0120Butter": 9103, "\u0120granddaughter": 9104, "\u0120foggy": 9105, "\u0120Olivia": 9106, "\u0120Hurry": 9107, "\u0120Amber": 9108, "Zoe": 9109, "\u0120Janey": 9110, "\u0120webs": 9111, "\u0120deserved": 9112, "Rabbit": 9113, "\u0120opportunity": 9114, "\u0120cubs": 9115, "\u0120Yummy": 9116, "\u0120Spidey": 9117, "\u0120Sasha": 9118, "\u0120Mixie": 9119, "\u0120Buster": 9120, "\u0120snorted": 9121, "\u0120rhino": 9122, "\u0120differences": 9123, "\u0120Gold": 9124, "\u0120quacking": 9125, "\u0120Tell": 9126, "ifully": 9127, "ended": 9128, "Fifi": 9129, "\u0120heaven": 9130, "\u0120Birds": 9131, "\u0120unlo": 9132, "\u0120levers": 9133, "\u0120inchworm": 9134, "\u0120inter": 9135, "\u0120approach": 9136, "\u0120Tyler": 9137, "ssess": 9138, "\u0120seagulls": 9139, "\u0120possess": 9140, "\u0120cooperate": 9141, "\u0120Rufus": 9142, "\u0120Felix": 9143, "\u0120Boom": 9144, "welcome": 9145, "sers": 9146, "ragon": 9147, "of": 9148, "?\u00e2\u0122\u013f.": 9149, "andra": 9150, "\u0120pose": 9151, "\u0120disappointment": 9152, "\u0120Smoke": 9153, "ocular": 9154, "\u0120speaks": 9155, "\u0120sneaks": 9156, "snap": 9157, "\u0120binocular": 9158, "\u0120artwork": 9159, "\u0120surfed": 9160, "\u0120scowl": 9161, "\u0120answering": 9162, "\u0120Snake": 9163, "\u0120shortcut": 9164, "\u0120Grand": 9165, "\u0120sipped": 9166, "\u0120robin": 9167, "\u0120dep": 9168, "Climb": 9169, "\u0120arrest": 9170, "\u0120Inky": 9171, "ssy": 9172, "\u0120unwrapped": 9173, "\u0120ribbit": 9174, "\u0120reun": 9175, "\u0120amused": 9176, "\u0120Amanda": 9177, "ugar": 9178, "\u0120repeats": 9179, "\u0120pepperoni": 9180, "\u0120applause": 9181, "\u0120keyhole": 9182, "\u0120checkout": 9183, "\u0120Mae": 9184, "\u0120Cars": 9185, "Lia": 9186, "Deal": 9187, "\u0120visitor": 9188, "\u0120striking": 9189, "\u0120puppets": 9190, "\u0120paddling": 9191, "Eat": 9192, "\u0120unz": 9193, "\u0120croaked": 9194, "\u0120attacked": 9195, "\u0120Circle": 9196, "orsie": 9197, "\u0120spooky": 9198, "\u0120Otto": 9199, "\u0120Gus": 9200, "Each": 9201, "\u0120groaned": 9202, "\u0120beautifully": 9203, "\u0120Brian": 9204, "ili": 9205, "gar": 9206, "cidents": 9207, "\u0120swimsuits": 9208, "\u0120consider": 9209, "\u0120checking": 9210, "uses": 9211, "\u0120Yellow": 9212, "jest": 9213, "\u0120waters": 9214, "\u0120groom": 9215, "\u0120Squeak": 9216, "\u0120Slinky": 9217, "yle": 9218, "Jenn": 9219, "\u0120invent": 9220, "Luke": 9221, "\u0120nets": 9222, "\u0120exams": 9223, "otion": 9224, "ets": 9225, "\u0120drying": 9226, "\u0120Rebecca": 9227, "udy": 9228, "artin": 9229, "agine": 9230, "\u0120shrugs": 9231, "\u0120lump": 9232, "\u0120Auntie": 9233, "sie": 9234, "lest": 9235, "\u0120sobbing": 9236, "\u0120shyly": 9237, "\u0120shoots": 9238, "\u0120honks": 9239, "\u0120heels": 9240, "\u0120cheerfully": 9241, "\u0120Since": 9242, "hny": 9243, "esses": 9244, "\u0120shh": 9245, "\u0120chin": 9246, "anish": 9247, "\u0120whimpered": 9248, "\u0120healthier": 9249, "\u0120hangs": 9250, "icious": 9251, "Milo": 9252, "\u0120Mus": 9253, "\u0120caterpillars": 9254, "izzes": 9255, "Slowly": 9256, "\u0120squinted": 9257, "\u0120magnifying": 9258, "\u0120fries": 9259, "\u0120Ratty": 9260, "\u0120fascinating": 9261, "\u0120blamed": 9262, "\u0120Find": 9263, "lers": 9264, "ulpture": 9265, "ching": 9266, "\u0120sculpture": 9267, "\u0120frustration": 9268, "\u0120Tip": 9269, "ouched": 9270, "\u0120shimmering": 9271, "\u0120Penelope": 9272, "eat": 9273, "\u0120poss": 9274, "\u0120Peace": 9275, "edic": 9276, "Sharing": 9277, "\u0120suck": 9278, "\u0120pleas": 9279, "\u0120numbered": 9280, "\u0120nibble": 9281, "\u0120Waffle": 9282, "othy": 9283, "ibbles": 9284, "ellie": 9285, "amil": 9286, "\u0120flowing": 9287, "\u0120baa": 9288, "hings": 9289, "Pepper": 9290, "\u0120raked": 9291, "\u0120grumbled": 9292, "\u0120Off": 9293, "that": 9294, "Bubbles": 9295, "\u0120builder": 9296, "racted": 9297, "\u0120swaying": 9298, "\u0120petting": 9299, "\u0120guards": 9300, "\u0120facing": 9301, "\u0120Woolly": 9302, "\u0120sprinkle": 9303, "\u0120mysteries": 9304, "\u0120details": 9305, "\u0120Har": 9306, "sey": 9307, "\u0120snort": 9308, "\u0120flock": 9309, "\u0120enemy": 9310, "\u0120Boat": 9311, "\u0120textures": 9312, "\u0120tablet": 9313, "\u0120goodies": 9314, "\u0120Curious": 9315, "\u0120Barry": 9316, "Yesterday": 9317, "\u0120popping": 9318, "\u0120wildflowers": 9319, "\u0120stacks": 9320, "\u0120marve": 9321, "\u0120fans": 9322, "\u0120crops": 9323, "\u0120countries": 9324, "\u0120Gracie": 9325, "how": 9326, "\u0120knobs": 9327, "\u0120Tessa": 9328, "\u0120Seeing": 9329, "\u0120local": 9330, "\u0120bushy": 9331, "\u0120stew": 9332, "\u0120peeped": 9333, "\u0120hunting": 9334, "\u0120drowned": 9335, "\u0120bowing": 9336, "\u0120binoculars": 9337, "\u0120angrier": 9338, "\u0120Bubu": 9339, "\u0120maps": 9340, "\u0120Match": 9341, "\u0120quizzes": 9342, "\u0120niece": 9343, "\u0120moonlight": 9344, "\u0120Li": 9345, "\u0120Glow": 9346, "Im": 9347, "\u0120outfits": 9348, "\u0120Johnson": 9349, "\u0120Deal": 9350, "OO": 9351, "\u0120whoosh": 9352, "\u0120weaker": 9353, "\u0120wrench": 9354, "\u0120mindful": 9355, "\u0120crowded": 9356, "cycles": 9357, "Squ": 9358, "\u0120endings": 9359, "\u0120Beef": 9360, "oll": 9361, "\u0120property": 9362, "\u0120hesitation": 9363, "\u0120flashes": 9364, "amiliar": 9365, "\u0120unless": 9366, "\u0120imaginations": 9367, "\u0120fond": 9368, "\u0120carts": 9369, "\u0120boil": 9370, "\u0120ability": 9371, "\u0120Oxy": 9372, "\u0120Andrew": 9373, "getic": 9374, "\u0120glared": 9375, "\u0120Right": 9376, "\u0120Accidents": 9377, "stand": 9378, "\u0120unfamiliar": 9379, "\u0120spaces": 9380, "\u0120microw": 9381, "\u0120knit": 9382, "\u0120haven": 9383, "\u0120folds": 9384, "ths": 9385, "saw": 9386, "Tuna": 9387, "\u0120responsibility": 9388, "\u0120dirtier": 9389, "\u0120Pet": 9390, "bank": 9391, "\u0120pouch": 9392, "\u0120microwave": 9393, "\u0120desks": 9394, "ibly": 9395, "Bless": 9396, "\u0120cracker": 9397, "rnie": 9398, "\u0120swapped": 9399, "\u0120member": 9400, "\u0120date": 9401, "\u0120aston": 9402, "\u0120Oxygen": 9403, "\u0120Ring": 9404, "\u0120Ravi": 9405, "lt": 9406, "free": 9407, "Want": 9408, "Cra": 9409, "\u0120whine": 9410, "\u0120softened": 9411, "\u0120rebu": 9412, "\u0120doorstep": 9413, "\u0120disappearing": 9414, "\u0120Peggy": 9415, "\u0120Helen": 9416, "\u0120Bun": 9417, "\u0120quacks": 9418, "\u0120natur": 9419, "\u0120Chip": 9420, "scar": 9421, "\u0120writer": 9422, "\u0120listener": 9423, "\u0120Too": 9424, "\u0120Fix": 9425, "\u0120priv": 9426, "\u0120blushed": 9427, "\u0120Spicy": 9428, "venir": 9429, "\u0120palms": 9430, "\u0120noticing": 9431, "upt": 9432, "repe": 9433, "poison": 9434, "\u0120souvenir": 9435, "\u0120Past": 9436, "repeat": 9437, "entr": 9438, "\u0120laws": 9439, "\u0120disaster": 9440, "\u0120Tra": 9441, "\u0120Res": 9442, "\u0120Jean": 9443, "\u0120Gabby": 9444, "str": 9445, "reg": 9446, "endant": 9447, "Robby": 9448, "\u0120phones": 9449, "ala": 9450, "Ava": 9451, "\u0120confidence": 9452, "\u0120Coal": 9453, "\u0120Cut": 9454, "\u0120Bert": 9455, "\u0120timid": 9456, "\u0120stirs": 9457, "\u0120overwhelmed": 9458, "ingly": 9459, "Being": 9460, "\u0120mayor": 9461, "\u0120flick": 9462, "guess": 9463, "asmine": 9464, "Che": 9465, "\u0120tugging": 9466, "\u0120Pretty": 9467, "\u0120Mole": 9468, "lor": 9469, "\u0120untangle": 9470, "\u0120satisfa": 9471, "\u0120owls": 9472, "\u0120mailing": 9473, "\u0120injured": 9474, "Whose": 9475, "\u0120satisfaction": 9476, "\u0120concentr": 9477, "\u0120White": 9478, "\u0120Immediately": 9479, "\u0120Books": 9480, "Fly": 9481, "\u0120March": 9482, "\u0120Animals": 9483, "mers": 9484, "Sc": 9485, "Mittens": 9486, "\u0120lim": 9487, "\u0120Eat": 9488, "this": 9489, "Mabel": 9490, "\u0120prank": 9491, "\u0120Wonder": 9492, "\u0120Nora": 9493, "\u0120Bonnie": 9494, "Wiggly": 9495, "\u0120hooves": 9496, "\u0120Triangle": 9497, "\u0120Run": 9498, "\u0120Pot": 9499, "\u0120Melissa": 9500, "\u0120Kn": 9501, "well": 9502, "Jeff": 9503, "\u0120fixer": 9504, "\u0120Startled": 9505, "\u0120Sir": 9506, "\u0120Clean": 9507, "\u0120Close": 9508, "icate": 9509, "\u0120snar": 9510, "\u0120clut": 9511, "lish": 9512, "bling": 9513, "Excited": 9514, "\u0120skies": 9515, "\u0120instrument": 9516, "\u0120Trucky": 9517, "\u0120capt": 9518, "\u0120Matilda": 9519, "\u0120Horsie": 9520, "\u0120Faye": 9521, "adually": 9522, "\u0120disagre": 9523, "iky": 9524, "\u0120wriggled": 9525, "\u0120stains": 9526, "\u0120rinse": 9527, "\u0120pecks": 9528, "\u0120creak": 9529, "\u0120Sleepy": 9530, "Susan": 9531, "\u0120shave": 9532, "\u0120bumping": 9533, "\u0120Icy": 9534, "\u0120Heli": 9535, "\u0120Crabby": 9536, "ulf": 9537, "els": 9538, "\u0120swirl": 9539, "\u0120ruff": 9540, "\u0120bending": 9541, "\u0120Sing": 9542, "cessary": 9543, "Playing": 9544, "Close": 9545, "\u0120sandpit": 9546, "\u0120exploration": 9547, "\u0120chatted": 9548, "\u0120Scissors": 9549, "Make": 9550, "\u0120rods": 9551, "\u0120lever": 9552, "\u0120facts": 9553, "Sm": 9554, "\u0120attaching": 9555, "\u0120Candy": 9556, "\u0120fooled": 9557, "\u0120burger": 9558, "\u0120Bro": 9559, "\u0120glows": 9560, "\u0120concerned": 9561, "\u0120clearly": 9562, "Maya": 9563, "\u0120salon": 9564, "\u0120reversing": 9565, "\u0120lava": 9566, "\u0120compan": 9567, "\u0120certainly": 9568, "Wally": 9569, "\u0120smelt": 9570, "\u0120motorcycles": 9571, "\u0120fetched": 9572, "\u0120circ": 9573, "\u0120troll": 9574, "\u0120tunes": 9575, "\u0120sometime": 9576, "\u0120prod": 9577, "\u0120oldest": 9578, "\u0120fireflies": 9579, "Ring": 9580, "\u0120kissing": 9581, "\u0120challenges": 9582, "\u0120blonde": 9583, "Kayla": 9584, "\u0120warmed": 9585, "\u0120Bobbie": 9586, "\u0120unlocking": 9587, "\u0120natural": 9588, "\u0120differently": 9589, "\u0120bound": 9590, "\u0120Lots": 9591, "urple": 9592, "sa": 9593, "erg": 9594, "Tara": 9595, "Dino": 9596, "Abracadabra": 9597, "\u0120rubb": 9598, "\u0120riverbank": 9599, "\u0120jig": 9600, "\u0120detect": 9601, "\u0120cutter": 9602, "\u0120cupcake": 9603, "\u0120conquered": 9604, "\u0120hates": 9605, "\u0120alley": 9606, "\u0120Flap": 9607, "sorry": 9608, "\u0120swirls": 9609, "\u0120sends": 9610, "\u0120realise": 9611, "\u0120Open": 9612, "\u0120Flopsy": 9613, "ani": 9614, "Julia": 9615, "Isn": 9616, "\u0120wiggling": 9617, "\u0120sensation": 9618, "\u0120munched": 9619, "\u0120banging": 9620, "\u0120Cammy": 9621, "\u0120toppings": 9622, "\u0120hippos": 9623, "\u0120fist": 9624, "\u0120clips": 9625, "\u0120Reliable": 9626, "Doctor": 9627, "\u0120swayed": 9628, "\u0120stings": 9629, "\u0120robe": 9630, "\u0120miracle": 9631, "\u0120halves": 9632, "\u0120brakes": 9633, "\u0120Greeny": 9634, "Hope": 9635, "Fish": 9636, "\u0120survive": 9637, "\u0120ostriches": 9638, "\u0120Pink": 9639, "\u0120Climb": 9640, "ula": 9641, "keepers": 9642, "bert": 9643, "Michael": 9644, "\u0120torto": 9645, "\u0120otherwise": 9646, "\u0120embra": 9647, "\u0120crushed": 9648, "\u0120bubbling": 9649, "\u0120Di": 9650, "\u0120tents": 9651, "\u0120Looking": 9652, "\u0120repairing": 9653, "\u0120Of": 9654, "change": 9655, "\u0120vinegar": 9656, "\u0120stretchy": 9657, "\u0120rubbish": 9658, "\u0120lizards": 9659, "\u0120Working": 9660, "\u0120Flicker": 9661, "\u0120passenger": 9662, "\u0120Ed": 9663, "aste": 9664, "Many": 9665, "\u0120vibrant": 9666, "\u0120tortoise": 9667, "\u0120pounced": 9668, "\u0120Which": 9669, "Suzie": 9670, "\u0120scene": 9671, "\u0120Rh": 9672, "\u0120Grump": 9673, "gr": 9674, "\u0120mooed": 9675, "\u0120glided": 9676, "\u0120desperately": 9677, "\u0120bas": 9678, "\u0120snip": 9679, "\u0120poop": 9680, "\u0120majest": 9681, "\u0120intently": 9682, "\u0120copied": 9683, "\u0120calmer": 9684, "\u0120Sundays": 9685, "\u0120Lightning": 9686, "rap": 9687, "\u0120woken": 9688, "\u0120twel": 9689, "\u0120rags": 9690, "\u0120judges": 9691, "\u0120joyfully": 9692, "\u0120jing": 9693, "\u0120coolest": 9694, "\u0120Per": 9695, "smelling": 9696, "\u0120lectures": 9697, "\u0120glob": 9698, "\u0120Jody": 9699, "lyn": 9700, "isible": 9701, "\u0120hips": 9702, "\u0120cousins": 9703, "\u0120astonished": 9704, "\u0120capes": 9705, "\u0120Outside": 9706, "uno": 9707, "Eww": 9708, "\u0120successfully": 9709, "\u0120speaker": 9710, "\u0120reunited": 9711, "\u0120invisible": 9712, "\u0120guesses": 9713, "\u0120gooey": 9714, "\u0120arrives": 9715, "why": 9716, "\u0120twelve": 9717, "\u0120bats": 9718, "urity": 9719, "Mikey": 9720, "\u0120goodness": 9721, "\u0120computers": 9722, "\u0120chatting": 9723, "\u0120Carla": 9724, "nded": 9725, "mie": 9726, "\u0120stacking": 9727, "\u0120snowflake": 9728, "istory": 9729, "\u0120reappeared": 9730, "\u0120racer": 9731, "\u0120pounds": 9732, "\u0120parks": 9733, "\u0120desperate": 9734, "\u0120companion": 9735, "\u0120commun": 9736, "bed": 9737, "Zigzag": 9738, "Ol": 9739, "\u0120luckiest": 9740, "\u0120level": 9741, "\u0120dou": 9742, "\u0120ank": 9743, "\u0120tale": 9744, "\u0120stomachs": 9745, "\u0120sells": 9746, "\u0120gall": 9747, "\u0120dumb": 9748, "\u0120crickets": 9749, "\u0120Sugar": 9750, "Nick": 9751, "\u0120winds": 9752, "\u0120sus": 9753, "\u0120gates": 9754, "\u0120disobeyed": 9755, "\u0120disagreement": 9756, "\u0120Steven": 9757, "hile": 9758, "More": 9759, "\u0120pearls": 9760, "\u0120hoses": 9761, "\u0120crisp": 9762, "\u0120awhile": 9763, "\u0120Whee": 9764, "ites": 9765, "Lou": 9766, "\u0120soda": 9767, "\u0120popsic": 9768, "\u0120loyalty": 9769, "\u0120Orange": 9770, "Linda": 9771, "\u0120tongues": 9772, "\u0120Rosa": 9773, "usion": 9774, "rent": 9775, "\u0120rider": 9776, "\u0120CD": 9777, "Ooh": 9778, "\u0120Black": 9779, "pan": 9780, "\u0120surely": 9781, "\u0120abo": 9782, "\u0120Law": 9783, "\u0120Annabelle": 9784, "colored": 9785, "\u0120occasion": 9786, "\u0120bund": 9787, "rum": 9788, "izza": 9789, "dog": 9790, "!\u00e2\u0122\u013b": 9791, "\u0120stun": 9792, "\u0120guitars": 9793, "\u0120chicks": 9794, "chief": 9795, "\u0120separating": 9796, "\u0120seashe": 9797, "\u0120rebuild": 9798, "\u0120intelligence": 9799, "\u0120alligators": 9800, "\u0120aboard": 9801, "\u0120Raven": 9802, "\u0120Iron": 9803, "\u0120April": 9804, "Found": 9805, "\u0120croak": 9806, "\u0120creep": 9807, "\u0120Winky": 9808, "\u0120Violet": 9809, "aids": 9810, "Something": 9811, "Catch": 9812, "\u0120learner": 9813, "\u0120caution": 9814, "\u0120cuc": 9815, "\u0120Old": 9816, "\u0120Care": 9817, "solut": 9818, "\u0120whines": 9819, "\u0120spiky": 9820, "\u0120revealing": 9821, "\u0120rins": 9822, "\u0120Uni": 9823, "working": 9824, "\u0120tickling": 9825, "\u0120explod": 9826, "\u0120escap": 9827, "\u0120Settle": 9828, "\u0120underwater": 9829, "\u0120globe": 9830, "\u0120crouched": 9831, "\u0120Roar": 9832, "\u0120Coby": 9833, "\u0120Ba": 9834, "udge": 9835, "everse": 9836, "anne": 9837, "!'.": 9838, "\u0120prog": 9839, "\u0120blooms": 9840, "\u0120appearance": 9841, "\u0120''": 9842, "urricane": 9843, "stop": 9844, "seph": 9845, "ifer": 9846, "fived": 9847, "\u0120strokes": 9848, "\u0120leaking": 9849, "\u0120hatched": 9850, "\u0120guardian": 9851, "\u0120Socky": 9852, "ealing": 9853, "arning": 9854, "\u0120zookeepers": 9855, "\u0120tant": 9856, "\u0120routine": 9857, "\u0120persistence": 9858, "\u0120doves": 9859, "Snap": 9860, "Sleep": 9861, "Chicky": 9862, "\u0120taps": 9863, "\u0120squashes": 9864, "\u0120quilt": 9865, "\u0120painful": 9866, "\u0120lighting": 9867, "\u0120blame": 9868, "\u0120admit": 9869, "\u0120Lu": 9870, "net": 9871, "Toys": 9872, "Ahh": 9873, "\u0120tempting": 9874, "\u0120shattered": 9875, "\u0120ripp": 9876, "\u0120mold": 9877, "\u0120deeply": 9878, "\u0120Puff": 9879, "ggles": 9880, "Three": 9881, "Ralph": 9882, "Matt": 9883, "Jan": 9884, "\u0120throne": 9885, "\u0120squirted": 9886, "\u0120security": 9887, "\u0120peeks": 9888, "\u0120electricity": 9889, "\u0120centre": 9890, "\u0120burgers": 9891, "\u0120Spin": 9892, "emon": 9893, "con": 9894, "\u0120realizing": 9895, "\u0120cooks": 9896, "\u0120allowing": 9897, "\u0120Liam": 9898, "ushes": 9899, "orth": 9900, "oss": 9901, "dest": 9902, "cker": 9903, "Jessica": 9904, "\u0120lar": 9905, "\u0120exchange": 9906, "\u0120chopping": 9907, "Share": 9908, "Sophia": 9909, "\u0120sweetly": 9910, "\u0120Race": 9911, "\u0120Quickly": 9912, "\u0120Alf": 9913, "vering": 9914, "\u0120sweeter": 9915, "\u0120rinsed": 9916, "\u0120glittered": 9917, "isapp": 9918, "Zero": 9919, "Sw": 9920, "\u0120melts": 9921, "\u0120melody": 9922, "\u0120goggles": 9923, "\u0120furious": 9924, "\u0120energetic": 9925, "\u0120defeated": 9926, "\u0120builders": 9927, "\u0120Inch": 9928, "asy": 9929, "\u0120waded": 9930, "\u0120tantrum": 9931, "\u0120sniffled": 9932, "\u0120chooses": 9933, "\u0120Otherwise": 9934, "\u0120Cats": 9935, "\u0120Comet": 9936, "\u0120container": 9937, "\u0120competing": 9938, "\u0120Giant": 9939, "eremy": 9940, "bang": 9941, "\u0120Sharp": 9942, "\u0120Mila": 9943, "arted": 9944, "\u0120undone": 9945, "\u0120seriously": 9946, "\u0120protection": 9947, "\u0120larger": 9948, "\u0120lull": 9949, "\u0120hudd": 9950, "\u0120attempts": 9951, "\u0120Rara": 9952, "\u0120Park": 9953, "\u0120Duke": 9954, "Shoo": 9955, "Lizzie": 9956, "\u0120tossing": 9957, "\u0120helicopters": 9958, "\u0120cooed": 9959, "\u0120cluck": 9960, "\u0120buckles": 9961, "\u0120Whale": 9962, "\u0120Pinchy": 9963, "\u0120Cher": 9964, "Sweet": 9965, "\u0120Tears": 9966, "\u0120Smo": 9967, "\u0120Over": 9968, "solutely": 9969, "Still": 9970, "Squeaky": 9971, "\u0120hummed": 9972, "\u0120dedic": 9973, "\u0120courageous": 9974, "\u0120Ma": 9975, "\u0120Hor": 9976, "\u0120Din": 9977, "Maddy": 9978, "Everything": 9979, "Curious": 9980, "\u0120racers": 9981, "\u0120patients": 9982, "\u0120muster": 9983, "\u0120god": 9984, "\u0120deserves": 9985, "\u0120aloud": 9986, "\u0120Things": 9987, "aps": 9988, "Use": 9989, "\u0120Squee": 9990, "\u0120Dragon": 9991, "\u0120tours": 9992, "\u0120meets": 9993, "\u0120marvel": 9994, "\u0120Rusty": 9995, "\u0120Liza": 9996, "\u0120Jet": 9997, "Froggy": 9998, "\u0120wrapper": 9999}