{" ": 0, "!": 1, "\"": 2, "#": 3, "$": 4, "%": 5, "&": 6, "'": 7, "(": 8, ")": 9, "*": 10, "+": 11, ",": 12, "-": 13, ".": 14, "/": 15, "0": 16, "1": 17, "2": 18, "3": 19, "4": 20, "5": 21, "6": 22, "7": 23, "8": 24, "9": 25, ":": 26, ";": 27, "<": 28, "=": 29, ">": 30, "?": 31, "@": 32, "A": 33, "B": 34, "C": 35, "D": 36, "E": 37, "F": 38, "G": 39, "H": 40, "I": 41, "J": 42, "K": 43, "L": 44, "M": 45, "N": 46, "O": 47, "P": 48, "Q": 49, "R": 50, "S": 51, "T": 52, "U": 53, "V": 54, "W": 55, "X": 56, "Y": 57, "Z": 58, "[": 59, "\\": 60, "]": 61, "^": 62, "_": 63, "`": 64, "a": 65, "b": 66, "c": 67, "d": 68, "e": 69, "f": 70, "g": 71, "h": 72, "i": 73, "j": 74, "k": 75, "l": 76, "m": 77, "n": 78, "o": 79, "p": 80, "q": 81, "r": 82, "s": 83, "t": 84, "u": 85, "v": 86, "w": 87, "x": 88, "y": 89, "z": 90, "{": 91, "|": 92, "}": 93, "~": 94, "\u00a1": 95, "\u00a2": 96, "\u00a3": 97, "\u00a4": 98, "\u00a5": 99, "\u00a6": 100, "\u00a7": 101, "\u00a8": 102, "\u00a9": 103, "\u00aa": 104, "\u00ab": 105, "\u00ac": 106, "\u00ae": 107, "\u00af": 108, "\u00b0": 109, "\u00b1": 110, "\u00b2": 111, "\u00b3": 112, "\u00b4": 113, "\u00b5": 114, "\u00b6": 115, "\u00b7": 116, "\u00b8": 117, "\u00b9": 118, "\u00ba": 119, "\u00bb": 120, "\u00bc": 121, "\u00bd": 122, "\u00be": 123, "\u00bf": 124, "\u00c0": 125, "\u00c1": 126, "\u00c2": 127, "\u00c3": 128, "\u00c4": 129, "\u00c5": 130, "\u00c6": 131, "\u00c7": 132, "\u00c8": 133, "\u00c9": 134, "\u00ca": 135, "\u00cb": 136, "\u00cc": 137, "\u00cd": 138, "\u00ce": 139, "\u00cf": 140, "\u00d0": 141, "\u00d1": 142, "\u00d2": 143, "\u00d3": 144, "\u00d4": 145, "\u00d5": 146, "\u00d6": 147, "\u00d7": 148, "\u00d8": 149, "\u00d9": 150, "\u00da": 151, "\u00db": 152, "\u00dc": 153, "\u00dd": 154, "\u00de": 155, "\u00df": 156, "\u00e0": 157, "\u00e1": 158, "\u00e2": 159, "\u00e3": 160, "\u00e4": 161, "\u00e5": 162, "\u00e6": 163, "\u00e7": 164, "\u00e8": 165, "\u00e9": 166, "\u00ea": 167, "\u00eb": 168, "\u00ec": 169, "\u00ed": 170, "\u00ee": 171, "\u00ef": 172, "\u00f0": 173, "\u00f1": 174, "\u00f2": 175, "\u00f3": 176, "\u00f4": 177, "\u00f5": 178, "\u00f6": 179, "\u00f7": 180, "\u00f8": 181, "\u00f9": 182, "\u00fa": 183, "\u00fb": 184, "\u00fc": 185, "\u00fd": 186, "\u00fe": 187, "\u00ff": 188, "\u0100": 189, "\u0101": 190, "\u0102": 191, "\u0103": 192, "\u0104": 193, "\u0105": 194, "\u0106": 195, "\u0107": 196, "\u0108": 197, "\u0109": 198, "\u010a": 199, "\u010b": 200, "\u010c": 201, "\u010d": 202, "\u010e": 203, "\u010f": 204, "\u0110": 205, "\u0111": 206, "\u0112": 207, "\u0113": 208, "\u0114": 209, "\u0115": 210, "\u0116": 211, "\u0117": 212, "\u0118": 213, "\u0119": 214, "\u011a": 215, "\u011b": 216, "\u011c": 217, "\u011d": 218, "\u011e": 219, "\u011f": 220, "\u0120": 221, "\u0121": 222, "\u0122": 223, "\u0123": 224, "\u0124": 225, "\u0125": 226, "\u0126": 227, "\u0127": 228, "\u0128": 229, "\u0129": 230, "\u012a": 231, "\u012b": 232, "\u012c": 233, "\u012d": 234, "\u012e": 235, "\u012f": 236, "\u0130": 237, "\u0131": 238, "\u0132": 239, "\u0133": 240, "\u0134": 241, "\u0135": 242, "\u0136": 243, "\u0137": 244, "\u0138": 245, "\u0139": 246, "\u013a": 247, "\u013b": 248, "\u013c": 249, "\u013d": 250, "\u013e": 251, "\u013f": 252, "\u0140": 253, "\u0141": 254, "\u0142": 255, "<|endoftext|>": 256, " t": 257, " a": 258, "he": 259, "in": 260, "re": 261, " the": 262, "on": 263, "er": 264, " s": 265, " w": 266, "at": 267, " o": 268, "en": 269, " c": 270, "it": 271, "is": 272, "an": 273, "or": 274, " b": 275, "es": 276, "ed": 277, " f": 278, "ing": 279, " p": 280, "ou": 281, " an": 282, "al": 283, " to": 284, "ar": 285, " m": 286, " in": 287, " of": 288, " h": 289, " d": 290, "\u00e2\u0121": 291, "as": 292, "ic": 293, " and": 294, " th": 295, "le": 296, "om": 297, "ion": 298, "ll": 299, "ent": 300, " n": 301, " l": 302, " re": 303, "st": 304, "ve": 305, " e": 306, "ly": 307, "ro": 308, " be": 309, " g": 310, "id": 311, "ut": 312, "ac": 313, "ot": 314, " T": 315, " I": 316, " that": 317, " on": 318, "ay": 319, " S": 320, " is": 321, "et": 322, "im": 323, "am": 324, "ad": 325, "ow": 326, "se": 327, "ig": 328, " for": 329, "\u00e2\u0121\u013a": 330, " A": 331, "ver": 332, "ur": 333, "ct": 334, "ld": 335, " C": 336, " u": 337, " st": 338, " y": 339, " it": 340, " he": 341, "ir": 342, "ation": 343, "ith": 344, " wh": 345, " M": 346, "ce": 347, "ter": 348, "ol": 349, " we": 350, "il": 351, " with": 352, " as": 353, " B": 354, "ch": 355, "ill": 356, "nd": 357, " P": 358, " was": 359, "ers": 360, " you": 361, "ke": 362, " \u00e2\u0121": 363, " con": 364, " de": 365, " r": 366, "her": 367, "if": 368, "ate": 369, "ag": 370, " at": 371, " ha": 372, " W": 373, " se": 374, " H": 375, "ore": 376, " pro": 377, "ul": 378, "pp": 379, "ment": 380, "ri": 381, " are": 382, " D": 383, " 1": 384, "us": 385, "est": 386, "ist": 387, " com": 388, "and": 389, " R": 390, "op": 391, "ain": 392, " The": 393, " 2": 394, "igh": 395, "rom": 396, " (": 397, "ort": 398, "od": 399, " ne": 400, " F": 401, "um": 402, "un": 403, " ex": 404, "res": 405, "ab": 406, "\u00e2\u0121\u013e": 407, " not": 408, " N": 409, " v": 410, "ess": 411, " have": 412, "ity": 413, "em": 414, "ould": 415, " or": 416, "th": 417, " by": 418, "os": 419, "ant": 420, " G": 421, "ive": 422, " from": 423, " al": 424, "el": 425, "'s": 426, "oc": 427, "art": 428, " su": 429, " L": 430, " sh": 431, " this": 432, "nt": 433, "qu": 434, "ight": 435, "pe": 436, "ust": 437, " le": 438, "ies": 439, " E": 440, "end": 441, " ch": 442, " sa": 443, "out": 444, " ab": 445, "The": 446, "all": 447, "ie": 448, "ack": 449, "red": 450, "00": 451, " \u00e2\u0121\u013d": 452, " has": 453, "ally": 454, " J": 455, " pl": 456, " go": 457, "ard": 458, "iv": 459, " his": 460, "ome": 461, "ap": 462, "ost": 463, "gh": 464, "ear": 465, " O": 466, " tr": 467, "our": 468, "ast": 469, " j": 470, "ak": 471, "ud": 472, " do": 473, " they": 474, " but": 475, " wor": 476, "rou": 477, " can": 478, "ge": 479, " will": 480, " said": 481, " whe": 482, " U": 483, " k": 484, "ich": 485, " all": 486, "ok": 487, " \"": 488, "ide": 489, " who": 490, " int": 491, "ame": 492, "ans": 493, "ther": 494, "ial": 495, " out": 496, "ff": 497, " their": 498, "ong": 499, "ect": 500, "pl": 501, "ice": 502, "ure": 503, "pt": 504, "one": 505, " more": 506, "age": 507, "ions": 508, "act": 509, "ike": 510, " me": 511, " up": 512, "ous": 513, "ine": 514, " ad": 515, " about": 516, "ated": 517, "ra": 518, "ber": 519, " one": 520, " were": 521, " so": 522, " us": 523, "ime": 524, "og": 525, " K": 526, "ep": 527, "ia": 528, " had": 529, "are": 530, "ub": 531, "cc": 532, " would": 533, " cl": 534, " 20": 535, " im": 536, " which": 537, "ind": 538, "ue": 539, "ake": 540, " cont": 541, "iz": 542, "very": 543, " ag": 544, " te": 545, " off": 546, " comp": 547, " un": 548, " been": 549, " St": 550, "so": 551, " en": 552, "per": 553, "ign": 554, "au": 555, " Th": 556, "ary": 557, "ace": 558, " year": 559, "ip": 560, "ew": 561, " like": 562, "ere": 563, "ven": 564, "ook": 565, " inc": 566, "ays": 567, " man": 568, " pe": 569, "ry": 570, "ose": 571, " res": 572, "able": 573, "ite": 574, " per": 575, "ass": 576, "ord": 577, " sp": 578, "ire": 579, " In": 580, " other": 581, "mer": 582, " some": 583, "ile": 584, "ib": 585, "ence": 586, "ople": 587, " 201": 588, "ks": 589, "ations": 590, " over": 591, "ical": 592, " there": 593, "ress": 594, " dis": 595, "ult": 596, "int": 597, " new": 598, "own": 599, " also": 600, " than": 601, " ar": 602, " bec": 603, "ru": 604, " them": 605, "ance": 606, "ount": 607, "ough": 608, " app": 609, "port": 610, "ail": 611, " part": 612, " your": 613, " when": 614, "ree": 615, " what": 616, "orm": 617, "ond": 618, " people": 619, "fter": 620, " sc": 621, " Ch": 622, "av": 623, "ase": 624, " qu": 625, " any": 626, " just": 627, " its": 628, " Y": 629, "ach": 630, " time": 631, " It": 632, " kn": 633, " her": 634, " 3": 635, "ens": 636, "lic": 637, " rec": 638, "reat": 639, " my": 640, " get": 641, " if": 642, " V": 643, "ian": 644, ".\u00e2\u0121\u013e": 645, " into": 646, "ound": 647, " work": 648, " tw": 649, "irst": 650, "vel": 651, "ction": 652, " no": 653, "du": 654, "ings": 655, "ory": 656, "ick": 657, "ors": 658, " our": 659, "ition": 660, "ident": 661, "ob": 662, " -": 663, " pre": 664, "ove": 665, " play": 666, "ang": 667, "ink": 668, "ause": 669, "wn": 670, "amp": 671, "te": 672, "ade": 673, "hing": 674, "ates": 675, "ark": 676, " ro": 677, " pol": 678, " she": 679, "vers": 680, " co": 681, ",\u00e2\u0121\u013e": 682, " after": 683, " first": 684, " could": 685, " how": 686, " He": 687, "ne": 688, " 19": 689, "ious": 690, "nder": 691, "ild": 692, " acc": 693, " him": 694, "aw": 695, "'t": 696, "ons": 697, " po": 698, " only": 699, " fe": 700, " att": 701, "ict": 702, "hed": 703, " pr": 704, " two": 705, "rit": 706, "ov": 707, "ish": 708, " comm": 709, "\u00e2\u0121\u013d": 710, "form": 711, " spe": 712, " act": 713, "we": 714, "erv": 715, " bl": 716, "ft": 717, " bet": 718, " dec": 719, ".\"": 720, "ning": 721, " back": 722, " most": 723, "ces": 724, "ood": 725, "ck": 726, " \u00e2\u0121\u0134": 727, " am": 728, "oy": 729, " did": 730, "rough": 731, "iff": 732, "ater": 733, "round": 734, " again": 735, " 4": 736, "ual": 737, "day": 738, "ise": 739, " under": 740, " des": 741, " want": 742, "ull": 743, "sel": 744, " cons": 745, " \u00e2\u0121\u0135": 746, "..": 747, " because": 748, " now": 749, "lud": 750, "ents": 751, " years": 752, "man": 753, "tern": 754, "ublic": 755, "ec": 756, " need": 757, " even": 758, " $": 759, "iss": 760, " inv": 761, " know": 762, " We": 763, " see": 764, "ments": 765, "ced": 766, " add": 767, ",\"": 768, "ting": 769, "old": 770, " ind": 771, " sec": 772, "fore": 773, "uch": 774, " every": 775, "urn": 776, " 5": 777, " supp": 778, " make": 779, "pect": 780, " Un": 781, " em": 782, " these": 783, "ock": 784, "oll": 785, " where": 786, "ject": 787, "In": 788, "ational": 789, "vern": 790, "xt": 791, " bu": 792, " look": 793, "Th": 794, " And": 795, "oss": 796, " don": 797, " ev": 798, "ump": 799, "ating": 800, " way": 801, " being": 802, " rem": 803, " right": 804, "ily": 805, " may": 806, "ng": 807, "row": 808, "lect": 809, "iew": 810, " then": 811, " many": 812, " [": 813, " diff": 814, " def": 815, "ason": 816, " rel": 817, " call": 818, " But": 819, " Tr": 820, "ont": 821, "ied": 822, "les": 823, "ased": 824, " includ": 825, " think": 826, "aking": 827, " reg": 828, ").": 829, "meric": 830, " imp": 831, " through": 832, "ath": 833, "ited": 834, "rib": 835, " sy": 836, " should": 837, " pres": 838, " say": 839, "ell": 840, " fl": 841, "uring": 842, " last": 843, " those": 844, "ower": 845, " very": 846, "ty": 847, "other": 848, " much": 849, "000": 4881, "ities": 851, "ific": 852, " state": 853, " This": 854, "ative": 855, " show": 856, "tle": 857, "hen": 858, " br": 859, "ss": 860, "arg": 861, " well": 862, "oth": 863, " ph": 864, " Wh": 865, " count": 866, "als": 867, "und": 868, " does": 869, " down": 870, " own": 871, "arly": 872, " end": 873, " ass": 874, " bel": 875, " use": 876, "ics": 877, "ange": 878, "--": 879, "ts": 880, " long": 881, " Americ": 882, "ters": 883, "ince": 884, " before": 885, "omet": 886, "gr": 887, " mon": 888, "ward": 889, " govern": 890, " start": 891, " report": 892, "ible": 893, " ke": 894, "up": 895, "ues": 896, " New": 897, " fin": 898, " team": 899, "ble": 900, " made": 901, "ife": 902, "olog": 903, "ener": 904, "),": 905, " such": 906, "ren": 907, "com": 908, " 200": 909, "oun": 910, "erson": 911, "ek": 912, "ix": 913, " sm": 914, "\u00e2\u0121\u0135": 915, "lp": 916, "ility": 917, " going": 918, "ism": 919, "ful": 920, " world": 921, "ually": 922, " stud": 923, "ists": 924, " good": 925, " ac": 926, "tain": 927, "It": 928, " sub": 929, " eff": 930, "ini": 931, " sur": 932, " against": 933, "its": 934, " game": 935, " set": 936, "ork": 937, " 6": 938, " gu": 939, " point": 940, " ent": 941, "ys": 942, "gan": 943, "ars": 944, "li": 945, "stem": 946, " prov": 947, " still": 948, "roup": 949, " while": 950, "illion": 951, " help": 952, " lead": 953, "ween": 954, "ef": 955, "ax": 956, "ank": 957, "alk": 958, "imes": 959, " says": 960, " ob": 961, "ms": 962, "cy": 963, " produ": 964, " gr": 965, " inter": 966, " inst": 967, " str": 968, "cess": 969, " sim": 970, "self": 971, " conf": 972, "io": 973, " col": 974, " take": 975, " min": 976, "ures": 977, "arch": 978, " same": 979, " though": 980, " between": 981, "ollow": 982, " offic": 983, "ever": 984, " cr": 985, " differe": 986, "ool": 987, "uss": 988, "ution": 989, "land": 990, " disc": 991, "air": 992, " op": 993, "ah": 994, " ed": 995, " high": 996, "read": 997, " num": 998, " law": 999, " sign": 1000, "way": 1001, " government": 1002, "gg": 1003, " Re": 1004, "led": 1005, "ner": 1006, "hip": 1007, "atch": 1008, "hes": 1009, "ames": 1010, "any": 1011, " ter": 1012, " somet": 1013, "cent": 1014, "velop": 1015, "ted": 1016, "We": 1017, " ref": 1018, " trans": 1019, "ten": 1020, " ins": 1021, " run": 1022, " ser": 1023, " found": 1024, " three": 1025, "ives": 1026, "ave": 1027, " mem": 1028, " around": 1029, " here": 1030, "ather": 1031, " med": 1032, " real": 1033, " used": 1034, "ouse": 1035, " 10": 1036, "ved": 1037, " exp": 1038, "az": 1039, " Ar": 1040, "cept": 1041, "oot": 1042, " system": 1043, " You": 1044, "ci": 1045, " really": 1046, " mod": 1047, "ving": 1048, "con": 1049, "cer": 1050, " group": 1051, " support": 1052, " 7": 1053, " cour": 1054, "ets": 1055, "ale": 1056, "nin": 1057, "ins": 1058, " ret": 1059, " hand": 1060, " public": 1061, " spec": 1062, "pr": 1063, " Le": 1064, "ying": 1065, " great": 1066, " car": 1067, "ense": 1068, " ext": 1069, ".[": 1070, "ton": 1071, "irect": 1072, " cur": 1073, " fam": 1074, " Com": 1075, "alth": 1076, " happ": 1077, " fact": 1078, "ph": 1079, " exper": 1080, " They": 1081, " Trump": 1082, " fr": 1083, " wom": 1084, " Is": 1085, " cap": 1086, " both": 1087, " day": 1088, " find": 1089, " Al": 1090, "ular": 1091, " read": 1092, "ines": 1093, "oh": 1094, "ices": 1095, " det": 1096, " lit": 1097, " sl": 1098, " rep": 1099, "uth": 1100, "ered": 1101, " during": 1102, " Sh": 1103, " As": 1104, " 0": 1105, " serv": 1106, " month": 1107, "the": 1108, "ision": 1109, " cre": 1110, " develop": 1111, " big": 1112, "min": 1113, " 8": 1114, " person": 1115, "akes": 1116, " follow": 1117, " Cl": 1118, " iss": 1119, "ex": 1120, " told": 1121, " since": 1122, "ared": 1123, "med": 1124, "ically": 1125, " week": 1126, "ages": 1127, "ivers": 1128, " war": 1129, " few": 1130, "orth": 1131, "ording": 1132, " cent": 1133, " leg": 1134, "aj": 1135, "get": 1136, " polit": 1137, "ves": 1138, "ash": 1139, " expl": 1140, " lot": 1141, "ric": 1142, " Se": 1143, " belie": 1144, "ata": 1145, " gener": 1146, " too": 1147, " 9": 1148, "der": 1149, "rent": 1150, " opp": 1151, "Wh": 1152, " requ": 1153, " contin": 1154, " prot": 1155, "iet": 1156, "bers": 1157, "anc": 1158, " fil": 1159, "ention": 1160, "ness": 1161, " cle": 1162, " resp": 1163, " put": 1164, "ized": 1165, " If": 1166, " another": 1167, "20": 1168, "chool": 1169, " inf": 1170, " something": 1171, " De": 1172, " different": 1173, " cor": 1174, " loc": 1175, "ute": 1176, " invest": 1177, " soc": 1178, " power": 1179, " che": 1180, "uc": 1181, " '": 1182, " pass": 1183, " commun": 1184, " life": 1185, " Fr": 1186, " plan": 1187, "ody": 1188, " rele": 1189, " head": 1190, "ience": 1191, " things": 1192, "ned": 1193, " far": 1194, " art": 1195, " poss": 1196, " met": 1197, "thing": 1198, "ox": 1199, "erest": 1200, " camp": 1201, "ross": 1202, "arge": 1203, " vot": 1204, "This": 1205, "view": 1206, "ier": 1207, " child": 1208, "ants": 1209, " ask": 1210, " .": 1211, " might": 1212, " each": 1213, "ize": 1214, "iness": 1215, " dep": 1216, " never": 1217, " next": 1218, "ield": 1219, " second": 1220, " mark": 1221, "tt": 1222, " quest": 1223, " bus": 1224, " adv": 1225, "ik": 1226, " An": 1227, "...": 3252, " dem": 1229, " For": 1230, " come": 1231, " got": 1232, " \u00e2\u0121\u0139": 1233, " open": 1234, " best": 1235, "ient": 1236, "ital": 1237, " allow": 1238, " That": 1239, "rat": 1240, " seem": 1241, " post": 1242, "ple": 1243, "nce": 1244, " feel": 1245, " Pro": 1246, " US": 1247, "ug": 1248, " pri": 1249, "gram": 1250, " percent": 1251, "cl": 1252, " home": 1253, " dist": 1254, " direct": 1255, "ired": 1256, " incre": 1257, " contro": 1258, " Rep": 1259, "son": 1260, "orn": 1261, "less": 1262, "osed": 1263, " result": 1264, " hard": 1265, " care": 1266, "ately": 1267, " million": 1268, "chn": 1269, " comple": 1270, " place": 1271, " without": 1272, " inform": 1273, " including": 1274, " import": 1275, " av": 1276, "conom": 1277, " hum": 1278, "ama": 1279, " ide": 1280, " proble": 1281, " build": 1282, " top": 1283, " number": 1284, " country": 1285, "gy": 1286, "oney": 1287, "aim": 1288, " Bl": 1289, "ret": 1290, "ral": 1291, "ably": 1292, "uro": 1293, " stand": 1294, " gl": 1295, " el": 1296, "riend": 1297, " four": 1298, "ished": 1299, "ways": 1300, " partic": 1301, " better": 1302, " tri": 1303, "But": 1304, " recent": 1305, " interest": 1306, " mov": 1307, " let": 1308, "co": 1309, "ration": 1310, " season": 1311, " less": 1312, "ead": 1313, " turn": 1314, " little": 1315, " beh": 1316, " mil": 1317, " appro": 1318, "ract": 1319, "line": 1320, " bro": 1321, "ling": 1322, "ised": 1323, " called": 1324, "app": 1325, "10": 1326, " case": 1327, " dr": 1328, " Ind": 1329, " rest": 1330, " left": 1331, " pop": 1332, " ann": 1333, " Z": 1334, "ency": 1335, "ode": 1336, " move": 1337, " attack": 1338, "ina": 1339, " There": 1340, " keep": 1341, " full": 1342, "ering": 1343, " didn": 1344, "be": 1345, " fun": 1346, " main": 1347, "ajor": 1348, "__": 1349, " effect": 1350, "inal": 1351, "leg": 1352, " prev": 1353, " program": 1354, " using": 1355, " test": 1356, "rem": 1357, " pay": 1358, "ature": 1359, " ear": 1360, "to": 1361, " val": 1362, " police": 1363, " writ": 1364, " form": 1365, " econom": 1366, " data": 1367, " news": 1368, " pos": 1369, " win": 1370, " American": 1371, " level": 1372, " sit": 1373, " char": 1374, "ains": 1375, "iving": 1376, "uck": 1377, " small": 1378, "ined": 1379, "ready": 1380, "He": 1381, " school": 1382, " list": 1383, "ology": 1384, "rap": 1385, "ided": 1386, "mit": 1387, "ploy": 1388, "'re": 1389, "ger": 1390, " eas": 1391, " process": 1392, "ird": 1393, " change": 1394, " women": 1395, " current": 1396, " rece": 1397, " prom": 1398, " hist": 1399, " dri": 1400, " =": 1401, "reen": 1402, " president": 1403, " company": 1404, " So": 1405, "used": 1406, " mat": 1407, "ruct": 1408, " already": 1409, "ohn": 1410, " United": 1411, "wit": 1412, " ty": 1413, " why": 1414, " bre": 1415, " unt": 1416, " money": 1417, " sol": 1418, " always": 1419, " later": 1420, " expect": 1421, " techn": 1422, " business": 1423, " How": 1424, " official": 1425, "ron": 1426, " Q": 1427, " Ob": 1428, "stand": 1429, "iversity": 1430, " bo": 1431, " book": 1432, " Ph": 1433, "aign": 1434, " thing": 1435, " class": 1436, " project": 1437, "ases": 1438, " claim": 1439, " job": 1440, " information": 1441, " organ": 1442, "aff": 1443, " She": 1444, "ards": 1445, " talk": 1446, " Be": 1447, " design": 1448, " story": 1449, " chang": 1450, " major": 1451, " able": 1452, " prof": 1453, " --": 1454, "lection": 1455, "iven": 1456, "ertain": 1457, " rese": 1458, " health": 1459, " vis": 1460, " past": 1461, "urs": 1462, " free": 1463, "outh": 1464, "here": 1465, " Ad": 1466, " oper": 1467, "ption": 1468, " away": 1469, "ior": 1470, " Can": 1471, " must": 1472, " city": 1473, "ample": 1474, "ians": 1475, "rist": 1476, "sc": 1477, "ural": 1478, " happen": 1479, "uthor": 1480, " 18": 1481, " important": 1482, "acy": 1483, "urity": 1484, " kill": 1485, " sk": 1486, " est": 1487, "ured": 1488, " old": 1489, " pat": 1490, "ury": 1491, "ending": 1492, " doesn": 1493, "ission": 1494, " least": 1495, "---": 1575, " grow": 1497, " edit": 1498, " var": 1499, "ained": 1500, "St": 1501, " cost": 1502, " Go": 1503, "ney": 1504, "ider": 1505, "ides": 1506, "els": 1507, " days": 1508, " tell": 1509, " hop": 1510, " stre": 1511, " campaign": 1512, "side": 1513, " 12": 1514, " men": 1515, " came": 1516, " aff": 1517, " const": 1518, "resident": 1519, " enough": 1520, " view": 1521, "ccess": 1522, " kind": 1523, " Mar": 1524, "oad": 1525, " Sp": 1526, "ern": 1527, " making": 1528, " large": 1529, " record": 1530, "50": 1531, "ush": 1532, " friend": 1533, " mar": 1534, " family": 1535, "\u00e2\u0121\u00a6": 1536, "ley": 1537, " elect": 1538, "ded": 1539, "eral": 1540, " polic": 1541, " tax": 1542, "ising": 1543, "ror": 1544, "by": 1545, "pped": 1546, "ality": 1547, "ator": 1548, "ified": 1549, "As": 1550, "ived": 1551, "arent": 1552, " until": 1553, "ee": 1554, "ional": 1555, " political": 1556, " vide": 1557, " deal": 1558, "ries": 1559, "alf": 1560, "augh": 1561, " ve": 1562, " working": 1563, "ued": 1564, " Republic": 1565, " took": 1566, " deb": 1567, "bs": 1568, "If": 1569, "ister": 1570, " line": 1571, " John": 1572, "aining": 1573, " air": 1574, " es": 1576, " intern": 1577, " fore": 1578, "iol": 1579, "ane": 1580, "ocrat": 1581, " become": 1582, " actually": 1583, "aps": 1584, "ony": 1585, " mean": 1586, "work": 1587, " fund": 1588, " Sc": 1589, "ware": 1590, "19": 1591, "ember": 1592, " Pl": 1593, " former": 1594, " often": 1595, " Euro": 1596, "ott": 1597, " won": 1598, " give": 1599, "ann": 1600, "oint": 1601, " according": 1602, " ever": 1603, "most": 1604, "eng": 1605, "year": 1606, "wh": 1607, "aring": 1608, " games": 1609, "ison": 1610, " human": 1611, " bas": 1612, "ization": 1613, " return": 1614, " times": 1615, " order": 1616, " Russ": 1617, " word": 1618, " bit": 1619, " Dem": 1620, " name": 1621, "11": 1622, " sever": 1623, " All": 1624, " dev": 1625, "icle": 1626, "uture": 1627, "for": 1628, "ither": 1629, " par": 1630, " 199": 1631, " Mc": 1632, " wr": 1633, " Con": 1634, "raft": 1635, " sing": 1636, " perform": 1637, " Sy": 1638, " market": 1639, " fac": 1640, " charac": 1641, "There": 1642, "iqu": 1643, " Or": 1644, "idd": 1645, " At": 1646, " May": 1647, " ra": 1648, " doing": 1649, " appear": 1650, "ER": 1651, "ched": 1652, " players": 1653, " la": 1654, " night": 1655, "ene": 1656, " lear": 1657, "aken": 1658, "rop": 1659, "ats": 1660, "mber": 1661, " today": 1662, " early": 1663, " 15": 1664, " seen": 1665, "//": 1666, " having": 1667, " ,": 1668, " pot": 1669, " children": 1670, " event": 1671, " media": 1672, " social": 1673, " crit": 1674, " President": 1675, " whether": 1676, " several": 1677, " control": 1678, "idence": 1679, " meet": 1680, "sh": 1681, " milit": 1682, " press": 1683, " went": 1684, "artment": 1685, " five": 1686, " young": 1687, "ories": 1688, " sure": 1689, " prop": 1690, "iously": 1691, " equ": 1692, " beg": 1693, " question": 1694, " occ": 1695, " likely": 1696, "vert": 1697, "une": 1698, " members": 1699, "br": 1700, "ands": 1701, " certain": 1702, " eng": 1703, " water": 1704, " York": 1705, " example": 1706, "ots": 1707, " Col": 1708, " arg": 1709, " side": 1710, " ant": 1711, " done": 1712, " vers": 1713, "enn": 1714, " invol": 1715, " Mr": 1716, " States": 1717, " Europe": 1718, "ended": 1719, "let": 1720, " along": 1721, " short": 1722, " success": 1723, "ential": 1724, " months": 1725, "ball": 1726, " hour": 1727, " 11": 1728, "ium": 1729, " sex": 1730, "iver": 1731, "ially": 1732, "And": 1733, "lf": 1734, "empt": 1735, " within": 1736, " desc": 1737, "imate": 1738, " course": 1739, " fight": 1740, "ster": 1741, "urch": 1742, "ubl": 1743, " among": 1744, " activ": 1745, "uff": 1746, "\u00e2\u0121\u0134": 1747, "ague": 1748, " once": 1749, " future": 1750, " investig": 1751, "ulation": 1752, "rew": 1753, " possible": 1754, " Obama": 1755, " cho": 1756, "nect": 1757, " understand": 1758, "iting": 1759, " concer": 1760, " On": 1761, " ]": 1762, "ones": 1763, "ortun": 1764, " problem": 1765, " Br": 1766, " priv": 1767, " means": 1768, " viol": 1769, " Car": 1770, " author": 1771, "itive": 1772, " No": 1773, "ggest": 1774, " avail": 1775, "oci": 1776, "ourn": 1777, "my": 1778, " known": 1779, " product": 1780, " non": 1781, "ivid": 1782, " thought": 1783, " yet": 1784, "gress": 1785, " across": 1786, " protect": 1787, " local": 1788, "ler": 1789, " hold": 1790, " Te": 1791, " fail": 1792, "inc": 1793, " When": 1794, " State": 1795, " community": 1796, " reason": 1797, " orig": 1798, "ede": 1799, " suggest": 1800, " &": 1801, "12": 1802, " makes": 1803, "verage": 1804, "ald": 1805, "not": 1806, "por": 1807, "back": 1808, " 2016": 1809, " i": 1810, "book": 1811, " asked": 1812, "ederal": 1813, "orld": 1814, " reported": 1815, "You": 1816, "aged": 1817, "ensive": 1818, " given": 1819, " strong": 1820, " prob": 1821, " mus": 1822, " others": 1823, " believe": 1824, " video": 1825, "iber": 1826, " ben": 1827, " getting": 1828, " House": 1829, "ances": 1830, " announ": 1831, " light": 1832, "ging": 1833, "ored": 1834, "ober": 1835, " University": 1836, " 30": 1837, " Co": 1838, "itions": 1839, " ident": 1840, "iron": 1841, " sent": 1842, " cut": 1843, " lim": 1844, " ca": 1845, " Christ": 1846, "iety": 1847, "30": 1848, "urther": 1849, " sour": 1850, " creat": 1851, " cond": 1852, " X": 1853, "rest": 1854, "ams": 1855, "'ve": 1856, " net": 1857, "ashing": 1858, " bat": 1859, "ament": 1860, " national": 1861, ".,": 1862, " close": 1863, "arm": 1864, " started": 1865, " saf": 1866, " death": 1867, "aster": 1868, " available": 1869, " hig": 1870, "For": 1871, " based": 1872, " issue": 1873, "of": 1874, " indust": 1875, " Democrat": 1876, " low": 1877, " following": 1878, "resent": 1879, " account": 1880, " land": 1881, "use": 1882, " Cent": 1883, " employ": 1884, " love": 1885, " 2015": 1886, " #": 1887, " history": 1888, " ago": 1889, "orts": 1890, "selves": 1891, " mom": 1892, "ana": 1893, " party": 1894, " Am": 1895, "ability": 1896, "eb": 1897, " series": 1898, " comes": 1899, " trying": 1900, "uly": 1901, "utes": 1902, " almost": 1903, "gether": 1904, "ument": 1905, " together": 1906, "ination": 1907, "AT": 1908, " America": 1909, " idea": 1910, "pro": 1911, "ief": 1912, " access": 1913, " foc": 1914, "hers": 1915, "ilar": 1916, " Fl": 1917, "reed": 1918, "ails": 1919, " commit": 1920, "itional": 1921, " isn": 1922, " Sen": 1923, " clear": 1924, " 16": 1925, " One": 1926, " trad": 1927, " Min": 1928, "though": 1929, "ring": 1930, " What": 1931, " pract": 1932, " added": 1933, " impro": 1934, " experience": 1935, "erence": 1936, " film": 1937, "15": 1938, " half": 1939, "ustom": 1940, "ged": 1941, " hit": 1942, " Bro": 1943, "witter": 1944, "rict": 1945, " anal": 1946, "inton": 1947, "ograp": 1948, "unch": 1949, " 2014": 1950, " rul": 1951, "ividual": 1952, " looking": 1953, " six": 1954, " live": 1955, " anything": 1956, " area": 1957, " complete": 1958, "erman": 1959, "minist": 1960, " miss": 1961, "rael": 1962, " Comm": 1963, " Ex": 1964, " fav": 1965, " ris": 1966, "nes": 1967, " present": 1968, "ai": 1969, "ote": 1970, "rug": 1971, " saying": 1972, "raw": 1973, "aid": 1974, " Canad": 1975, " vict": 1976, "IN": 1977, "cially": 1978, " bad": 1979, "ows": 1980, "uge": 1981, " taken": 1982, "oto": 1983, " entire": 1984, " Pr": 1985, "ators": 1986, " bill": 1987, " compet": 1988, "af": 1989, " mor": 1990, " Eng": 1991, " behind": 1992, "ien": 1993, " aut": 1994, " To": 1995, "'m": 1996, " court": 1997, "play": 1998, " try": 1999, "ev": 2000, " military": 2001, " z": 2002, " near": 2003, "osp": 2004, " mult": 2005, "What": 2006, " face": 2007, "wards": 2008, " er": 2009, " 14": 2010, " security": 2011, " Pol": 2012, "sy": 2013, " proper": 2014, " discuss": 2015, " threat": 2016, " tot": 2017, "ert": 2018, " study": 2019, " single": 2020, " rather": 2021, " individual": 2022, " Af": 2023, " Brit": 2024, " War": 2025, " \u00c2": 2026, "ttp": 2027, " quick": 2028, " Don": 2029, " mind": 2030, " Sec": 2031, "lement": 2032, "ales": 2033, "atic": 2034, "An": 2035, " North": 2036, "amed": 2037, "aper": 2038, " publ": 2039, " policy": 2040, " mess": 2041, "ris": 2042, "par": 2043, " black": 2044, " wanted": 2045, " fall": 2046, "irc": 2047, "**": 2048, "off": 2049, " food": 2050, " sum": 2051, " someone": 2052, "lling": 2053, "ids": 2054, "On": 2055, " |": 2056, " /": 2057, " cult": 2058, " special": 2059, " comb": 2060, " key": 2061, " player": 2062, " redu": 2063, " Gr": 2064, " bring": 2065, " 13": 2066, " compan": 2067, " 17": 2068, "ply": 2069, " Dep": 2070, " attempt": 2071, " National": 2072, " taking": 2073, " Bar": 2074, "When": 2075, "ON": 2076, "ify": 2077, "olution": 2078, " :": 2079, "viron": 2080, " foot": 2081, " Cal": 2082, "://": 2083, " else": 2084, " pret": 2085, " body": 2086, " space": 2087, "elt": 2088, "rote": 2089, "over": 2090, " probably": 2091, "16": 2092, "icult": 2093, ".)": 2094, " front": 2095, " cou": 2096, " nothing": 2097, " Im": 2098, " sw": 2099, "ashington": 2100, " connect": 2101, "ches": 2102, " World": 2103, " research": 2104, "14": 2105, " Clinton": 2106, " City": 2107, "ming": 2108, " coming": 2109, " points": 2110, " Israel": 2111, " however": 2112, "RE": 2113, " describ": 2114, " jo": 2115, "go": 2116, " signific": 2117, " similar": 2118, "yn": 2119, "reme": 2120, "cing": 2121, " benef": 2122, "lier": 2123, " Man": 2124, " Aust": 2125, " imm": 2126, " decision": 2127, " either": 2128, "aces": 2129, "Ad": 2130, " coun": 2131, "ault": 2132, "So": 2133, " mass": 2134, " Har": 2135, " sus": 2136, " targ": 2137, "ully": 2138, " feat": 2139, "That": 2140, " conv": 2141, " exist": 2142, "irl": 2143, " enc": 2144, " 2013": 2145, " rights": 2146, " service": 2147, " Su": 2148, "asing": 2149, "sw": 2150, "IS": 2151, " fire": 2152, " doc": 2153, " wrote": 2154, " further": 2155, " house": 2156, "rodu": 2157, " fig": 2158, " chall": 2159, " ban": 2160, "ww": 2161, " third": 2162, "mb": 2163, " wa": 2164, " create": 2165, " stop": 2166, " field": 2167, "now": 2168, " pick": 2169, "AN": 2170, "ape": 2171, "ively": 2172, " meas": 2173, " repl": 2174, " compl": 2175, "ung": 2176, " With": 2177, " issues": 2178, "pping": 2179, " begin": 2180, " super": 2181, "amer": 2182, " step": 2183, "eal": 2184, "ried": 2185, "ently": 2186, " whole": 2187, " relations": 2188, " seems": 2189, " )": 2190, " companies": 2191, "pecially": 2192, " due": 2193, " exec": 2194, " cand": 2195, " everything": 2196, " federal": 2197, " Ed": 2198, " Gu": 2199, " states": 2200, " ey": 2201, " room": 2202, "aul": 2203, " tra": 2204, " watch": 2205, "oon": 2206, " Ge": 2207, " custom": 2208, " leaders": 2209, "13": 2210, "uation": 2211, " However": 2212, "pite": 2213, " Jan": 2214, " Washington": 2215, "Ch": 2216, "lam": 2217, " self": 2218, " role": 2219, "ran": 2220, "ilt": 2221, " sound": 2222, " lab": 2223, "att": 2224, "head": 2225, " dam": 2226, "ivil": 2227, " officials": 2228, " stri": 2229, " 2012": 2230, " tre": 2231, "iday": 2232, "ibility": 2233, " released": 2234, "lu": 2235, " Inst": 2236, " began": 2237, " Dav": 2238, " App": 2239, " South": 2240, " opt": 2241, "obal": 2242, " students": 2243, " treat": 2244, " final": 2245, " character": 2246, " position": 2247, " matter": 2248, "\u00c3\u00a9": 2249, "ender": 2250, " ener": 2251, "lim": 2252, " outside": 2253, "ery": 2254, "sec": 2255, "ades": 2256, " dou": 2257, "vironment": 2258, " development": 2259, " statement": 2260, " himself": 2261, " 2017": 2262, " above": 2263, "like": 2264, " stat": 2265, " init": 2266, " break": 2267, " 100": 2268, " amount": 2269, " provide": 2270, " hours": 2271, " itself": 2272, " themselves": 2273, " office": 2274, " represent": 2275, " action": 2276, " Part": 2277, " di": 2278, " became": 2279, " 198": 2280, " general": 2281, " continue": 2282, " countries": 2283, " Intern": 2284, " neg": 2285, " address": 2286, "iod": 2287, " 25": 2288, " gun": 2289, "aced": 2290, "ask": 2291, " true": 2292, " specific": 2293, "ograph": 2294, "umb": 2295, "arter": 2296, "reg": 2297, " larg": 2298, " significant": 2299, "lish": 2300, " simply": 2301, " Ass": 2302, " Res": 2303, " wasn": 2304, "'ll": 2305, "ili": 2306, " interview": 2307, "acebook": 2308, " ground": 2309, " rad": 2310, "oid": 2311, "ogn": 2312, " difficult": 2313, " running": 2314, " Just": 2315, " evidence": 2316, " administ": 2317, "BC": 2318, " cop": 2319, "17": 2320, "ream": 2321, " drug": 2322, " version": 2323, "ogle": 2324, " bar": 2325, " agree": 2326, "iddle": 2327, "eks": 2328, " building": 2329, " China": 2330, " needs": 2331, " profess": 2332, "angu": 2333, " groups": 2334, "right": 2335, " typ": 2336, " respons": 2337, " common": 2338, " shows": 2339, " everyone": 2340, " dom": 2341, " dest": 2342, " red": 2343, " needed": 2344, " ball": 2345, " woman": 2346, "___": 2457, " German": 2348, " lat": 2349, " below": 2350, " tem": 2351, "light": 2352, "ournal": 2353, " music": 2354, " exc": 2355, " release": 2356, "ift": 2357, " inj": 2358, " pretty": 2359, " Ab": 2360, "AR": 2361, "ribut": 2362, " Med": 2363, " include": 2364, " saw": 2365, " deep": 2366, " ap": 2367, "body": 2368, "18": 2369, " played": 2370, " quite": 2371, " industry": 2372, " charg": 2373, " mag": 2374, " energy": 2375, " playing": 2376, " mot": 2377, " 50": 2378, " candid": 2379, " sense": 2380, " phys": 2381, " late": 2382, " alleg": 2383, " white": 2384, " His": 2385, "eg": 2386, "ival": 2387, " friends": 2388, " gen": 2389, " legal": 2390, "atur": 2391, "bo": 2392, " anim": 2393, "isc": 2394, "yle": 2395, " After": 2396, "omm": 2397, "How": 2398, "AS": 2399, "where": 2400, " abs": 2401, "lev": 2402, " instead": 2403, " billion": 2404, " lost": 2405, " especially": 2406, " value": 2407, " Mus": 2408, " West": 2409, " host": 2410, "osing": 2411, "oring": 2412, " hom": 2413, " News": 2414, "time": 2415, "ager": 2416, " ple": 2417, "istic": 2418, " weeks": 2419, "epend": 2420, " Not": 2421, "ccording": 2422, " forward": 2423, " deter": 2424, " election": 2425, " recently": 2426, " jud": 2427, " track": 2428, " suff": 2429, " vote": 2430, " Twitter": 2431, " object": 2432, "irt": 2433, "lt": 2434, "medi": 2435, " period": 2436, " changes": 2437, " opportun": 2438, " White": 2439, " Oct": 2440, " lo": 2441, " longer": 2442, "arc": 2443, "eed": 2444, "oke": 2445, " ep": 2446, " pain": 2447, "ique": 2448, " soon": 2449, " site": 2450, " {": 2451, "hod": 2452, "ript": 2453, "ached": 2454, " accept": 2455, " Cong": 2456, "irm": 2458, " shoot": 2459, " economic": 2460, " hope": 2461, " moment": 2462, " decl": 2463, "lege": 2464, " consum": 2465, " Will": 2466, " pie": 2467, " tit": 2468, " check": 2469, "oph": 2470, "oe": 2471, " potential": 2472, " block": 2473, " March": 2474, "ole": 2475, " wrong": 2476, "duct": 2477, "ners": 2478, "ij": 2479, " Sept": 2480, "den": 2481, " Department": 2482, " higher": 2483, "onse": 2484, " cred": 2485, " online": 2486, " focus": 2487, " 24": 2488, " consider": 2489, "key": 2490, " educ": 2491, "ancial": 2492, " My": 2493, "ns": 2494, "iding": 2495, " circ": 2496, " works": 2497, " relig": 2498, " share": 2499, " parent": 2500, "cial": 2501, " held": 2502, "25": 2503, " pred": 2504, " Dr": 2505, " walk": 2506, " webs": 2507, "ularly": 2508, "==": 2509, " reve": 2510, " led": 2511, "lear": 2512, " stay": 2513, " These": 2514, "overed": 2515, " stru": 2516, "alt": 2517, " Republican": 2518, " risk": 2519, " words": 2520, " Aug": 2521, " rev": 2522, " sold": 2523, " review": 2524, "icro": 2525, " contract": 2526, " results": 2527, " services": 2528, " laws": 2529, "They": 2530, " code": 2531, "cil": 2532, " Mich": 2533, " wind": 2534, " function": 2535, " aud": 2536, " ce": 2537, " Syri": 2538, "put": 2539, "aut": 2540, " total": 2541, "fect": 2542, " article": 2543, " age": 2544, " applic": 2545, " minutes": 2546, " personal": 2547, "ilities": 2548, " anyone": 2549, "uary": 2550, "ients": 2551, "itution": 2552, "asons": 2553, " June": 2554, "ateg": 2555, " prim": 2556, "anger": 2557, " target": 2558, "fer": 2559, " den": 2560, " earlier": 2561, "ule": 2562, " favor": 2563, " express": 2564, "haps": 2565, " dead": 2566, " answ": 2567, " upd": 2568, "ech": 2569, " popular": 2570, "che": 2571, " comput": 2572, " Ste": 2573, " vol": 2574, "pril": 2575, " necess": 2576, "ham": 2577, " hy": 2578, " rate": 2579, "ES": 2580, "aging": 2581, " technology": 2582, "apan": 2583, " respect": 2584, "val": 2585, " environment": 2586, " 2011": 2587, "Ph": 2588, " received": 2589, " expected": 2590, " Sm": 2591, "ends": 2592, "ude": 2593, " goal": 2594, " created": 2595, " base": 2596, " surpr": 2597, " anti": 2598, " Par": 2599, " July": 2600, "eter": 2601, "tee": 2602, " problems": 2603, "uel": 2604, " ways": 2605, " port": 2606, "iple": 2607, "action": 2608, " private": 2609, " Do": 2610, " scient": 2611, " increase": 2612, "ray": 2613, "reet": 2614, " announced": 2615, " comment": 2616, "isl": 2617, " cannot": 2618, " easy": 2619, "Al": 2620, " shot": 2621, " Congress": 2622, " questions": 2623, "bit": 2624, " force": 2625, " Pe": 2626, "aterial": 2627, " impact": 2628, "hern": 2629, " et": 2630, " Mond": 2631, "ples": 2632, " pack": 2633, " +": 2634, " pur": 2635, " Facebook": 2636, " langu": 2637, "atives": 2638, " God": 2639, " En": 2640, " involved": 2641, "omb": 2642, "aving": 2643, "ills": 2644, "60": 2645, "lex": 2646, "hood": 2647, "onst": 2648, " Austral": 2649, " div": 2650, "uesday": 2651, " execut": 2652, "ctor": 2653, " model": 2654, "itiz": 2655, " sen": 2656, " speak": 2657, " staff": 2658, " exact": 2659, " civil": 2660, "ees": 2661, "ires": 2662, " nearly": 2663, " type": 2664, "ourt": 2665, "okes": 2666, " original": 2667, " cases": 2668, " content": 2669, " 197": 2670, " relationship": 2671, " terror": 2672, " Google": 2673, "To": 2674, " leave": 2675, " Friday": 2676, " response": 2677, " capt": 2678, " inside": 2679, " phot": 2680, "lled": 2681, " fans": 2682, " April": 2683, " international": 2684, " coll": 2685, "cast": 2686, " heart": 2687, " average": 2688, " broad": 2689, " arrest": 2690, " users": 2691, " Count": 2692, " cal": 2693, "At": 2694, "rel": 2695, " cell": 2696, " worth": 2697, " Em": 2698, " soft": 2699, " ur": 2700, " living": 2701, "bor": 2702, " Red": 2703, " nation": 2704, "ips": 2705, "ky": 2706, " killed": 2707, " reports": 2708, " 2010": 2709, "\u00e3\u0122": 2710, " becom": 2711, " source": 2712, " Monday": 2713, " Tuesday": 2714, " subject": 2715, " worked": 2716, "atural": 2717, "ests": 2718, " estab": 2719, " immedi": 2720, "EN": 2721, " respond": 2722, " global": 2723, " associ": 2724, "joy": 2725, "ellig": 2726, " club": 2727, "ops": 2728, " Americans": 2729, "ael": 2730, " obs": 2731, "ites": 2732, " Per": 2733, " Pal": 2734, " chance": 2735, " oil": 2736, " Act": 2737, " ability": 2738, " takes": 2739, "rought": 2740, " weap": 2741, "hel": 2742, " price": 2743, " Japan": 2744, "ological": 2745, " director": 2746, "izing": 2747, " workers": 2748, " terms": 2749, " road": 2750, "mon": 2751, " published": 2752, " del": 2753, "ext": 2754, " While": 2755, " tou": 2756, " phone": 2757, "rain": 2758, " collect": 2759, " financial": 2760, " mid": 2761, "osition": 2762, " decided": 2763, "ises": 2764, "OR": 2765, " Russia": 2766, " Some": 2767, " mother": 2768, " squ": 2769, " Wed": 2770, " lack": 2771, " defin": 2772, "ovember": 2773, " 40": 2774, " girl": 2775, " store": 2776, " gave": 2777, " buy": 2778, " influ": 2779, " Calif": 2780, " log": 2781, " happened": 2782, " require": 2783, " Now": 2784, " emer": 2785, "ino": 2786, " fem": 2787, "\".": 2788, "ese": 2789, " capital": 2790, "clus": 2791, " foreign": 2792, " currently": 2793, " Off": 2794, "based": 2795, " San": 2796, " goes": 2797, " By": 2798, "oved": 2799, " Geor": 2800, "vertise": 2801, " situation": 2802, " indic": 2803, " offer": 2804, " whose": 2805, " @": 2806, " tal": 2807, " material": 2808, " lives": 2809, "unt": 2810, " affect": 2811, "rown": 2812, "ought": 2813, "hem": 2814, " plans": 2815, "nesday": 2816, " arri": 2817, " bur": 2818, " member": 2819, " pict": 2820, "ursday": 2821, " Feb": 2822, " particip": 2823, "ruction": 2824, " recogn": 2825, " turned": 2826, " method": 2827, " events": 2828, " January": 2829, " Hill": 2830, " network": 2831, "One": 2832, " teams": 2833, " Sund": 2834, " bank": 2835, " meeting": 2836, "40": 2837, "rect": 2838, " norm": 2839, " introdu": 2840, " simple": 2841, "fully": 2842, " Ag": 2843, " Islam": 2844, " ill": 2845, " huge": 2846, " September": 2847, " regard": 2848, " areas": 2849, " cy": 2850, "order": 2851, " Cor": 2852, " TV": 2853, " Me": 2854, "bl": 2855, " couple": 2856, " approach": 2857, "aur": 2858, " career": 2859, " Afric": 2860, " Gl": 2861, "load": 2862, "\",": 2863, " deli": 2864, "oud": 2865, " race": 2866, " performance": 2867, " page": 2868, "ety": 2869, "apt": 2870, " November": 2871, " tool": 2872, " David": 2873, " felt": 2874, " quickly": 2875, " mis": 2876, " numbers": 2877, "oor": 2878, " email": 2879, " El": 2880, " 21": 2881, "aily": 2882, " ord": 2883, "istan": 2884, " administration": 2885, " hon": 2886, " Wednesday": 2887, " victim": 2888, " Paul": 2889, " via": 2890, " improve": 2891, " engine": 2892, "chie": 2893, " fre": 2894, " pull": 2895, " Ang": 2896, " round": 2897, " built": 2898, " 22": 2899, " pers": 2900, " European": 2901, " dig": 2902, " Thursday": 2903, " father": 2904, "ornia": 2905, " loss": 2906, "avy": 2907, " thous": 2908, "\u00c2\u0142": 2909, " http": 2910, "ructure": 2911, " production": 2912, " boy": 2913, "ume": 2914, "lin": 2915, " heard": 2916, "down": 2917, "Sh": 2918, " economy": 2919, "\u00e2\u0121\u013e.": 2920, " enjoy": 2921, " August": 2922, " trade": 2923, " Sch": 2924, "face": 2925, " website": 2926, "iment": 2927, " secret": 2928, " cover": 2929, " reveal": 2930, " wide": 2931, " board": 2932, " match": 2933, " Court": 2934, "AL": 2935, " allowed": 2936, " hands": 2937, " spent": 2938, " travel": 2939, " lower": 2940, " repe": 2941, "atory": 2942, " poll": 2943, " included": 2944, "cember": 2945, " ste": 2946, " October": 2947, " neigh": 2948, " legisl": 2949, "orters": 2950, "uses": 2951, " behav": 2952, "iction": 2953, " knew": 2954, " text": 2955, " wants": 2956, " town": 2957, "ights": 2958, " British": 2959, " separ": 2960, "ences": 2961, "estern": 2962, " visit": 2963, " Canada": 2964, "anks": 2965, "ctions": 2966, "With": 2967, " perfect": 2968, " gets": 2969, "ession": 2970, " movement": 2971, " aren": 2972, "ishing": 2973, "raz": 2974, "ground": 2975, "agement": 2976, " tried": 2977, " cause": 2978, "?\u00e2\u0121\u013e": 2979, "gest": 2980, " }": 2981, " forces": 2982, " Sunday": 2983, " ens": 2984, "After": 2985, "force": 2986, "ceed": 2987, " attention": 2988, " particular": 2989, " bi": 2990, "urd": 2991, "][": 2992, " veh": 2993, " bud": 2994, " fear": 2995, " population": 2996, "ened": 2997, " various": 2998, " UK": 2999, " reach": 3000, " looks": 3001, " 23": 3002, " California": 3003, " brought": 3004, " vo": 3005, " Kore": 3006, " link": 3007, "ibly": 3008, ");": 3009, "arily": 3010, " IS": 3011, "200": 3012, " previous": 3013, "ED": 3014, " mention": 3015, " Russian": 3016, " morning": 3017, " Qu": 3018, "cle": 3019, "idered": 3020, "'d": 3021, " fair": 3022, " growth": 3023, "aker": 3024, " Sw": 3025, "undred": 3026, "99": 3027, "sequ": 3028, "yond": 3029, " progress": 3030, " fell": 3031, "alled": 3032, " song": 3033, "iam": 3034, "ening": 3035, " Cont": 3036, "AC": 3037, " training": 3038, "field": 3039, "hold": 3040, "uk": 3041, " size": 3042, " Black": 3043, "cies": 3044, " December": 3045, "idents": 3046, " contact": 3047, "ledge": 3048, " hor": 3049, " Her": 3050, " demand": 3051, "While": 3052, " image": 3053, " rac": 3054, " hot": 3055, "ification": 3056, "OS": 3057, " leader": 3058, "set": 3059, "ecause": 3060, " rules": 3061, " prep": 3062, " liber": 3063, "ze": 3064, " search": 3065, " ess": 3066, " Post": 3067, " citiz": 3068, " upon": 3069, " strugg": 3070, " Street": 3071, " latest": 3072, "come": 3073, "ondon": 3074, " independ": 3075, "US": 3076, "uments": 3077, "inks": 3078, "arth": 3079, " features": 3080, " coach": 3081, " Park": 3082, "iant": 3083, " fast": 3084, "Tr": 3085, "oo": 3086, "sych": 3087, " talking": 3088, " Jew": 3089, "omp": 3090, " addition": 3091, "ges": 3092, " star": 3093, " wond": 3094, " Senate": 3095, "IT": 3096, " Pat": 3097, " speed": 3098, " exam": 3099, " considered": 3100, "raq": 3101, "icles": 3102, "aries": 3103, " reb": 3104, " levels": 3105, "eth": 3106, " Times": 3107, " County": 3108, "elligence": 3109, " slow": 3110, " investigation": 3111, "bed": 3112, "ps": 3113, "ille": 3114, " conduct": 3115, "aph": 3116, " Party": 3117, "22": 3118, " King": 3119, " medical": 3120, " mach": 3121, " sn": 3122, "imately": 3123, "vent": 3124, " achie": 3125, " language": 3126, "aturday": 3127, " card": 3128, "unk": 3129, " sort": 3130, " critic": 3131, "ope": 3132, " Tex": 3133, " Center": 3134, " pen": 3135, " und": 3136, " India": 3137, " paper": 3138, "wo": 3139, "ysis": 3140, "IC": 3141, " 2008": 3142, "pir": 3143, " conserv": 3144, " parents": 3145, " sexual": 3146, "ma": 3147, " systems": 3148, " prior": 3149, "uit": 3150, "asc": 3151, "imin": 3152, " doll": 3153, " written": 3154, "uf": 3155, " box": 3156, " spokes": 3157, "igr": 3158, " seek": 3159, " sens": 3160, "eared": 3161, "het": 3162, " document": 3163, "idge": 3164, " increasing": 3165, " hear": 3166, "ani": 3167, "atform": 3168, " draw": 3169, " seven": 3170, " son": 3171, " Muslim": 3172, " effort": 3173, "ruary": 3174, " jobs": 3175, " Iran": 3176, " extreme": 3177, " prevent": 3178, " learn": 3179, "ining": 3180, " serious": 3181, " regul": 3182, "rast": 3183, " inn": 3184, " range": 3185, " ...": 3186, "room": 3187, " violence": 3188, " eight": 3189, " Mark": 3190, "80": 3191, "ources": 3192, " Iraq": 3193, "itch": 3194, "OP": 3195, " surve": 3196, " completely": 3197, " conc": 3198, " 2009": 3199, "eff": 3200, " message": 3201, "ico": 3202, "tr": 3203, "ha": 3204, " \u00e2": 3205, " obv": 3206, " interesting": 3207, "reedom": 3208, "She": 3209, " screen": 3210, "abor": 3211, " opportunity": 3212, " climate": 3213, "24": 3214, " majority": 3215, " Ke": 3216, "anced": 3217, " particularly": 3218, " doub": 3219, " journal": 3220, " despite": 3221, " Rom": 3222, " claims": 3223, "fort": 3224, " answer": 3225, " Char": 3226, " society": 3227, " London": 3228, " defense": 3229, " carry": 3230, "entially": 3231, "aming": 3232, " guy": 3233, " extra": 3234, "ension": 3235, " Donald": 3236, "isions": 3237, " attacks": 3238, " required": 3239, "erve": 3240, "rench": 3241, "illed": 3242, " biggest": 3243, "vertisement": 3244, " East": 3245, " exactly": 3246, " paid": 3247, "mp": 3248, " More": 3249, "iers": 3250, "ibr": 3251, " experien": 3253, "lying": 3254, "uclear": 3255, "inese": 3256, "isi": 3257, " modern": 3258, " remain": 3259, " quarter": 3260, " officers": 3261, "ett": 3262, " hundred": 3263, " cross": 3264, " except": 3265, "utions": 3266, "ari": 3267, " table": 3268, " practice": 3269, "inally": 3270, " natural": 3271, " middle": 3272, "erc": 3273, " 27": 3274, " certainly": 3275, "na": 3276, " dro": 3277, "oses": 3278, " Saturday": 3279, " stories": 3280, " Net": 3281, " histor": 3282, " gas": 3283, " products": 3284, " surv": 3285, " looked": 3286, " sometimes": 3287, "nces": 3288, " stuff": 3289, " rout": 3290, " science": 3291, " finally": 3292, " user": 3293, " Tur": 3294, "AM": 3295, " summer": 3296, " movie": 3297, " blood": 3298, "ospital": 3299, "aves": 3300, " communic": 3301, " aw": 3302, "ously": 3303, " lay": 3304, " changed": 3305, " term": 3306, " ones": 3307, " leading": 3308, " described": 3309, " Sand": 3310, " imag": 3311, " February": 3312, "fl": 3313, " prison": 3314, " convers": 3315, "ny": 3316, " details": 3317, "icks": 3318, " starting": 3319, " Spe": 3320, " quality": 3321, " occur": 3322, " pan": 3323, "hib": 3324, " showed": 3325, " named": 3326, " giving": 3327, " ult": 3328, " remains": 3329, " McC": 3330, "uing": 3331, " region": 3332, "pper": 3333, " provided": 3334, " costs": 3335, "akers": 3336, " Soc": 3337, "arr": 3338, " damage": 3339, " mob": 3340, " danger": 3341, " fit": 3342, "aught": 3343, " TH": 3344, " chief": 3345, " poor": 3346, " path": 3347, " Mor": 3348, "ida": 3349, " education": 3350, " multiple": 3351, " continued": 3352, "enge": 3353, " Int": 3354, " growing": 3355, "No": 3356, " demonst": 3357, " *": 3358, " parts": 3359, " 26": 3360, " writing": 3361, " comments": 3362, " 28": 3363, " ment": 3364, "yl": 3365, " maintain": 3366, " safe": 3367, " assist": 3368, " thinking": 3369, " Des": 3370, "inary": 3371, " Republicans": 3372, " Even": 3373, " purp": 3374, " request": 3375, " write": 3376, " fix": 3377, " item": 3378, " purch": 3379, "ables": 3380, " died": 3381, " Democratic": 3382, " Coun": 3383, "FL": 3384, "ara": 3385, "ago": 3386, " ready": 3387, "coin": 3388, " wouldn": 3389, " implement": 3390, "23": 3391, " increased": 3392, " culture": 3393, " efforts": 3394, " voters": 3395, "ux": 3396, "pre": 3397, " camer": 3398, " mill": 3399, "aly": 3400, "oper": 3401, " reading": 3402, "mitted": 3403, "iminal": 3404, " file": 3405, " usually": 3406, " calls": 3407, " spot": 3408, "Im": 3409, " effects": 3410, " Gener": 3411, "zz": 3412, " perhaps": 3413, "ban": 3414, " alone": 3415, "arian": 3416, "iles": 3417, " First": 3418, " although": 3419, " towards": 3420, "hest": 3421, " League": 3422, " consist": 3423, " Bill": 3424, " Texas": 3425, " select": 3426, " guys": 3427, " standard": 3428, " Michael": 3429, " subst": 3430, " cele": 3431, " beyond": 3432, " directly": 3433, " platform": 3434, " Chinese": 3435, " (@": 3436, " hous": 3437, "using": 3438, "itute": 3439, " speech": 3440, " reality": 3441, "egr": 3442, "icated": 3443, " kids": 3444, " James": 3445, " avoid": 3446, " throughout": 3447, " football": 3448, " student": 3449, " tur": 3450, " couldn": 3451, "BI": 3452, "ford": 3453, " unf": 3454, " immediately": 3455, "oul": 3456, " rob": 3457, " Ne": 3458, " includes": 3459, " cat": 3460, " concept": 3461, " center": 3462, " choice": 3463, " scene": 3464, " complex": 3465, "anch": 3466, " additional": 3467, "sp": 3468, " Mon": 3469, " challeng": 3470, " Cons": 3471, " wife": 3472, " clos": 3473, " tro": 3474, " recomm": 3475, " researc": 3476, "Re": 3477, " epis": 3478, "itor": 3479, "All": 3480, " ver": 3481, " Minister": 3482, " sle": 3483, " corpor": 3484, " \u00e2\u0121\u00a6": 3485, " designed": 3486, " Ser": 3487, "agon": 3488, " remember": 3489, " software": 3490, " safety": 3491, " Indian": 3492, "wise": 3493, " gone": 3494, " il": 3495, "astic": 3496, "ports": 3497, " cast": 3498, " sell": 3499, " toward": 3500, " agency": 3501, " ten": 3502, " officer": 3503, "aches": 3504, "bur": 3505, " figure": 3506, " piece": 3507, " brain": 3508, "omen": 3509, " battle": 3510, " Jack": 3511, " counter": 3512, "men": 3513, " debate": 3514, "airs": 3515, "ression": 3516, "ston": 3517, " thousands": 3518, "adem": 3519, " swe": 3520, "rupt": 3521, " ahead": 3522, " opin": 3523, "ingin": 3524, "icient": 3525, "Now": 3526, "imum": 3527, " relative": 3528, "irth": 3529, " letter": 3530, " receive": 3531, " pressure": 3532, " Bo": 3533, " \u00d0": 3534, " blog": 3535, "ilies": 3536, "ampions": 3537, " sil": 3538, " moved": 3539, " launch": 3540, " appears": 3541, " option": 3542, " Play": 3543, " passed": 3544, " ut": 3545, " prec": 3546, " stage": 3547, "roy": 3548, "oes": 3549, " 60": 3550, " clean": 3551, " Serv": 3552, "olute": 3553, " II": 3554, "atever": 3555, "berg": 3556, "OT": 3557, " property": 3558, "27": 3559, " helped": 3560, " drive": 3561, " Apple": 3562, "just": 3563, " alleged": 3564, " Green": 3565, " twe": 3566, "new": 3567, " disapp": 3568, " tour": 3569, " meaning": 3570, " rock": 3571, " dog": 3572, " x": 3573, "urt": 3574, "itation": 3575, " cris": 3576, " Associ": 3577, " suspect": 3578, " date": 3579, " Rich": 3580, "aughter": 3581, " moving": 3582, " score": 3583, " Democrats": 3584, " organization": 3585, " sat": 3586, " conditions": 3587, " touch": 3588, " dark": 3589, " command": 3590, " Then": 3591, " ign": 3592, "?\"": 3593, " reasons": 3594, " budget": 3595, " crow": 3596, " park": 3597, "more": 3598, " nuclear": 3599, " myself": 3600, " nom": 3601, " deg": 3602, " happy": 3603, " device": 3604, " difference": 3605, "rief": 3606, " Sim": 3607, " maybe": 3608, " beginning": 3609, "AD": 3610, " copy": 3611, " nature": 3612, " failed": 3613, "wood": 3614, " fan": 3615, " characters": 3616, "yan": 3617, " computer": 3618, " encour": 3619, "sis": 3620, " aim": 3621, " Mart": 3622, " title": 3623, " wall": 3624, " compared": 3625, " league": 3626, "ocked": 3627, " Super": 3628, "ean": 3629, "ivity": 3630, " estim": 3631, "add": 3632, " Val": 3633, " Star": 3634, " college": 3635, " eyes": 3636, " shown": 3637, " English": 3638, " century": 3639, " powerful": 3640, " Day": 3641, "lease": 3642, "ource": 3643, " bal": 3644, "aint": 3645, " limited": 3646, " yes": 3647, " band": 3648, " contribut": 3649, " positive": 3650, " forced": 3651, " necessary": 3652, " Che": 3653, " refer": 3654, " candidate": 3655, " stra": 3656, " disp": 3657, "35": 3658, "cient": 3659, " books": 3660, " trust": 3661, "AP": 3662, " French": 3663, " largest": 3664, "26": 3665, " arch": 3666, "enty": 3667, " sal": 3668, " Here": 3669, "aud": 3670, " conference": 3671, " Rober": 3672, " note": 3673, " analysis": 3674, "ufact": 3675, " spending": 3676, " presidential": 3677, "45": 3678, " Of": 3679, " citizens": 3680, "orks": 3681, " schools": 3682, "igration": 3683, " Syria": 3684, " throw": 3685, " Ben": 3686, "venue": 3687, " aware": 3688, " meant": 3689, " executive": 3690, " eventually": 3691, "My": 3692, " physical": 3693, " followed": 3694, " feature": 3695, "ares": 3696, " firm": 3697, " treatment": 3698, " Tor": 3699, " Wind": 3700, " streng": 3701, " mix": 3702, " confir": 3703, " bott": 3704, "ero": 3705, " correct": 3706, "orney": 3707, " 29": 3708, " Dis": 3709, " grad": 3710, " religious": 3711, " easily": 3712, "band": 3713, " autom": 3714, " esc": 3715, " pus": 3716, "board": 3717, " cool": 3718, "etro": 3719, " 196": 3720, " families": 3721, " illeg": 3722, "ressed": 3723, "craft": 3724, "cul": 3725, "rated": 3726, " actions": 3727, " overall": 3728, " Air": 3729, " Mex": 3730, " allows": 3731, " gives": 3732, " feed": 3733, " \u00c2\u00a3": 3734, "):": 3735, " susp": 3736, "ube": 3737, " yourself": 3738, "By": 3739, "Is": 3740, " draft": 3741, "ken": 3742, "bum": 3743, " smart": 3744, " appeared": 3745, "ram": 3746, " detail": 3747, " income": 3748, "iring": 3749, " analy": 3750, " Bel": 3751, " signed": 3752, "New": 3753, "encies": 3754, " Ham": 3755, " central": 3756, " ideas": 3757, " ang": 3758, " Govern": 3759, " senior": 3760, "Advertisement": 3761, " frequ": 3762, " weapons": 3763, "ID": 3764, " display": 3765, " har": 3766, " promot": 3767, " nice": 3768, "inn": 3769, " credit": 3770, " decades": 3771, " psych": 3772, " politics": 3773, "Don": 3774, " Bre": 3775, " crime": 3776, "OM": 3777, "EC": 3778, "chan": 3779, " uses": 3780, " door": 3781, " dise": 3782, "uty": 3783, " International": 3784, " unique": 3785, "28": 3786, " altern": 3787, " lif": 3788, "According": 3789, " drop": 3790, " sales": 3791, "mar": 3792, " developed": 3793, "***": 4720, "resh": 3795, " customers": 3796, "ET": 3797, " benefits": 3798, " conflic": 3799, "urance": 3800, "Ar": 3801, " related": 3802, " crisis": 3803, " School": 3804, " mist": 3805, "erry": 3806, "iable": 3807, " predict": 3808, " noted": 3809, " Cap": 3810, "29": 3811, " Australia": 3812, " EU": 3813, "box": 3814, " truth": 3815, "part": 3816, " goals": 3817, "iny": 3818, " individuals": 3819, " charge": 3820, " Earth": 3821, " beaut": 3822, " continues": 3823, "onents": 3824, " Union": 3825, " Arab": 3826, " observ": 3827, " rap": 3828, " challenge": 3829, "que": 3830, " sto": 3831, "nown": 3832, " apparent": 3833, " Angel": 3834, "itely": 3835, " Smith": 3836, "Be": 3837, " lic": 3838, " projects": 3839, " peace": 3840, " measure": 3841, " Police": 3842, "oti": 3843, " intelligence": 3844, " Christian": 3845, " previously": 3846, " Germany": 3847, " fully": 3848, " rule": 3849, " manager": 3850, " brother": 3851, " rates": 3852, " advant": 3853, "change": 3854, " expand": 3855, " clearly": 3856, " reform": 3857, "net": 3858, " lines": 3859, " successful": 3860, "riage": 3861, " highly": 3862, " larger": 3863, "ounds": 3864, "Un": 3865, " traff": 3866, " spread": 3867, "iance": 3868, " seemed": 3869, " Council": 3870, " straight": 3871, "Some": 3872, " criminal": 3873, " Comp": 3874, " minor": 3875, " emb": 3876, " George": 3877, " programs": 3878, "iced": 3879, "attle": 3880, "owers": 3881, " Franc": 3882, " incident": 3883, " resources": 3884, "21": 3885, " Tom": 3886, " greater": 3887, " primary": 3888, "IA": 3889, "inated": 3890, "antly": 3891, " knowledge": 3892, "Pro": 3893, " studies": 3894, "while": 3895, "dom": 3896, " save": 3897, "orter": 3898, " web": 3899, "ategy": 3900, " kept": 3901, " attract": 3902, "ki": 3903, " Flor": 3904, "olic": 3905, " spir": 3906, " emot": 3907, " color": 3908, " feet": 3909, "sey": 3910, " rare": 3911, " reached": 3912, " arm": 3913, " Ant": 3914, "secut": 3915, " High": 3916, "levision": 3917, " Internet": 3918, " Brown": 3919, "oday": 3920, "iders": 3921, "osh": 3922, " favorite": 3923, " Cr": 3924, " places": 3925, " Rec": 3926, "rs": 3927, " regular": 3928, "wide": 3929, "ota": 3930, "vere": 3931, "bon": 3932, " manufact": 3933, " laun": 3934, " Def": 3935, "100": 3936, " send": 3937, "term": 3938, " prem": 3939, "roll": 3940, "lick": 3941, "icit": 3942, "ingly": 3943, " knows": 3944, " shooting": 3945, " activity": 3946, " pun": 3947, " sources": 3948, " normal": 3949, "icago": 3950, "onent": 3951, "ser": 3952, " status": 3953, " fighting": 3954, "ville": 3955, " voice": 3956, " rise": 3957, "ocks": 3958, " fine": 3959, " owners": 3960, " caused": 3961, " claimed": 3962, " Mac": 3963, " enem": 3964, " liter": 3965, " Rob": 3966, " Up": 3967, " General": 3968, "aith": 3969, "EO": 3970, " options": 3971, " 2007": 3972, " integr": 3973, "ength": 3974, "usion": 3975, " spend": 3976, " Gold": 3977, "ado": 3978, " cities": 3979, "miss": 3980, " organiz": 3981, "ING": 3982, " ended": 3983, "www": 3984, " researchers": 3985, "iled": 3986, " calling": 3987, " shut": 3988, " reflect": 3989, " La": 3990, "org": 3991, "mission": 3992, "mark": 3993, "\u00e2\u0121\u013e,": 3994, "oles": 3995, "70": 3996, "roid": 3997, " prices": 3998, " Every": 3999, " album": 4000, " From": 4001, "ifying": 4002, " employees": 4003, " female": 4004, " England": 4005, "ya": 4006, " virt": 4007, " crowd": 4008, " haven": 4009, " raised": 4010, "mittee": 4011, " ele": 4012, "uana": 4013, " jump": 4014, "33": 4015, " supposed": 4016, "itness": 4017, " happens": 4018, " adding": 4019, " policies": 4020, " names": 4021, " charges": 4022, " pros": 4023, " trou": 4024, "ica": 4025, "ribution": 4026, " basic": 4027, "uman": 4028, "Not": 4029, "iverse": 4030, "inger": 4031, " Mag": 4032, " concerns": 4033, " traditional": 4034, " wait": 4035, " plant": 4036, " absolute": 4037, " acqu": 4038, " hospital": 4039, " funding": 4040, " Bay": 4041, " print": 4042, " slight": 4043, "rol": 4044, " commer": 4045, " patients": 4046, " authorities": 4047, " minister": 4048, "Sc": 4049, " creating": 4050, " freedom": 4051, " AP": 4052, " mechan": 4053, " scen": 4054, " Mo": 4055, " style": 4056, " seeing": 4057, " grand": 4058, ".\u00e2\u0121\u013a": 4059, " beat": 4060, " lik": 4061, "dd": 4062, "ona": 4063, "rian": 4064, " station": 4065, " Scott": 4066, "see": 4067, " push": 4068, "ijuana": 4069, " behavior": 4070, " leaving": 4071, " cry": 4072, " impl": 4073, " birth": 4074, " ir": 4075, " actual": 4076, "EL": 4077, "pen": 4078, " ensure": 4079, " offered": 4080, " agreement": 4081, " Florida": 4082, " eth": 4083, "soft": 4084, " Hillary": 4085, " posted": 4086, " Reg": 4087, " gold": 4088, " Sun": 4089, " Ber": 4090, " weekend": 4091, " green": 4092, " Most": 4093, " adult": 4094, "alse": 4095, " weight": 4096, "OU": 4097, ".'": 4098, "acing": 4099, " determin": 4100, " vac": 4101, "Here": 4102, " revealed": 4103, " Well": 4104, " application": 4105, " mostly": 4106, " values": 4107, " propos": 4108, "itude": 4109, " Alex": 4110, "aby": 4111, " willing": 4112, "earch": 4113, " rank": 4114, " adop": 4115, " According": 4116, " establ": 4117, " eye": 4118, " records": 4119, "amb": 4120, "ection": 4121, "\u00e2\u0121\u00a2": 4122, "500": 4123, " enforce": 4124, "http": 4125, " picture": 4126, " believed": 4127, "pri": 4128, " mer": 4129, "uild": 4130, " brief": 4131, " Let": 4132, " learned": 4133, " Law": 4134, " install": 4135, " strategy": 4136, " appl": 4137, "igned": 4138, " choose": 4139, "istry": 4140, "gen": 4141, "SA": 4142, " dire": 4143, " wonder": 4144, " qual": 4145, " massive": 4146, " devices": 4147, " benefit": 4148, " wild": 4149, " parties": 4150, " Chicago": 4151, " lawy": 4152, " People": 4153, " uns": 4154, "cher": 4155, " cars": 4156, " Trans": 4157, " Port": 4158, "cont": 4159, " Phil": 4160, " arrested": 4161, " mount": 4162, " whatever": 4163, " wat": 4164, " Oh": 4165, " France": 4166, " street": 4167, " ;": 4168, " provides": 4169, " whom": 4170, " assault": 4171, "90": 4172, "liament": 4173, " asking": 4174, " influence": 4175, "ties": 4176, " judge": 4177, " lose": 4178, " fat": 4179, " feeling": 4180, " operations": 4181, " produced": 4182, " temper": 4183, "ste": 4184, " critical": 4185, " Lou": 4186, " Secret": 4187, " negoti": 4188, "point": 4189, " mission": 4190, " enter": 4191, " Bush": 4192, "Ex": 4193, " images": 4194, "\u00d0\u00be": 4195, " Stud": 4196, " confirmed": 4197, " showing": 4198, "IL": 4199, " district": 4200, "ription": 4201, " runs": 4202, " pattern": 4203, " tend": 4204, " Mat": 4205, "===": 4347, " border": 4207, " residents": 4208, "orial": 4209, "rav": 4210, " debt": 4211, "However": 4212, " \u00c3": 4213, "aked": 4214, " cru": 4215, " teac": 4216, " Committee": 4217, "mine": 4218, "Cl": 4219, " opposition": 4220, " celebr": 4221, " Wall": 4222, " Health": 4223, " section": 4224, " defend": 4225, " etc": 4226, "estic": 4227, " produce": 4228, "icial": 4229, " Commission": 4230, " drink": 4231, " independent": 4232, " Mod": 4233, "ront": 4234, "cell": 4235, " Why": 4236, " brand": 4237, "ented": 4238, "ugg": 4239, "ags": 4240, " core": 4241, " Press": 4242, " tick": 4243, " digital": 4244, " Bit": 4245, " hero": 4246, " advoc": 4247, " dollars": 4248, "ae": 4249, " Sam": 4250, "ocr": 4251, "rial": 4252, " effective": 4253, " solution": 4254, " Mal": 4255, " vill": 4256, " interested": 4257, " Korea": 4258, " highest": 4259, "BA": 4260, "irg": 4261, "ords": 4262, " memory": 4263, " opening": 4264, " worse": 4265, " learning": 4266, " responsible": 4267, " trial": 4268, " daily": 4269, " kick": 4270, " theory": 4271, " Other": 4272, " offers": 4273, " Palest": 4274, "me": 4275, " replace": 4276, " restrict": 4277, " mur": 4278, " Get": 4279, " Office": 4280, " agreed": 4281, " television": 4282, " Francis": 4283, "cience": 4284, " Micro": 4285, " Because": 4286, " occas": 4287, "ST": 4288, "illing": 4289, "CC": 4290, " train": 4291, " investment": 4292, " vs": 4293, " types": 4294, "iation": 4295, " Western": 4296, "icians": 4297, " chair": 4298, "aks": 4299, " miles": 4300, " millions": 4301, "no": 4302, "gency": 4303, " chem": 4304, " Justice": 4305, " Del": 4306, " generally": 4307, " basis": 4308, " proposed": 4309, " 80": 4310, " Mike": 4311, " Mil": 4312, " Cup": 4313, "These": 4314, "ipe": 4315, " heavy": 4316, " explained": 4317, " Our": 4318, " map": 4319, "uries": 4320, "AA": 4321, "rad": 4322, " der": 4323, "oly": 4324, " partners": 4325, "ander": 4326, " opinion": 4327, " defe": 4328, " onto": 4329, " protest": 4330, "Con": 4331, "Get": 4332, " associated": 4333, " load": 4334, "rig": 4335, "azing": 4336, " NFL": 4337, "rate": 4338, "oom": 4339, "44": 4340, "win": 4341, " Found": 4342, " male": 4343, " becomes": 4344, " reject": 4345, "outhern": 4346, " Security": 4348, "vest": 4349, " coal": 4350, " obtain": 4351, " destroy": 4352, " advantage": 4353, " assum": 4354, " Liber": 4355, " condition": 4356, " announce": 4357, " hundreds": 4358, " achieve": 4359, " opened": 4360, "eline": 4361, " understanding": 4362, "odes": 4363, " Johnson": 4364, "coming": 4365, "icip": 4366, " surround": 4367, "ading": 4368, "bert": 4369, "orthern": 4370, "well": 4371, "upp": 4372, " initial": 4373, " Att": 4374, " Big": 4375, " sleep": 4376, "36": 4377, " ship": 4378, " marriage": 4379, " management": 4380, " Windows": 4381, " thus": 4382, " limit": 4383, " born": 4384, " becoming": 4385, "known": 4386, " photo": 4387, " easier": 4388, "FC": 4389, " Great": 4390, " rat": 4391, " legislation": 4392, " controvers": 4393, " unlike": 4394, " electric": 4395, " Many": 4396, "32": 4397, " camera": 4398, " Mad": 4399, "witch": 4400, " accused": 4401, " spl": 4402, " neighbor": 4403, " double": 4404, " ice": 4405, " species": 4406, " shared": 4407, "lant": 4408, " join": 4409, " illegal": 4410, " 31": 4411, " Lab": 4412, " 2006": 4413, "Mr": 4414, " harm": 4415, " machine": 4416, " served": 4417, " Jer": 4418, "GB": 4419, " extremely": 4420, "olf": 4421, " active": 4422, " 35": 4423, " serve": 4424, " documents": 4425, " Islamic": 4426, " frame": 4427, " strik": 4428, "level": 4429, "za": 4430, " Dist": 4431, " audience": 4432, "BS": 4433, " location": 4434, " AM": 4435, " scientists": 4436, " bottom": 4437, "orrow": 4438, " victims": 4439, " Art": 4440, " wealth": 4441, " professional": 4442, " resist": 4443, " reduce": 4444, " belief": 4445, " nine": 4446, " solid": 4447, " winning": 4448, " marijuana": 4449, "ears": 4450, " Uk": 4451, " negative": 4452, "75": 4453, "iful": 4454, "ih": 4455, " communities": 4456, " returned": 4457, "ortunately": 4458, " incred": 4459, " PM": 4460, " Institute": 4461, "tered": 4462, "met": 4463, " church": 4464, "PS": 4465, " department": 4466, " Sanders": 4467, " ran": 4468, " victory": 4469, "rey": 4470, " purpose": 4471, " 90": 4472, " Commun": 4473, " amb": 4474, "lands": 4475, " vehicle": 4476, " internet": 4477, " leadership": 4478, " Hall": 4479, "istics": 4480, " bomb": 4481, "ios": 4482, " mobile": 4483, "ghan": 4484, " instance": 4485, "ipped": 4486, "38": 4487, " separate": 4488, " existing": 4489, " notice": 4490, " hearing": 4491, " die": 4492, " explain": 4493, " doubt": 4494, " faith": 4495, " teach": 4496, "house": 4497, " Your": 4498, "atically": 4499, " episode": 4500, " bed": 4501, " watching": 4502, " comfort": 4503, " Canadian": 4504, " Bank": 4505, " notes": 4506, " radio": 4507, "irgin": 4508, " Ev": 4509, " fresh": 4510, " unc": 4511, " views": 4512, " Inc": 4513, " putting": 4514, "asy": 4515, " Sl": 4516, " Fin": 4517, " supporters": 4518, " conservative": 4519, " purs": 4520, " argument": 4521, "omas": 4522, " micro": 4523, "ario": 4524, "acity": 4525, " launched": 4526, "scrib": 4527, "works": 4528, "OL": 4529, " appeal": 4530, "iliar": 4531, " items": 4532, " committee": 4533, "resp": 4534, "which": 4535, " definitely": 4536, "ada": 4537, " dangerous": 4538, "iller": 4539, "zen": 4540, " coverage": 4541, " direction": 4542, " Over": 4543, " charged": 4544, " floor": 4545, " sun": 4546, "PA": 4547, " max": 4548, "ography": 4549, "34": 4550, "EM": 4551, " Carol": 4552, " Church": 4553, " Fox": 4554, " issued": 4555, " drugs": 4556, "Image": 4557, " task": 4558, "ipp": 4559, " background": 4560, " competition": 4561, " trend": 4562, " stated": 4563, "vention": 4564, "andom": 4565, " traffic": 4566, " FBI": 4567, " commercial": 4568, " Direct": 4569, "itt": 4570, " spoke": 4571, " sett": 4572, "inct": 4573, " transfer": 4574, " suggested": 4575, " structure": 4576, " sites": 4577, " hus": 4578, " north": 4579, " Since": 4580, " Like": 4581, " restaur": 4582, "ampionship": 4583, " labor": 4584, " decade": 4585, " Bur": 4586, " repeated": 4587, " Game": 4588, " react": 4589, "oman": 4590, " cards": 4591, " animals": 4592, "going": 4593, " novel": 4594, "ctors": 4595, "bing": 4596, "but": 4597, "NA": 4598, "ribute": 4599, " daughter": 4600, "anted": 4601, " driving": 4602, " closed": 4603, " worst": 4604, " contain": 4605, " entirely": 4606, " ded": 4607, " Britain": 4608, "ici": 4609, "Bl": 4610, "ady": 4611, " driver": 4612, " Wil": 4613, " disease": 4614, " telling": 4615, "iling": 4616, " smaller": 4617, " discovered": 4618, " nor": 4619, "akistan": 4620, " refere": 4621, " Pri": 4622, "Americ": 4623, " Los": 4624, " hack": 4625, "equ": 4626, "!\u00e2\u0121\u013e": 4627, "ference": 4628, " Que": 4629, "spe": 4630, " false": 4631, " cash": 4632, " concerned": 4633, "ulf": 4634, " plays": 4635, " surface": 4636, "semb": 4637, "udd": 4638, " supported": 4639, "annel": 4640, "ulated": 4641, " tools": 4642, "oyal": 4643, " compar": 4644, " transport": 4645, " Chris": 4646, " experiment": 4647, " finding": 4648, "night": 4649, " categ": 4650, "\u00e3\u0123": 4651, "ait": 4652, " aspect": 4653, "##": 4654, " businesses": 4655, " 70": 4656, " UN": 4657, " farm": 4658, " please": 4659, " older": 4660, "azon": 4661, "how": 4662, " activities": 4663, " requires": 4664, "phone": 4665, "CH": 4666, " gay": 4667, " Jones": 4668, "ibrary": 4669, " strength": 4670, "48": 4671, " wel": 4672, "do": 4673, "andon": 4674, " insurance": 4675, " consequ": 4676, "37": 4677, " largely": 4678, " murder": 4679, "NN": 4680, "55": 4681, " exerc": 4682, " caught": 4683, " candidates": 4684, "kins": 4685, " Israeli": 4686, " allowing": 4687, "icy": 4688, " blue": 4689, " Are": 4690, " annual": 4691, " Ken": 4692, " testing": 4693, "ius": 4694, "ossible": 4695, " strateg": 4696, " Sup": 4697, " raise": 4698, " stock": 4699, "arant": 4700, "overy": 4701, " Robert": 4702, "izes": 4703, "gers": 4704, " decisions": 4705, " accur": 4706, "rick": 4707, " context": 4708, " fuel": 4709, " Ac": 4710, "SP": 4711, "osure": 4712, "lor": 4713, " Ukrain": 4714, " concern": 4715, " afford": 4716, " believes": 4717, " construction": 4718, " truly": 4719, " Ty": 4721, " Miss": 4722, " ge": 4723, " justice": 4724, "igrants": 4725, " generation": 4726, " highlight": 4727, "rim": 4728, " Tre": 4729, " unit": 4730, " presence": 4731, " Jewish": 4732, "anging": 4733, "!!": 4734, " Sil": 4735, "\u00d0\u00b0": 4736, "tery": 4737, "\u00d0\u00b5": 4738, "ception": 4739, " Africa": 4740, " guess": 4741, "ancy": 4742, " witness": 4743, "itable": 4744, " holding": 4745, "ey": 4746, " Gree": 4747, " establish": 4748, " length": 4749, " planning": 4750, "bre": 4751, "ava": 4752, " African": 4753, " sequ": 4754, "cknow": 4755, " refuge": 4756, " placed": 4757, " catch": 4758, " Afghan": 4759, " san": 4760, " Association": 4761, " tells": 4762, "\u00e2\u0121\u0139": 4763, "inter": 4764, " scale": 4765, " spokesman": 4766, " tim": 4767, "nel": 4768, " rough": 4769, " attend": 4770, "olly": 4771, " Ver": 4772, " cells": 4773, " joined": 4774, " Add": 4775, " mentioned": 4776, " interests": 4777, " abuse": 4778, "\u00e2\u0121\u0135\u00e2\u0121": 4779, "pective": 4780, " Jim": 4781, " Pre": 4782, "More": 4783, " hasn": 4784, " PC": 4785, "Le": 4786, " initi": 4787, " kid": 4788, " enforcement": 4789, " GOP": 4790, " introduced": 4791, " deliver": 4792, " conflict": 4793, " Mer": 4794, " Microsoft": 4795, "\u0135\u00e2\u0121\u0135": 4796, " phil": 4797, " update": 4798, " missing": 4799, " providing": 4800, " waiting": 4801, " cancer": 4802, "la": 4803, "39": 4804, " recommend": 4805, "ocracy": 4806, " established": 4807, "bour": 4808, "isation": 4809, " eat": 4810, " Yes": 4811, " occup": 4812, " Frank": 4813, " Jeff": 4814, " Angeles": 4815, " removed": 4816, " 2005": 4817, "ula": 4818, " offensive": 4819, " Fore": 4820, " Instead": 4821, "icon": 4822, " injury": 4823, " sports": 4824, "47": 4825, " fant": 4826, " discussion": 4827, "vant": 4828, " operation": 4829, " download": 4830, " useful": 4831, " newsp": 4832, " conversation": 4833, " homes": 4834, "ronic": 4835, " south": 4836, " cook": 4837, " CEO": 4838, " assess": 4839, "itz": 4840, " Group": 4841, "formation": 4842, "lig": 4843, " banks": 4844, "onto": 4845, " stopped": 4846, " Step": 4847, " Const": 4848, " obvious": 4849, "ications": 4850, " measures": 4851, " models": 4852, " Kh": 4853, " fourth": 4854, " MP": 4855, "Our": 4856, "season": 4857, "what": 4858, " bul": 4859, "DA": 4860, " 2018": 4861, "anda": 4862, " files": 4863, " girls": 4864, " Louis": 4865, " stick": 4866, "cks": 4867, "azine": 4868, "mail": 4869, "umn": 4870, " managed": 4871, "iter": 4872, "apped": 4873, "oted": 4874, " figures": 4875, "oms": 4876, " Tim": 4877, " Leg": 4878, " identified": 4879, " graph": 4880, " Jud": 4882, " Sal": 4883, " finished": 4884, "Pl": 4885, " funds": 4886, " Pakistan": 4887, "real": 4888, " setting": 4889, " conclud": 4890, " prefer": 4891, " hair": 4892, " committed": 4893, " Mexico": 4894, "49": 4895, " skills": 4896, " appropri": 4897, " spirit": 4898, " Rock": 4899, " veter": 4900, " focused": 4901, " arrived": 4902, " THE": 4903, " housing": 4904, " keeping": 4905, " therefore": 4906, "ros": 4907, " acknow": 4908, " detect": 4909, "ulate": 4910, "Des": 4911, " partner": 4912, " exclus": 4913, "igan": 4914, " Android": 4915, "enses": 4916, "rd": 4917, "ups": 4918, " earth": 4919, " transl": 4920, "place": 4921, " tough": 4922, "kin": 4923, "outs": 4924, " Japanese": 4925, " 2000": 4926, " relatively": 4927, "\u00c3\u00a1": 4928, " Supreme": 4929, "owl": 4930, "wing": 4931, " identity": 4932, " feels": 4933, "gl": 4934, " Met": 4935, " otherwise": 4936, " survey": 4937, " Ryan": 4938, "ocal": 4939, "RA": 4940, "ication": 4941, "itutional": 4942, " protection": 4943, " exchange": 4944, " owner": 4945, " Virgin": 4946, "isf": 4947, "Trump": 4948, " trip": 4949, " steps": 4950, " husband": 4951, " Inter": 4952, "agn": 4953, " Mont": 4954, " tweet": 4955, " connection": 4956, " Army": 4957, " slightly": 4958, " Prof": 4959, "eah": 4960, " Sur": 4961, " weak": 4962, " Government": 4963, "verse": 4964, "\":": 4965, " circum": 4966, " elements": 4967, " click": 4968, " Richard": 4969, " strike": 4970, " photos": 4971, " mere": 4972, " defensive": 4973, "dden": 4974, " gain": 4975, " fle": 4976, " depend": 4977, "ucky": 4978, " collection": 4979, "gar": 4980, "onym": 4981, " killing": 4982, " roll": 4983, "ighter": 4984, "hens": 4985, "Go": 4986, " corner": 4987, "ka": 4988, "ancing": 4989, "odies": 4990, " suggests": 4991, "uct": 4992, " aggress": 4993, "with": 4994, "prof": 4995, " guard": 4996, "Photo": 4997, " gender": 4998, "makers": 4999, " College": 5000, " commission": 5001, " Although": 5002, "range": 5003, " dat": 5004, "46": 5005, " Ir": 5006, " Dec": 5007, " mental": 5008, "icide": 5009, "rees": 5010, " amazing": 5011, " Sub": 5012, "hi": 5013, " planet": 5014, " Team": 5015, "rency": 5016, " Out": 5017, " bigger": 5018, "ym": 5019, " failure": 5020, " Jose": 5021, " supply": 5022, "Why": 5023, "ania": 5024, " Nor": 5025, " starts": 5026, " sides": 5027, "hedul": 5028, "iser": 5029, " familiar": 5030, " remind": 5031, " sust": 5032, " spect": 5033, "ils": 5034, "uate": 5035, " speaking": 5036, "ano": 5037, " talks": 5038, " happening": 5039, "gypt": 5040, " organizations": 5041, " hate": 5042, " window": 5043, " army": 5044, " Good": 5045, " Joe": 5046, " none": 5047, "uke": 5048, " taxes": 5049, " planned": 5050, " Martin": 5051, " Pet": 5052, " thanks": 5053, " Mary": 5054, " struct": 5055, " pit": 5056, " decide": 5057, " sudden": 5058, " wish": 5059, " crew": 5060, " carried": 5061, " appoint": 5062, "oston": 5063, " pet": 5064, "mas": 5065, "awn": 5066, "eless": 5067, "agues": 5068, "ynam": 5069, " regist": 5070, "TC": 5071, " multi": 5072, "idering": 5073, " helping": 5074, "Last": 5075, " award": 5076, " standards": 5077, " 32": 5078, " Fire": 5079, " revolution": 5080, " environmental": 5081, "].": 5082, " Web": 5083, "arsh": 5084, " Thomas": 5085, "olit": 5086, " script": 5087, "pm": 5088, "ola": 5089, " seconds": 5090, "run": 5091, " Research": 5092, "gn": 5093, " scientific": 5094, " immigration": 5095, " Bern": 5096, " standing": 5097, " Their": 5098, " 45": 5099, "stream": 5100, "ocol": 5101, " que": 5102, " beer": 5103, " domestic": 5104, "imal": 5105, "adium": 5106, " pair": 5107, "uters": 5108, " Also": 5109, " Secretary": 5110, " Us": 5111, " academ": 5112, " cold": 5113, " variety": 5114, " markets": 5115, "aven": 5116, " sch": 5117, "HL": 5118, " territ": 5119, " dropped": 5120, "fe": 5121, " accounts": 5122, "!\"": 5123, " Atlant": 5124, " filed": 5125, "erous": 5126, "acks": 5127, "illa": 5128, " balance": 5129, "lo": 5130, " impossible": 5131, " Ter": 5132, " interact": 5133, " neighborhood": 5134, " degree": 5135, "Read": 5136, " turns": 5137, "itect": 5138, " possibly": 5139, " appre": 5140, " operating": 5141, " princ": 5142, " alternative": 5143, " union": 5144, " votes": 5145, " vul": 5146, "ader": 5147, " professor": 5148, " tack": 5149, " Service": 5150, " increasingly": 5151, "ayer": 5152, "ruit": 5153, " apply": 5154, " fellow": 5155, " cuts": 5156, "ores": 5157, " honest": 5158, " Prime": 5159, " univers": 5160, " server": 5161, " developers": 5162, "arks": 5163, " Syrian": 5164, " apparently": 5165, "vis": 5166, "stein": 5167, " lived": 5168, " changing": 5169, " worry": 5170, "rastructure": 5171, " Carolina": 5172, " tests": 5173, " units": 5174, " rich": 5175, " Two": 5176, "aren": 5177, "cious": 5178, "icted": 5179, "From": 5180, "aded": 5181, " humans": 5182, "IM": 5183, " Foundation": 5184, " Mos": 5185, " agencies": 5186, " sounds": 5187, "ashed": 5188, " twice": 5189, " ultimately": 5190, "obby": 5191, " losing": 5192, " philos": 5193, " authority": 5194, " soldiers": 5195, "\u00e3\u0124": 5196, " animal": 5197, " Images": 5198, " settle": 5199, " ath": 5200, " schedul": 5201, " mut": 5202, " colle": 5203, " corporate": 5204, " absolutely": 5205, " healthy": 5206, " paying": 5207, "och": 5208, " equip": 5209, "iams": 5210, "gu": 5211, " developing": 5212, " sea": 5213, " Time": 5214, " Den": 5215, " closer": 5216, " innov": 5217, "related": 5218, " seeking": 5219, " regarding": 5220, "coh": 5221, " skin": 5222, " expensive": 5223, "ansion": 5224, " possibility": 5225, " beautiful": 5226, " religion": 5227, " apart": 5228, " Central": 5229, " fundament": 5230, " experts": 5231, " solar": 5232, "65": 5233, " yards": 5234, " vast": 5235, " writer": 5236, " flight": 5237, " District": 5238, " Last": 5239, " deploy": 5240, " adjust": 5241, "Of": 5242, " internal": 5243, " tast": 5244, " Under": 5245, " Lat": 5246, " Peter": 5247, "apers": 5248, " imagine": 5249, " Jon": 5250, "IV": 5251, " applications": 5252, "ologies": 5253, "31": 5254, " vision": 5255, "look": 5256, "state": 5257, "osen": 5258, " Francisco": 5259, "iot": 5260, " Toronto": 5261, " sitting": 5262, " Plan": 5263, " trail": 5264, " unless": 5265, " USA": 5266, " Jes": 5267, "isted": 5268, " heat": 5269, " 2004": 5270, "IP": 5271, "Even": 5272, " responsibility": 5273, " capacity": 5274, "atures": 5275, " Middle": 5276, " error": 5277, "aine": 5278, " symb": 5279, " fol": 5280, "pire": 5281, " arms": 5282, " pil": 5283, " gar": 5284, " covered": 5285, "idden": 5286, "ias": 5287, " famous": 5288, " Camp": 5289, " forms": 5290, "uzz": 5291, "ND": 5292, " university": 5293, " guarant": 5294, " tight": 5295, " presented": 5296, "ortion": 5297, "oving": 5298, "enced": 5299, " ST": 5300, " clim": 5301, " Egypt": 5302, " earn": 5303, " Put": 5304, " convention": 5305, "under": 5306, "Just": 5307, " Public": 5308, " surprise": 5309, " attorney": 5310, " elections": 5311, " estimated": 5312, " fif": 5313, " Mur": 5314, " Ari": 5315, " teen": 5316, " instit": 5317, " vehicles": 5318, "rible": 5319, " Amazon": 5320, "road": 5321, " intended": 5322, " rid": 5323, " odd": 5324, " helps": 5325, " occurred": 5326, "person": 5327, "ala": 5328, " streets": 5329, "uster": 5330, "hand": 5331, " Boston": 5332, " Sol": 5333, "roud": 5334, " sport": 5335, "=\"": 5336, "sen": 5337, " determine": 5338, "ressive": 5339, " Bitcoin": 5340, " expert": 5341, " schem": 5342, "alls": 5343, " consult": 5344, "uration": 5345, " broken": 5346, "Let": 5347, "lets": 5348, " fired": 5349, " ton": 5350, " flow": 5351, " domin": 5352, "porary": 5353, "eder": 5354, "LE": 5355, " shall": 5356, " reserv": 5357, "Up": 5358, " troops": 5359, "ION": 5360, " Those": 5361, " hyp": 5362, " nar": 5363, "terday": 5364, " pieces": 5365, " Chief": 5366, " prepared": 5367, " Mass": 5368, " Cath": 5369, " rapid": 5370, "orage": 5371, " Jo": 5372, " located": 5373, " Social": 5374, " baby": 5375, " conclus": 5376, " bringing": 5377, "anche": 5378, " Prot": 5379, " prove": 5380, " specifically": 5381, " Any": 5382, " potentially": 5383, " sector": 5384, " random": 5385, " jail": 5386, "OW": 5387, " selling": 5388, " governments": 5389, " Once": 5390, " equal": 5391, "Ab": 5392, "class": 5393, "war": 5394, " faster": 5395, " heav": 5396, " Spr": 5397, " boost": 5398, "useum": 5399, "vey": 5400, " proposal": 5401, "oty": 5402, " factors": 5403, " clin": 5404, " Gal": 5405, " plenty": 5406, "TH": 5407, " equipment": 5408, " council": 5409, " era": 5410, " infrastructure": 5411, "Do": 5412, " stress": 5413, "phas": 5414, " stars": 5415, " Journal": 5416, " Rub": 5417, "endment": 5418, " Virginia": 5419, " breat": 5420, " prosecut": 5421, " voted": 5422, " offering": 5423, " carbon": 5424, "inent": 5425, " expressed": 5426, " vulner": 5427, " combat": 5428, " broke": 5429, "()": 5430, "ureau": 5431, " clot": 5432, " Cur": 5433, "ours": 5434, " Federal": 5435, " ruling": 5436, " retail": 5437, " Guard": 5438, " refused": 5439, " dram": 5440, " elected": 5441, "anish": 5442, " Open": 5443, " River": 5444, "Every": 5445, " secure": 5446, "cean": 5447, " seasons": 5448, " conducted": 5449, ",'": 5450, " Paris": 5451, "ht": 5452, " challenges": 5453, " remove": 5454, "isher": 5455, " Sant": 5456, "rog": 5457, " methods": 5458, " weapon": 5459, "noon": 5460, " pointed": 5461, " Island": 5462, " master": 5463, " remained": 5464, " Australian": 5465, " prime": 5466, "ENT": 5467, " trig": 5468, " positions": 5469, " Cru": 5470, " din": 5471, " Mel": 5472, " criticism": 5473, "ipping": 5474, "First": 5475, "ocking": 5476, " Medic": 5477, " Please": 5478, "onom": 5479, "IG": 5480, " sale": 5481, "olved": 5482, " Fe": 5483, " cultural": 5484, "that": 5485, " weren": 5486, " significantly": 5487, " brow": 5488, "etic": 5489, " originally": 5490, "rie": 5491, " During": 5492, " affected": 5493, " appearance": 5494, " cas": 5495, " tourn": 5496, " facing": 5497, " greatest": 5498, " finish": 5499, " Lee": 5500, " stret": 5501, " youth": 5502, "yr": 5503, " tele": 5504, " Who": 5505, " percentage": 5506, " Photo": 5507, "col": 5508, " determined": 5509, " signs": 5510, " involve": 5511, "95": 5512, "cel": 5513, "\u00d0\u00b8": 5514, " thank": 5515, " bought": 5516, " 500": 5517, "lyn": 5518, "standing": 5519, " chemical": 5520, "ashion": 5521, "64": 5522, " shape": 5523, " Sing": 5524, " regime": 5525, " grew": 5526, "pired": 5527, " remaining": 5528, " Steve": 5529, "lymp": 5530, " minimum": 5531, " Saud": 5532, "reens": 5533, " indeed": 5534, " dream": 5535, "rier": 5536, "Since": 5537, " marg": 5538, "Sp": 5539, " Both": 5540, " mode": 5541, " herself": 5542, " voting": 5543, " Color": 5544, " obviously": 5545, " Force": 5546, " Ro": 5547, " reduced": 5548, " Nov": 5549, " wood": 5550, " Rem": 5551, "ordin": 5552, " recorded": 5553, " argued": 5554, " 1990": 5555, " revenue": 5556, " tact": 5557, " wearing": 5558, "aling": 5559, "ighters": 5560, " leads": 5561, "edia": 5562, " hun": 5563, " politicians": 5564, " plus": 5565, " contrast": 5566, " switch": 5567, " handle": 5568, " purchase": 5569, " thr": 5570, " subs": 5571, " concent": 5572, " proced": 5573, "\u00d1\u0123": 5574, " agent": 5575, "hab": 5576, "arp": 5577, "mm": 5578, " Williams": 5579, " appreci": 5580, " experienced": 5581, " hurt": 5582, "top": 5583, " excited": 5584, " videos": 5585, " https": 5586, "cohol": 5587, " supporting": 5588, "DP": 5589, " Haw": 5590, "ownt": 5591, " vir": 5592, " Free": 5593, " surprising": 5594, " minute": 5595, " explos": 5596, " belong": 5597, " consumers": 5598, " identify": 5599, " considering": 5600, " Pac": 5601, " Conserv": 5602, "ller": 5603, "apter": 5604, " aircraft": 5605, " rent": 5606, " aid": 5607, "CL": 5608, " pulled": 5609, "gment": 5610, " basically": 5611, " differences": 5612, "ogue": 5613, " Book": 5614, " glass": 5615, " Rad": 5616, " afternoon": 5617, " shift": 5618, " diss": 5619, " depart": 5620, " ends": 5621, "essions": 5622, " turning": 5623, " bound": 5624, " films": 5625, " spring": 5626, " prospect": 5627, "ruption": 5628, "ket": 5629, " Charl": 5630, " mort": 5631, "life": 5632, " treated": 5633, " accident": 5634, ",[": 5635, " motiv": 5636, " listen": 5637, " seat": 5638, " Power": 5639, " combined": 5640, " construct": 5641, "Ind": 5642, " seriously": 5643, " privacy": 5644, "apping": 5645, " evening": 5646, "hered": 5647, "hy": 5648, " opportunities": 5649, "asp": 5650, " struggle": 5651, " 195": 5652, " panel": 5653, " enemy": 5654, " lots": 5655, " completed": 5656, " Daily": 5657, " visual": 5658, "His": 5659, "Phone": 5660, "pet": 5661, " talked": 5662, " cart": 5663, " hopes": 5664, "uts": 5665, " passing": 5666, "oral": 5667, " id": 5668, " apps": 5669, "osite": 5670, "05": 5671, "gent": 5672, "PD": 5673, " calcul": 5674, "Another": 5675, " widely": 5676, "ensions": 5677, " emergency": 5678, " Hol": 5679, "amm": 5680, " Show": 5681, " suit": 5682, " element": 5683, " ast": 5684, "anged": 5685, "SS": 5686, "ucks": 5687, "aled": 5688, " powers": 5689, "ato": 5690, " Rel": 5691, " BBC": 5692, " Olymp": 5693, " burn": 5694, "TV": 5695, " discl": 5696, "Pe": 5697, " plants": 5698, " flat": 5699, " Space": 5700, " liberal": 5701, "raud": 5702, "obe": 5703, " opposed": 5704, " sad": 5705, "Well": 5706, " proceed": 5707, "ompl": 5708, " copyright": 5709, " Project": 5710, "oking": 5711, " advance": 5712, " factor": 5713, " distance": 5714, " 2003": 5715, "ivered": 5716, " dismiss": 5717, "plom": 5718, " attempts": 5719, " tun": 5720, " Matt": 5721, "Am": 5722, " Road": 5723, "abilities": 5724, "sts": 5725, " IN": 5726, "ributed": 5727, " trouble": 5728, "unction": 5729, " hol": 5730, " collabor": 5731, " default": 5732, "idel": 5733, " Bet": 5734, " zone": 5735, " Jackson": 5736, " upgr": 5737, "ita": 5738, "rawn": 5739, "Cont": 5740, " reaction": 5741, " storm": 5742, " reporters": 5743, " Mem": 5744, " frust": 5745, "PR": 5746, "nell": 5747, " writes": 5748, "adow": 5749, "mosp": 5750, "mond": 5751, "aints": 5752, " typically": 5753, " Today": 5754, "lines": 5755, "respond": 5756, "UT": 5757, " pages": 5758, " instruct": 5759, "inian": 5760, "ternal": 5761, "eds": 5762, " reference": 5763, " grab": 5764, "zer": 5765, " package": 5766, " bodies": 5767, " matters": 5768, "free": 5769, "01": 5770, " denied": 5771, "care": 5772, "App": 5773, " quant": 5774, " disappoint": 5775, " sem": 5776, " explo": 5777, " NAS": 5778, " optim": 5779, "ache": 5780, " quiet": 5781, " entertain": 5782, " responded": 5783, " approved": 5784, " Turkey": 5785, " satisf": 5786, "aped": 5787, " broadcast": 5788, "esters": 5789, " institutions": 5790, " advert": 5791, "42": 5792, " stands": 5793, " Director": 5794, " sets": 5795, "estival": 5796, " elimin": 5797, "razy": 5798, "ga": 5799, "\u00c3\u00a4": 5800, "Rep": 5801, "host": 5802, " valid": 5803, " renew": 5804, " Ohio": 5805, "elly": 5806, " split": 5807, " severe": 5808, " William": 5809, " sac": 5810, " capable": 5811, " Penn": 5812, " 2001": 5813, " //": 5814, " pitch": 5815, "aniel": 5816, " caption": 5817, " loved": 5818, " technical": 5819, " giant": 5820, "pass": 5821, " tradition": 5822, "isters": 5823, " cann": 5824, "rant": 5825, " prompt": 5826, " bull": 5827, " confident": 5828, "uous": 5829, " confidence": 5830, "rum": 5831, "abin": 5832, " numerous": 5833, " reportedly": 5834, " Ma": 5835, " faces": 5836, "],": 5837, "writ": 5838, " weather": 5839, " fly": 5840, "rid": 5841, " transition": 5842, " 36": 5843, " System": 5844, " Afghanistan": 5845, " Squ": 5846, " creation": 5847, "De": 5848, " perspective": 5849, " unable": 5850, " forget": 5851, " Labour": 5852, " Yet": 5853, "astern": 5854, "employ": 5855, "oken": 5856, " Media": 5857, "angers": 5858, "II": 5859, "unte": 5860, " craft": 5861, " substant": 5862, " cooper": 5863, " violent": 5864, " suffered": 5865, "ilit": 5866, " coast": 5867, " mand": 5868, "ampion": 5869, "43": 5870, " pictures": 5871, " experiences": 5872, " approx": 5873, "abled": 5874, " route": 5875, "88": 5876, "sex": 5877, " flag": 5878, " advice": 5879, " Andrew": 5880, "usiness": 5881, " declared": 5882, " ordered": 5883, " Human": 5884, "razil": 5885, " crimes": 5886, " coff": 5887, "Se": 5888, " proud": 5889, "ishes": 5890, " reporting": 5891, " messages": 5892, " circumst": 5893, " findings": 5894, "Res": 5895, "ulations": 5896, " eval": 5897, " excell": 5898, "Over": 5899, " declined": 5900, " explains": 5901, " Lin": 5902, " Wal": 5903, " delay": 5904, " \\": 5905, " Follow": 5906, " newspaper": 5907, "ounded": 5908, " connected": 5909, "ilty": 5910, " shouldn": 5911, " mal": 5912, "evin": 5913, "oves": 5914, " ongoing": 5915, "can": 5916, " cloud": 5917, "dule": 5918, " movies": 5919, " picked": 5920, "ionally": 5921, "resents": 5922, "77": 5923, " admitted": 5924, " gra": 5925, " delivered": 5926, "During": 5927, " guns": 5928, " ML": 5929, " Scot": 5930, " walking": 5931, " agents": 5932, "called": 5933, "tion": 5934, " prin": 5935, " editor": 5936, " thoughts": 5937, " married": 5938, " Tra": 5939, " auth": 5940, " emails": 5941, " appropriate": 5942, "edd": 5943, " emphas": 5944, " Rod": 5945, "uations": 5946, " edge": 5947, " architect": 5948, " Grand": 5949, " leaves": 5950, " updates": 5951, " accompl": 5952, "OD": 5953, " gather": 5954, " forg": 5955, " Muslims": 5956, "ansas": 5957, " Wood": 5958, " quarterback": 5959, " session": 5960, "ooth": 5961, " pool": 5962, " Techn": 5963, " Science": 5964, "cos": 5965, " injured": 5966, " publicly": 5967, "ellow": 5968, " Sov": 5969, " statements": 5970, "arn": 5971, " perman": 5972, "arl": 5973, " legit": 5974, " confirm": 5975, "nergy": 5976, " Lake": 5977, " ourselves": 5978, "Other": 5979, " realize": 5980, " rot": 5981, " drivers": 5982, "MA": 5983, " Av": 5984, " Dou": 5985, "mates": 5986, ",\u00e2\u0121\u013a": 5987, " armed": 5988, "essor": 5989, " dial": 5990, "cons": 5991, "TA": 5992, " lawyer": 5993, "ourney": 5994, " rail": 5995, " readers": 5996, "reland": 5997, " contains": 5998, " argue": 5999, " Rev": 6000, " talent": 6001, " filled": 6002, " Sum": 6003, " allegations": 6004, " activists": 6005, " Christmas": 6006, " dynam": 6007, " 1980": 6008, " Michigan": 6009, "date": 6010, " Back": 6011, " Ron": 6012, " crack": 6013, " transform": 6014, "Tube": 6015, " Read": 6016, " Ill": 6017, " buildings": 6018, "long": 6019, " wear": 6020, "Many": 6021, " sam": 6022, " terrorist": 6023, " tree": 6024, " exercise": 6025, "enda": 6026, " label": 6027, " effectively": 6028, "Oh": 6029, " practices": 6030, " god": 6031, " subsequ": 6032, " Jul": 6033, " Sher": 6034, " flo": 6035, "uls": 6036, " fish": 6037, "TS": 6038, "ette": 6039, "enture": 6040, " shop": 6041, " examples": 6042, "41": 6043, " Hy": 6044, " patient": 6045, " Gen": 6046, " Seattle": 6047, " objects": 6048, " tech": 6049, " See": 6050, " secretary": 6051, "gia": 6052, "asure": 6053, " rain": 6054, "urning": 6055, " missed": 6056, " causes": 6057, "illy": 6058, " debut": 6059, " essentially": 6060, "66": 6061, " moral": 6062, "orders": 6063, "ador": 6064, "word": 6065, "acter": 6066, " Work": 6067, "def": 6068, "arters": 6069, " Ukraine": 6070, " centre": 6071, "amin": 6072, "hedule": 6073, "Follow": 6074, " Vict": 6075, " ID": 6076, " injuries": 6077, "icing": 6078, " Phot": 6079, " Stan": 6080, " motor": 6081, " iPhone": 6082, " artist": 6083, " client": 6084, " bond": 6085, " thinks": 6086, "iat": 6087, "aza": 6088, "orse": 6089, "ouston": 6090, " pure": 6091, " hell": 6092, "Although": 6093, " Saudi": 6094, " facts": 6095, "\u0123\u00ac": 6096, " desire": 6097, "agers": 6098, " ske": 6099, "orry": 6100, " linked": 6101, "\u00c3\u0142": 6102, " governor": 6103, " materials": 6104, " performed": 6105, "Spe": 6106, " franch": 6107, "esome": 6108, "nan": 6109, " suc": 6110, " philosoph": 6111, " initially": 6112, " Sign": 6113, " necessarily": 6114, " Kim": 6115, " Bat": 6116, " Fer": 6117, " expansion": 6118, " scheduled": 6119, "water": 6120, "ERS": 6121, " warned": 6122, "iest": 6123, " diplom": 6124, " advanced": 6125, " explan": 6126, " ing": 6127, " vari": 6128, " everybody": 6129, " joint": 6130, " decre": 6131, " resolution": 6132, " increases": 6133, "enger": 6134, "Yes": 6135, " accepted": 6136, " incor": 6137, " myster": 6138, " faced": 6139, " van": 6140, " bare": 6141, "illance": 6142, " Mount": 6143, " announcement": 6144, " follows": 6145, " nations": 6146, " playoff": 6147, " Life": 6148, " abandon": 6149, " Second": 6150, " Id": 6151, " radical": 6152, " athlet": 6153, " neither": 6154, " yesterday": 6155, " datab": 6156, " nearby": 6157, " distribution": 6158, "otic": 6159, " applied": 6160, "irty": 6161, " magazine": 6162, "Most": 6163, "athan": 6164, "rich": 6165, " mir": 6166, " consequences": 6167, " doctor": 6168, "uy": 6169, " listed": 6170, " fort": 6171, " Columb": 6172, " atmosp": 6173, "American": 6174, " surprised": 6175, " offense": 6176, "Qu": 6177, "itors": 6178, " CNN": 6179, " RE": 6180, " spons": 6181, " begins": 6182, " Week": 6183, " threats": 6184, "sembly": 6185, " represents": 6186, " Jews": 6187, " GM": 6188, " Aff": 6189, " enh": 6190, " moves": 6191, " remark": 6192, " TO": 6193, " songs": 6194, " pra": 6195, "kay": 6196, " chart": 6197, " behavi": 6198, " Dan": 6199, " ride": 6200, " adds": 6201, " withd": 6202, "Can": 6203, "\u00c3\u0123": 6204, " improved": 6205, " phen": 6206, " Blue": 6207, " bot": 6208, " warm": 6209, " af": 6210, " alcohol": 6211, "rip": 6212, " AT": 6213, " output": 6214, "law": 6215, " flood": 6216, " Develop": 6217, " Hen": 6218, "whel": 6219, "edy": 6220, " shots": 6221, " fill": 6222, " Vol": 6223, " alt": 6224, " stood": 6225, " brings": 6226, " pushed": 6227, " guilty": 6228, " Romney": 6229, " subscrib": 6230, "85": 6231, " entry": 6232, "ocratic": 6233, " Brazil": 6234, " democracy": 6235, " boys": 6236, "burg": 6237, " 33": 6238, " row": 6239, " config": 6240, " restaurant": 6241, " NBA": 6242, " lawsuit": 6243, " Dev": 6244, " Ireland": 6245, "acle": 6246, " manufacture": 6247, " receiving": 6248, " rein": 6249, " Barack": 6250, "Then": 6251, " trib": 6252, " totally": 6253, " Only": 6254, " discussed": 6255, " sought": 6256, " rising": 6257, " entered": 6258, " ISIS": 6259, " Board": 6260, " 300": 6261, " consistent": 6262, " historical": 6263, "twitter": 6264, "ideo": 6265, " storage": 6266, " correspond": 6267, " plane": 6268, " combination": 6269, " scored": 6270, " input": 6271, " symbol": 6272, " bright": 6273, " button": 6274, "irds": 6275, " succeed": 6276, "stood": 6277, " creative": 6278, " investors": 6279, " square": 6280, " articles": 6281, " 2002": 6282, " island": 6283, " deaths": 6284, " scr": 6285, " functions": 6286, " networks": 6287, " classes": 6288, " unlikely": 6289, "alty": 6290, " Prem": 6291, " heads": 6292, " boss": 6293, "ician": 6294, " native": 6295, "icious": 6296, " lie": 6297, " sav": 6298, " Lib": 6299, " roughly": 6300, " consumer": 6301, " Str": 6302, " Whe": 6303, " Walk": 6304, "fortunately": 6305, " Ms": 6306, " string": 6307, " Maybe": 6308, " heavily": 6309, " Another": 6310, " fairly": 6311, " temperature": 6312, "arden": 6313, " kit": 6314, " existence": 6315, " Its": 6316, " Asia": 6317, " contest": 6318, " plot": 6319, "issions": 6320, " Cub": 6321, " resident": 6322, "usal": 6323, " targets": 6324, " Bob": 6325, " resc": 6326, " Korean": 6327, "ican": 6328, "duc": 6329, " lock": 6330, " younger": 6331, " colleagues": 6332, "',": 6333, " Swed": 6334, "PU": 6335, "abb": 6336, " library": 6337, "\u00c3\u00b6": 6338, " rally": 6339, " parliament": 6340, " protests": 6341, " anywhere": 6342, "oked": 6343, " Sports": 6344, " Sky": 6345, " bike": 6346, "zona": 6347, " breaking": 6348, " sym": 6349, " stores": 6350, " expression": 6351, " waste": 6352, " chain": 6353, " blow": 6354, " warning": 6355, " importance": 6356, " defined": 6357, " buying": 6358, " manage": 6359, " prohib": 6360, "ii": 6361, " classic": 6362, " cere": 6363, " snow": 6364, " adults": 6365, " illust": 6366, " Each": 6367, "See": 6368, "Ob": 6369, " marketing": 6370, " links": 6371, "\u00c3\u00b3": 6372, "born": 6373, " shif": 6374, "iques": 6375, "andal": 6376, " Club": 6377, " tow": 6378, " Hist": 6379, " fraud": 6380, "OC": 6381, "dis": 6382, " facility": 6383, "ollywood": 6384, "erences": 6385, " hardware": 6386, " schol": 6387, " allegedly": 6388, " 37": 6389, " regulations": 6390, "pret": 6391, " doctors": 6392, " bon": 6393, " Colorado": 6394, " currency": 6395, " household": 6396, " replaced": 6397, " essential": 6398, " Ram": 6399, "agan": 6400, "Man": 6401, " empt": 6402, "opy": 6403, "onna": 6404, " somewhat": 6405, " Div": 6406, "press": 6407, "86": 6408, " nav": 6409, "power": 6410, " favour": 6411, " promise": 6412, " DC": 6413, " Boy": 6414, " laugh": 6415, "Pol": 6416, " Rights": 6417, "ena": 6418, " holds": 6419, " opposite": 6420, "ocket": 6421, " tom": 6422, "\u00d1\u0122": 6423, " moments": 6424, "west": 6425, " hat": 6426, "tering": 6427, " opponent": 6428, " bug": 6429, " Far": 6430, "cho": 6431, " campus": 6432, " acts": 6433, " rum": 6434, "etroit": 6435, " versions": 6436, " motion": 6437, " metal": 6438, "hips": 6439, " evolution": 6440, "ometimes": 6441, " vice": 6442, " relevant": 6443, " sees": 6444, " Image": 6445, " bag": 6446, " industrial": 6447, " zero": 6448, "IR": 6449, " sick": 6450, " downt": 6451, "oma": 6452, " closely": 6453, "hetic": 6454, " emotional": 6455, "chen": 6456, "game": 6457, "IF": 6458, " YouTube": 6459, " Year": 6460, " fewer": 6461, " division": 6462, "olve": 6463, " adm": 6464, "va": 6465, " harder": 6466, " customer": 6467, " hoping": 6468, "ologist": 6469, " Brook": 6470, "Donald": 6471, " Valley": 6472, "En": 6473, " hur": 6474, " mechanism": 6475, "ittle": 6476, "inem": 6477, " Gra": 6478, " Houston": 6479, "ml": 6480, " Elect": 6481, " returns": 6482, "NC": 6483, "atell": 6484, " volunte": 6485, " participants": 6486, " extent": 6487, " intention": 6488, "esc": 6489, "alian": 6490, "ellect": 6491, " excellent": 6492, " Soviet": 6493, " acknowled": 6494, " syn": 6495, "ulous": 6496, "oming": 6497, " Mot": 6498, " batt": 6499, " Games": 6500, " squad": 6501, " circumstances": 6502, "pan": 6503, " fashion": 6504, " isol": 6505, "\u00c3\u00bc": 6506, "otal": 6507, "greg": 6508, " immediate": 6509, " Eric": 6510, " suffering": 6511, " Watch": 6512, "str": 6513, " lies": 6514, " tiny": 6515, " authors": 6516, " 38": 6517, " grown": 6518, "iger": 6519, " Gar": 6520, "ora": 6521, "po": 6522, "efully": 6523, " immigrants": 6524, "\u00c3\u0124": 6525, "print": 6526, " kinds": 6527, "utch": 6528, " 49": 6529, " Die": 6530, " cheap": 6531, " mine": 6532, " detailed": 6533, " Hel": 6534, "ordan": 6535, "name": 6536, " featured": 6537, "iki": 6538, "ayers": 6539, " meat": 6540, " Sar": 6541, " unus": 6542, " Aut": 6543, " IP": 6544, " competitive": 6545, " describe": 6546, " formed": 6547, " Home": 6548, "nic": 6549, "friend": 6550, "certain": 6551, " carrying": 6552, " tournament": 6553, " trick": 6554, "nam": 6555, " relationships": 6556, " fundamental": 6557, "kel": 6558, " wave": 6559, " cycle": 6560, " crazy": 6561, " Cy": 6562, " signing": 6563, " Way": 6564, " termin": 6565, " guide": 6566, " wins": 6567, " Catholic": 6568, " earned": 6569, " decline": 6570, " regional": 6571, "ensus": 6572, "style": 6573, " embr": 6574, " strange": 6575, " Palestinian": 6576, " Jesus": 6577, " Ann": 6578, "bar": 6579, " Long": 6580, " ancient": 6581, " frequently": 6582, " acting": 6583, " Putin": 6584, " manner": 6585, " efficient": 6586, "rome": 6587, " pushing": 6588, " CIA": 6589, " comfortable": 6590, " Card": 6591, " pip": 6592, " Er": 6593, "ORE": 6594, "Per": 6595, " sharing": 6596, " wire": 6597, " skill": 6598, " Econom": 6599, "ockey": 6600, "chers": 6601, " instru": 6602, " Ell": 6603, " owned": 6604, "awa": 6605, " commitment": 6606, " alongside": 6607, " OF": 6608, "uated": 6609, " Lord": 6610, "anes": 6611, " Davis": 6612, "rison": 6613, " controversial": 6614, " artists": 6615, " referred": 6616, "weight": 6617, " egg": 6618, " mouth": 6619, " repeatedly": 6620, "06": 6621, " 48": 6622, " Top": 6623, "\u00ef\u00bf": 6624, " 34": 6625, "FP": 6626, " attempted": 6627, " femin": 6628, "\u00d0\u00be\u00d0": 6629, "umber": 6630, " updated": 6631, "foot": 6632, " cert": 6633, "ua": 6634, " pregn": 6635, " Old": 6636, " schedule": 6637, "xy": 6638, " PS": 6639, "amily": 6640, "adel": 6641, " dedicated": 6642, " AL": 6643, " sentence": 6644, "vin": 6645, " upcoming": 6646, " Right": 6647, " NY": 6648, "bel": 6649, " Down": 6650, " Di": 6651, " column": 6652, "hus": 6653, " depth": 6654, "09": 6655, " pled": 6656, " virtual": 6657, "uable": 6658, " journey": 6659, " struck": 6660, "\u00d1\u0121": 6661, " desk": 6662, " studio": 6663, " realized": 6664, " Energy": 6665, "Despite": 6666, "ceived": 6667, "%)": 6668, "ographic": 6669, "ugh": 6670, " medic": 6671, "DS": 6672, "iami": 6673, " serving": 6674, " walked": 6675, "rive": 6676, "iveness": 6677, " king": 6678, " ring": 6679, "ko": 6680, " reput": 6681, "you": 6682, " urban": 6683, "phy": 6684, " Cle": 6685, " Charles": 6686, " Wild": 6687, " targeted": 6688, " channel": 6689, " assets": 6690, "luding": 6691, " tort": 6692, " inspired": 6693, " hotel": 6694, " Arizona": 6695, "08": 6696, " posts": 6697, " newslet": 6698, "Like": 6699, "Two": 6700, " Supp": 6701, " universe": 6702, "07": 6703, " agenda": 6704, " causing": 6705, " watched": 6706, " suicide": 6707, " stream": 6708, " overwhel": 6709, " Py": 6710, " Men": 6711, " usual": 6712, " surveillance": 6713, "mem": 6714, " intent": 6715, "sole": 6716, "People": 6717, " liqu": 6718, " sister": 6719, " opponents": 6720, " chairman": 6721, " du": 6722, " Wars": 6723, " Cruz": 6724, " mainstream": 6725, " latter": 6726, " hall": 6727, " surrounding": 6728, " folks": 6729, " knowing": 6730, " orders": 6731, " Inf": 6732, "omin": 6733, "igg": 6734, " remote": 6735, " 75": 6736, " sand": 6737, " literally": 6738, " Java": 6739, " observed": 6740, " Again": 6741, " subsid": 6742, "gor": 6743, "Fr": 6744, " Defense": 6745, " infl": 6746, "obb": 6747, " Van": 6748, " approval": 6749, "acc": 6750, "iments": 6751, " basket": 6752, "rence": 6753, " teachers": 6754, "azi": 6755, "avor": 6756, "izz": 6757, " winter": 6758, "iciency": 6759, "alle": 6760, " exciting": 6761, "aze": 6762, "aylor": 6763, " Tal": 6764, " format": 6765, "boy": 6766, " congress": 6767, " protected": 6768, "iro": 6769, "ati": 6770, " noticed": 6771, " simpl": 6772, " dealing": 6773, " Young": 6774, "rations": 6775, " Child": 6776, " precise": 6777, "67": 6778, "xual": 6779, " deeply": 6780, " communication": 6781, " gang": 6782, " sending": 6783, "ipl": 6784, " forth": 6785, " Jr": 6786, " fasc": 6787, " battery": 6788, " wal": 6789, "mun": 6790, " sky": 6791, " narr": 6792, " fixed": 6793, "post": 6794, " aside": 6795, " requirements": 6796, "abis": 6797, "ums": 6798, "Int": 6799, " properties": 6800, "rors": 6801, " alive": 6802, " narrow": 6803, " wake": 6804, "allas": 6805, " passion": 6806, " Arch": 6807, "onymous": 6808, " eating": 6809, "Or": 6810, "ensity": 6811, " mistake": 6812, "woman": 6813, " explore": 6814, " coffee": 6815, " 1970": 6816, " Pan": 6817, " rape": 6818, " volume": 6819, " promised": 6820, " diet": 6821, "acking": 6822, " risks": 6823, " exhib": 6824, " Polit": 6825, " Fort": 6826, " sweet": 6827, "May": 6828, "\u00e2\u0121\u013a.": 6829, " Enter": 6830, " Wat": 6831, " neut": 6832, " involving": 6833, " wage": 6834, " selection": 6835, " Max": 6836, " tested": 6837, "ether": 6838, " flu": 6839, "ulture": 6840, " defeat": 6841, " northern": 6842, " reward": 6843, " welcome": 6844, " Cast": 6845, " extended": 6846, " puts": 6847, " territory": 6848, " phenomen": 6849, " unemploy": 6850, " refugees": 6851, " sample": 6852, " height": 6853, " approximately": 6854, " Kevin": 6855, " blame": 6856, " Brad": 6857, " anyway": 6858, "59": 6859, " Detroit": 6860, " destroyed": 6861, "obile": 6862, " sho": 6863, " impressive": 6864, " Stephen": 6865, "asks": 6866, " proof": 6867, " gap": 6868, " dry": 6869, "\u00ef\u00bf\u00bd": 6870, " crash": 6871, " unknown": 6872, " locations": 6873, " selected": 6874, "apse": 6875, " west": 6876, "anges": 6877, "gery": 6878, "stone": 6879, " Fil": 6880, " attacked": 6881, "aire": 6882, " maximum": 6883, " Miller": 6884, " Wilson": 6885, " Tit": 6886, " promote": 6887, " shel": 6888, "aser": 6889, " merely": 6890, " franchise": 6891, "arry": 6892, "04": 6893, "lv": 6894, " requests": 6895, " retire": 6896, " suddenly": 6897, " slowly": 6898, " protesters": 6899, " disag": 6900, " teacher": 6901, "ixt": 6902, " typical": 6903, "ogan": 6904, "dro": 6905, " Women": 6906, " Ins": 6907, "ingu": 6908, " conver": 6909, "list": 6910, " chose": 6911, "ao": 6912, " Camer": 6913, " Class": 6914, " Lu": 6915, " matches": 6916, " prote": 6917, " license": 6918, " properly": 6919, " assume": 6920, "oration": 6921, " discover": 6922, " wid": 6923, " PR": 6924, "Rel": 6925, " Mic": 6926, " worried": 6927, " moder": 6928, "fire": 6929, " abortion": 6930, "owered": 6931, " allies": 6932, " oblig": 6933, " terrorism": 6934, " supports": 6935, " \u00ce": 6936, "uilding": 6937, "\u00c3\u0124\u00c3\u0123": 6938, "inson": 6939, "verty": 6940, " arguments": 6941, " adapt": 6942, " theme": 6943, " confront": 6944, " facilities": 6945, " sustain": 6946, "gender": 6947, " east": 6948, " pal": 6949, " recognize": 6950, "igure": 6951, " fuck": 6952, "\u00c3\u0123\u00c3\u0124\u00c3\u0123": 6953, "\u00c3\u0124\u00c3\u0123\u00c3\u0124": 6954, "lies": 6955, " equival": 6956, " obtained": 6957, " poverty": 6958, " rub": 6959, " Italy": 6960, " nomine": 6961, "03": 6962, " deals": 6963, " fees": 6964, "alo": 6965, "itarian": 6966, "osis": 6967, " Hollywood": 6968, " understood": 6969, " controlled": 6970, "VER": 6971, " Best": 6972, " topic": 6973, " Dam": 6974, " critics": 6975, " Society": 6976, " Agency": 6977, "axy": 6978, " Ford": 6979, " sole": 6980, " Jersey": 6981, "arity": 6982, " village": 6983, "han": 6984, " diagn": 6985, " Administ": 6986, "raid": 6987, " likes": 6988, "celer": 6989, " Four": 6990, "sters": 6991, "68": 6992, " evil": 6993, "Te": 6994, " punish": 6995, " dress": 6996, "cript": 6997, " Georgia": 6998, " bunch": 6999, " Company": 7000, " journalists": 7001, "John": 7002, " exposed": 7003, " ped": 7004, " regions": 7005, "redit": 7006, "ocation": 7007, " communications": 7008, " scheme": 7009, " transp": 7010, " stim": 7011, " limits": 7012, " somehow": 7013, " strongly": 7014, " honor": 7015, " drag": 7016, "aug": 7017, " resistance": 7018, "lls": 7019, " champion": 7020, " Carl": 7021, " Labor": 7022, " constant": 7023, " phase": 7024, " NASA": 7025, "asts": 7026, "pool": 7027, " profit": 7028, " truck": 7029, " condem": 7030, " escape": 7031, " personally": 7032, " Night": 7033, " Dun": 7034, "rimination": 7035, " Land": 7036, " bid": 7037, " NHL": 7038, " Stand": 7039, " vacc": 7040, " deck": 7041, "\u00d0\u00bd": 7042, "nesota": 7043, "iform": 7044, " falling": 7045, "mo": 7046, "GBT": 7047, " Network": 7048, " somewhere": 7049, "cers": 7050, " employee": 7051, " harass": 7052, "ems": 7053, "ads": 7054, "CA": 7055, " bear": 7056, " CD": 7057, "iner": 7058, " comparison": 7059, "orted": 7060, "ciples": 7061, " polls": 7062, "owa": 7063, " inqu": 7064, " Love": 7065, "pected": 7066, " southern": 7067, " decent": 7068, "oric": 7069, "cow": 7070, " Spanish": 7071, " encourage": 7072, " emissions": 7073, " 39": 7074, " View": 7075, " Cam": 7076, "enders": 7077, " empty": 7078, " Miami": 7079, " hits": 7080, "oster": 7081, " definition": 7082, " Kn": 7083, " pic": 7084, "wan": 7085, " directed": 7086, "pes": 7087, " flex": 7088, "zens": 7089, " Ok": 7090, "57": 7091, " meetings": 7092, " End": 7093, " Bell": 7094, " comprom": 7095, " winner": 7096, "intend": 7097, "aun": 7098, "icken": 7099, " gotten": 7100, " Daniel": 7101, " Turk": 7102, " electricity": 7103, " chosen": 7104, " officially": 7105, " bench": 7106, " stretch": 7107, " database": 7108, " Despite": 7109, " spin": 7110, " intellect": 7111, "igation": 7112, " stronger": 7113, " deleg": 7114, " purposes": 7115, " DNA": 7116, "Com": 7117, " cutting": 7118, " Turn": 7119, " fold": 7120, "rary": 7121, " extensive": 7122, " amounts": 7123, " desper": 7124, " trees": 7125, " anx": 7126, " ideal": 7127, " Asian": 7128, " thread": 7129, " fifth": 7130, "\u0129\u0133": 7131, "UR": 7132, " goods": 7133, " colon": 7134, " developer": 7135, " claiming": 7136, "unning": 7137, "Any": 7138, " retain": 7139, " soul": 7140, " captured": 7141, " Though": 7142, " finds": 7143, " driven": 7144, " payments": 7145, "asters": 7146, "ras": 7147, "CS": 7148, " ties": 7149, " Jordan": 7150, " reasonable": 7151, "olt": 7152, " dogs": 7153, "\u00e2\u0137": 7154, " somebody": 7155, " ending": 7156, "02": 7157, " Nations": 7158, " choices": 7159, " ble": 7160, " pod": 7161, " seats": 7162, " Services": 7163, " Thank": 7164, " engage": 7165, " drawn": 7166, " sight": 7167, " param": 7168, " Dar": 7169, "CE": 7170, " threatened": 7171, " ruled": 7172, " Attorney": 7173, "eping": 7174, " Irish": 7175, " Sea": 7176, " trading": 7177, "owed": 7178, " primarily": 7179, "ura": 7180, " aspects": 7181, " fighters": 7182, "ML": 7183, " answers": 7184, " perfectly": 7185, "irms": 7186, " incl": 7187, " Academ": 7188, " rival": 7189, " parking": 7190, " rejected": 7191, " Gall": 7192, " constantly": 7193, "Add": 7194, "fast": 7195, " Hun": 7196, " payment": 7197, " Cat": 7198, " distinct": 7199, " flying": 7200, " Ut": 7201, " rig": 7202, " technologies": 7203, "mod": 7204, " Real": 7205, " components": 7206, "Police": 7207, " admit": 7208, " Scotland": 7209, " elsewhere": 7210, " Dark": 7211, "dit": 7212, " constit": 7213, " anymore": 7214, "lder": 7215, " icon": 7216, " fields": 7217, " estimates": 7218, "EW": 7219, "sea": 7220, " solutions": 7221, " resulting": 7222, "ez": 7223, "78": 7224, " Bru": 7225, "urb": 7226, " awesome": 7227, " encoun": 7228, " province": 7229, "sm": 7230, " worldwide": 7231, " actor": 7232, " regularly": 7233, " Moore": 7234, " courts": 7235, " narrative": 7236, "Once": 7237, " boot": 7238, " enemies": 7239, " mixed": 7240, "300": 7241, "regon": 7242, " OS": 7243, " Disney": 7244, "icer": 7245, " houses": 7246, " nobody": 7247, " Sk": 7248, "inations": 7249, " controls": 7250, " Water": 7251, " letters": 7252, "apes": 7253, "agram": 7254, "imp": 7255, "iana": 7256, " 42": 7257, " mayor": 7258, " loan": 7259, " murd": 7260, " outcome": 7261, " MS": 7262, " contem": 7263, "sell": 7264, "Sec": 7265, "vy": 7266, "odd": 7267, "ship": 7268, " Light": 7269, "onic": 7270, "isan": 7271, " apartment": 7272, " Steven": 7273, " coalition": 7274, " contributed": 7275, " Bas": 7276, " tank": 7277, " concluded": 7278, " Adam": 7279, " Tw": 7280, " exists": 7281, " founder": 7282, " Brian": 7283, "earing": 7284, " Lew": 7285, " atmosphere": 7286, " profile": 7287, " brew": 7288, " situations": 7289, " Championship": 7290, " Author": 7291, "rates": 7292, " incredible": 7293, " Constitution": 7294, " signal": 7295, "otes": 7296, " Rog": 7297, " accurate": 7298, "ker": 7299, " Victor": 7300, "otten": 7301, " unp": 7302, " Where": 7303, " Southern": 7304, ".\"[": 7305, " employment": 7306, " clients": 7307, "Dr": 7308, " keeps": 7309, "inity": 7310, " informed": 7311, " continuing": 7312, " baseball": 7313, " generate": 7314, " ticket": 7315, " conven": 7316, "Also": 7317, " Conf": 7318, " weird": 7319, " tied": 7320, "lock": 7321, "adelph": 7322, " category": 7323, " infect": 7324, "ilarly": 7325, "acked": 7326, " angry": 7327, " Organ": 7328, " routine": 7329, "aron": 7330, " kil": 7331, " raising": 7332, "ifer": 7333, " machines": 7334, " registered": 7335, "there": 7336, " proved": 7337, " demands": 7338, " gaming": 7339, " Italian": 7340, " incredibly": 7341, " crucial": 7342, " stuck": 7343, " Civil": 7344, " Dallas": 7345, " terrible": 7346, "MP": 7347, "cr": 7348, " feedback": 7349, " upper": 7350, " plastic": 7351, " imper": 7352, " newly": 7353, " Joseph": 7354, " consumption": 7355, " dozen": 7356, " enthus": 7357, " estate": 7358, "ali": 7359, "rage": 7360, "56": 7361, " innoc": 7362, " manip": 7363, " Tem": 7364, " conscious": 7365, " bills": 7366, " Cross": 7367, " Spain": 7368, "ifications": 7369, "Today": 7370, " writers": 7371, " excess": 7372, "inding": 7373, " aggressive": 7374, " reporter": 7375, " compens": 7376, " returning": 7377, " stead": 7378, " programming": 7379, " Thanks": 7380, " represented": 7381, " conclusion": 7382, "98": 7383, " rus": 7384, " Bowl": 7385, "MS": 7386, " AR": 7387, " origin": 7388, " assistant": 7389, "adelphia": 7390, " roster": 7391, " Minnesota": 7392, " organized": 7393, "ria": 7394, " penalty": 7395, " drinking": 7396, "lers": 7397, " paint": 7398, " satell": 7399, " gro": 7400, " Program": 7401, " capture": 7402, " conspir": 7403, " interpret": 7404, " explanation": 7405, "iscal": 7406, "eme": 7407, " county": 7408, "iscons": 7409, "essed": 7410, "mont": 7411, " %": 7412, "anny": 7413, "gorith": 7414, "emen": 7415, "isconsin": 7416, " assistance": 7417, " Roman": 7418, "58": 7419, " complaint": 7420, "ima": 7421, " ru": 7422, " nut": 7423, " magic": 7424, " tall": 7425, " Oper": 7426, " granted": 7427, "Because": 7428, " Contin": 7429, "star": 7430, "LA": 7431, "Off": 7432, " Parliament": 7433, " complicated": 7434, " audio": 7435, " chances": 7436, " extract": 7437, "bal": 7438, "rypt": 7439, "era": 7440, " Gi": 7441, " 1999": 7442, " hel": 7443, " Educ": 7444, " shares": 7445, " successfully": 7446, "esy": 7447, " IT": 7448, " pilot": 7449, "zy": 7450, " Ep": 7451, " Hot": 7452, " myth": 7453, " 00": 7454, " recovery": 7455, " Test": 7456, " techniques": 7457, " iron": 7458, " Care": 7459, " Zeal": 7460, " SC": 7461, " scenes": 7462, " veteran": 7463, " Fre": 7464, " Win": 7465, " ($": 7466, " degrees": 7467, "actions": 7468, " sympt": 7469, "thew": 7470, " lawmakers": 7471, "ked": 7472, " western": 7473, " operate": 7474, " ads": 7475, "rating": 7476, " habit": 7477, " aimed": 7478, "Inst": 7479, "anchester": 7480, " phr": 7481, "rep": 7482, "rete": 7483, " taste": 7484, "idency": 7485, " engaged": 7486, " privile": 7487, " 55": 7488, " rating": 7489, " teaching": 7490, " academic": 7491, " Os": 7492, " therap": 7493, " passes": 7494, " dollar": 7495, "hent": 7496, " automatically": 7497, "itar": 7498, " Pacific": 7499, " monit": 7500, " blocks": 7501, "abama": 7502, " attended": 7503, " permanent": 7504, " survive": 7505, " anticip": 7506, " extrem": 7507, " enable": 7508, " Look": 7509, " Foreign": 7510, "chain": 7511, "%.": 7512, " marked": 7513, "itals": 7514, " hidden": 7515, " accomp": 7516, " titles": 7517, " Senator": 7518, " NBC": 7519, " taught": 7520, " Linux": 7521, " bom": 7522, "uan": 7523, " index": 7524, "everal": 7525, " elite": 7526, "ibilities": 7527, "from": 7528, " lawyers": 7529, " depending": 7530, " valuable": 7531, " installed": 7532, " championship": 7533, " root": 7534, " compre": 7535, " Bull": 7536, " downtown": 7537, "aed": 7538, "mal": 7539, " equivalent": 7540, " solve": 7541, "rific": 7542, " duty": 7543, " Special": 7544, " Business": 7545, " 64": 7546, " pace": 7547, "HS": 7548, " reputation": 7549, " uncertain": 7550, " phones": 7551, "uine": 7552, " overse": 7553, " Taylor": 7554, " personnel": 7555, " pin": 7556, "reams": 7557, "aturally": 7558, " sufficient": 7559, " visited": 7560, " warming": 7561, " Sn": 7562, " principles": 7563, " vulnerable": 7564, " enjoyed": 7565, " fake": 7566, " Nick": 7567, " advis": 7568, " negotiations": 7569, "inder": 7570, " generated": 7571, " exposure": 7572, " recording": 7573, "bro": 7574, " collected": 7575, " regardless": 7576, " dict": 7577, "EA": 7578, " elev": 7579, " bitcoin": 7580, "\u00e3\u0121": 7581, "active": 7582, " Kelly": 7583, " Anth": 7584, " cup": 7585, " patterns": 7586, "Getty": 7587, " Take": 7588, "))": 7589, " Avenue": 7590, " Josh": 7591, " disaster": 7592, " cable": 7593, " 65": 7594, " chat": 7595, " worker": 7596, " mainly": 7597, " racial": 7598, "quarters": 7599, " Coast": 7600, " Viet": 7601, "month": 7602, " pounds": 7603, " 150": 7604, " Call": 7605, " portion": 7606, " afraid": 7607, " inspir": 7608, " Ah": 7609, " bes": 7610, " defence": 7611, " Eastern": 7612, " Tony": 7613, " tracks": 7614, " busy": 7615, " grant": 7616, " shit": 7617, " intense": 7618, " Series": 7619, " LGBT": 7620, "orne": 7621, " Still": 7622, "mann": 7623, "athy": 7624, " funny": 7625, " apolog": 7626, " surgery": 7627, " Moscow": 7628, " Coll": 7629, " possession": 7630, " prominent": 7631, " Mars": 7632, " comic": 7633, " Ger": 7634, "ashes": 7635, "97": 7636, "ules": 7637, " Ray": 7638, " thin": 7639, " engineering": 7640, " troub": 7641, " Kurd": 7642, "this": 7643, " processes": 7644, " Nation": 7645, "fall": 7646, " Kent": 7647, " Come": 7648, " entit": 7649, " \u00e2\u0121\u013a": 7650, " unusual": 7651, "raph": 7652, "etary": 7653, " describes": 7654, "da": 7655, "world": 7656, "96": 7657, " resulted": 7658, " dim": 7659, " emerged": 7660, " taxp": 7661, " gall": 7662, "iler": 7663, " 400": 7664, " propag": 7665, " Iowa": 7666, " Oregon": 7667, " coordin": 7668, " corruption": 7669, " stations": 7670, " Invest": 7671, "ye": 7672, " fought": 7673, " AD": 7674, " brut": 7675, " extension": 7676, "ref": 7677, " blind": 7678, " adopted": 7679, "prise": 7680, " compete": 7681, " recru": 7682, " Zealand": 7683, " hadn": 7684, "Pr": 7685, " mail": 7686, " everywhere": 7687, " Balt": 7688, " crypt": 7689, "Rec": 7690, "Col": 7691, "Mean": 7692, "herent": 7693, "icate": 7694, " Ali": 7695, " contracts": 7696, "front": 7697, " Lo": 7698, " neuro": 7699, " Dead": 7700, " Rick": 7701, " feelings": 7702, " firms": 7703, "idelines": 7704, "\u00e2\u0121\u013a,": 7705, " minority": 7706, " spr": 7707, "cles": 7708, "HA": 7709, " advertising": 7710, " rarely": 7711, " discipl": 7712, "making": 7713, " Northern": 7714, " sanctions": 7715, " Veg": 7716, "scape": 7717, " Philadelphia": 7718, "upid": 7719, " cameras": 7720, " explicit": 7721, " strict": 7722, "viously": 7723, "log": 7724, " enorm": 7725, " finance": 7726, "gun": 7727, " cited": 7728, "ifies": 7729, " Before": 7730, " shortly": 7731, "tes": 7732, "UL": 7733, " Policy": 7734, " expectations": 7735, " implementation": 7736, "ogen": 7737, " recip": 7738, "cling": 7739, " Greek": 7740, " thick": 7741, " thousand": 7742, "antic": 7743, " Mu": 7744, "istent": 7745, " loud": 7746, " affili": 7747, "urrent": 7748, "orough": 7749, " Navy": 7750, " inev": 7751, "rell": 7752, "cus": 7753, " photograph": 7754, " medium": 7755, "azz": 7756, " Hom": 7757, " Wisconsin": 7758, " scenario": 7759, " Food": 7760, " Live": 7761, " sup": 7762, "ilton": 7763, " plug": 7764, " veget": 7765, " ho": 7766, " visible": 7767, "LC": 7768, " lights": 7769, " creates": 7770, " priority": 7771, " ven": 7772, " bridge": 7773, "eland": 7774, " obst": 7775, "inking": 7776, "ATE": 7777, " agric": 7778, " permission": 7779, " Foot": 7780, " algorith": 7781, "izon": 7782, "Co": 7783, "elect": 7784, " participate": 7785, "aska": 7786, " wing": 7787, "who": 7788, "asion": 7789, " browser": 7790, " Global": 7791, " tag": 7792, " Ol": 7793, " Has": 7794, " mel": 7795, " acceler": 7796, "###": 8504, " dozens": 7798, " Kingdom": 7799, " historic": 7800, " computers": 7801, " laid": 7802, " basketball": 7803, "een": 7804, " losses": 7805, "text": 7806, " Saf": 7807, " Ash": 7808, "ogether": 7809, " unw": 7810, "::": 7811, " tor": 7812, " Amendment": 7813, "Mar": 7814, " strikes": 7815, " principle": 7816, " Development": 7817, " formal": 7818, "EP": 7819, "igen": 7820, " scoring": 7821, "76": 7822, "obs": 7823, "athered": 7824, " 44": 7825, " counsel": 7826, "found": 7827, "++": 7828, " shock": 7829, " wonderful": 7830, " SP": 7831, " behalf": 7832, "abs": 7833, " uncom": 7834, "profit": 7835, "enth": 7836, " interface": 7837, " establishment": 7838, " toler": 7839, " Henry": 7840, " Greg": 7841, "amber": 7842, "car": 7843, " Major": 7844, " Thus": 7845, "jo": 7846, "Us": 7847, " gained": 7848, " fee": 7849, "lete": 7850, " founded": 7851, "etime": 7852, " foundation": 7853, "she": 7854, " ESP": 7855, "ilipp": 7856, " clubs": 7857, " cannabis": 7858, " ju": 7859, "54": 7860, "52": 7861, " airport": 7862, " Key": 7863, "aus": 7864, "ystem": 7865, " borrow": 7866, "weet": 7867, "olis": 7868, "BO": 7869, " manufacturing": 7870, " rely": 7871, " Hit": 7872, " Pay": 7873, "uer": 7874, " Alabama": 7875, " genuine": 7876, " Royal": 7877, "rators": 7878, "Before": 7879, " component": 7880, " ridic": 7881, "osexual": 7882, " wheel": 7883, "rative": 7884, " Oak": 7885, " journalist": 7886, " relief": 7887, " saved": 7888, "bell": 7889, "51": 7890, " hole": 7891, " yield": 7892, " headed": 7893, " cyber": 7894, " Moh": 7895, "ependent": 7896, " gift": 7897, " fault": 7898, " withdraw": 7899, "Ne": 7900, " indicate": 7901, " drawing": 7902, " uniform": 7903, "umer": 7904, " Rand": 7905, "arlier": 7906, " stable": 7907, " ships": 7908, " banned": 7909, " Mid": 7910, " footage": 7911, "Meanwhile": 7912, " doors": 7913, "rous": 7914, "lan": 7915, " recognized": 7916, " 1960": 7917, " containing": 7918, "pread": 7919, "400": 7920, " FC": 7921, " Vis": 7922, " river": 7923, "mes": 7924, " struggling": 7925, "ami": 7926, "Sub": 7927, "ba": 7928, " spark": 7929, " Academy": 7930, " walls": 7931, " achieved": 7932, "opher": 7933, "ounced": 7934, " neighb": 7935, " plate": 7936, " edition": 7937, " HT": 7938, "portion": 7939, "mate": 7940, " movements": 7941, " deliber": 7942, "uce": 7943, "teen": 7944, "Post": 7945, " sharp": 7946, " AS": 7947, " Snow": 7948, "ulating": 7949, " stab": 7950, " Three": 7951, " episodes": 7952, " neutral": 7953, " Premier": 7954, " Ret": 7955, " Fund": 7956, " exception": 7957, "etts": 7958, " producer": 7959, " Fred": 7960, " destruction": 7961, " 1998": 7962, "oured": 7963, " beliefs": 7964, " 47": 7965, " Review": 7966, " legend": 7967, " pump": 7968, " McG": 7969, " backed": 7970, " liked": 7971, " hired": 7972, "idespread": 7973, "cription": 7974, " roles": 7975, " languages": 7976, " profession": 7977, " entering": 7978, "osa": 7979, " VR": 7980, " interviews": 7981, " hang": 7982, "iel": 7983, "isp": 7984, " tox": 7985, " philosophy": 7986, "eman": 7987, " Administration": 7988, " arrange": 7989, " Kir": 7990, "oen": 7991, "interest": 7992, " flaw": 7993, " Nob": 7994, "Those": 7995, "sylv": 7996, "imore": 7997, " stadium": 7998, " Atlanta": 7999, " Jac": 8000, " reduction": 8001, " dinner": 8002, "burgh": 8003, " bath": 8004, " Report": 8005, "uper": 8006, " magn": 8007, " Turkish": 8008, "iti": 8009, " aver": 8010, " finger": 8011, " Note": 8012, " Conference": 8013, " tackle": 8014, " cha": 8015, " gonna": 8016, " Diego": 8017, " Point": 8018, " crop": 8019, " Centre": 8020, " farmers": 8021, " Manchester": 8022, " nominee": 8023, " 41": 8024, " Arm": 8025, "aching": 8026, " Jason": 8027, " barely": 8028, "ATO": 8029, " structures": 8030, " contained": 8031, " synt": 8032, " Ott": 8033, " delivery": 8034, "ta": 8035, "%,": 8036, " processing": 8037, " discrimination": 8038, " convin": 8039, " incent": 8040, "riers": 8041, " Fair": 8042, "erved": 8043, "RS": 8044, "53": 8045, "then": 8046, " Data": 8047, "ca": 8048, "ja": 8049, "abinet": 8050, " intellectual": 8051, "Ed": 8052, " Radio": 8053, "amsung": 8054, " 46": 8055, " Bry": 8056, " OK": 8057, " Field": 8058, " Did": 8059, " upset": 8060, " Perhaps": 8061, "Me": 8062, " Education": 8063, "sylvania": 8064, "\u010a\u010a": 8065, "away": 8066, " Mir": 8067, "President": 8068, " challenging": 8069, "rik": 8070, " proven": 8071, " restrictions": 8072, "iy": 8073, " forever": 8074, "https": 8075, "olen": 8076, " electronic": 8077, " hitting": 8078, " Hay": 8079, " euro": 8080, "ho": 8081, " unex": 8082, " reviews": 8083, " Christians": 8084, " 43": 8085, " NC": 8086, " convicted": 8087, "Star": 8088, " illness": 8089, " smooth": 8090, "page": 8091, "Dav": 8092, " Hor": 8093, " retired": 8094, " indicated": 8095, "usive": 8096, " ham": 8097, " producing": 8098, " About": 8099, " Harry": 8100, " rapidly": 8101, " rose": 8102, " hide": 8103, " corporations": 8104, "fr": 8105, " ocean": 8106, " Rus": 8107, "aying": 8108, "owing": 8109, " listening": 8110, " Reuters": 8111, " UFC": 8112, " Sat": 8113, " technique": 8114, " mo": 8115, "yard": 8116, "sels": 8117, " loyal": 8118, " Nic": 8119, " Pen": 8120, " Mean": 8121, "lessly": 8122, " robot": 8123, " notion": 8124, " begun": 8125, " util": 8126, " Fed": 8127, " recognition": 8128, "ouver": 8129, "engers": 8130, " perpet": 8131, " association": 8132, " milk": 8133, " asks": 8134, "87": 8135, " websites": 8136, " ren": 8137, " description": 8138, " Pack": 8139, "inf": 8140, " tickets": 8141, "achus": 8142, " flash": 8143, " suggesting": 8144, "enny": 8145, " Judge": 8146, " exclusive": 8147, " reaching": 8148, " bra": 8149, " prepare": 8150, " Kansas": 8151, "Who": 8152, "ione": 8153, " bail": 8154, " frag": 8155, " progressive": 8156, "imm": 8157, " exceed": 8158, " equally": 8159, " Hard": 8160, " hardly": 8161, " widespread": 8162, " ABC": 8163, " campaigns": 8164, " Mayor": 8165, " contribute": 8166, "udes": 8167, "ologists": 8168, " branch": 8169, "Look": 8170, " Rose": 8171, " grass": 8172, " initiative": 8173, " Market": 8174, " ethnic": 8175, " external": 8176, "ikes": 8177, " Circ": 8178, "uma": 8179, "rient": 8180, " sensitive": 8181, " practical": 8182, "elf": 8183, "usted": 8184, " unclear": 8185, " normally": 8186, "Ref": 8187, " representative": 8188, "pat": 8189, "bec": 8190, "ls": 8191, "thon": 8192, " welf": 8193, " Full": 8194, " reducing": 8195, "appy": 8196, "lad": 8197, " friendly": 8198, " carefully": 8199, " Arabia": 8200, " Ref": 8201, " Ly": 8202, "89": 8203, "PM": 8204, " Luc": 8205, " racist": 8206, " invent": 8207, "rical": 8208, "ouch": 8209, "PG": 8210, " CO": 8211, " Next": 8212, " respectively": 8213, "senal": 8214, "rator": 8215, " tail": 8216, " McCain": 8217, " Bernie": 8218, "ancouver": 8219, " overwhelming": 8220, " viewers": 8221, " Beach": 8222, "stract": 8223, " welfare": 8224, "arrass": 8225, " Further": 8226, " convinced": 8227, "UN": 8228, " smoke": 8229, "umes": 8230, " collapse": 8231, " involvement": 8232, " Lind": 8233, " thrown": 8234, "pload": 8235, " connections": 8236, "heast": 8237, " terrorists": 8238, " Battle": 8239, " strategic": 8240, " hook": 8241, " recover": 8242, " Latin": 8243, "omething": 8244, "igrant": 8245, " Ont": 8246, " wine": 8247, "Mc": 8248, "inois": 8249, " Music": 8250, "rolled": 8251, " minds": 8252, " vital": 8253, " settlement": 8254, " statistics": 8255, " lists": 8256, " vary": 8257, " featuring": 8258, " ESPN": 8259, "ecut": 8260, "achusetts": 8261, " Sir": 8262, " behaviour": 8263, " independence": 8264, " Dig": 8265, "worth": 8266, " fantasy": 8267, " devast": 8268, "ester": 8269, "nedy": 8270, "core": 8271, "uties": 8272, " invited": 8273, " complaints": 8274, " joining": 8275, " scores": 8276, " fiscal": 8277, " deeper": 8278, "dem": 8279, " Pennsylvania": 8280, "ifest": 8281, " steal": 8282, " anger": 8283, " deputy": 8284, " elig": 8285, " wars": 8286, " Square": 8287, " investigate": 8288, " Tenn": 8289, " Town": 8290, " sugar": 8291, " constitutional": 8292, " III": 8293, " scholars": 8294, " Pit": 8295, " iOS": 8296, " anybody": 8297, " subjects": 8298, " AND": 8299, " array": 8300, " alien": 8301, "bn": 8302, "FA": 8303, " Ult": 8304, " Gov": 8305, " lobby": 8306, " ownership": 8307, " framework": 8308, " unemployment": 8309, " Division": 8310, " transgender": 8311, " SS": 8312, " improvements": 8313, " menu": 8314, " peak": 8315, "Back": 8316, " screens": 8317, "ihad": 8318, " inject": 8319, " luck": 8320, "iversary": 8321, " define": 8322, " tasks": 8323, " Xbox": 8324, " democratic": 8325, " scandal": 8326, "icking": 8327, " jury": 8328, "acon": 8329, " Anton": 8330, " Ministry": 8331, "Che": 8332, " cos": 8333, " comprehens": 8334, "osit": 8335, " Kat": 8336, " Es": 8337, " discovery": 8338, "unior": 8339, " register": 8340, "agg": 8341, " casual": 8342, " remem": 8343, " citizen": 8344, " fab": 8345, "RI": 8346, "Sm": 8347, "Under": 8348, " roads": 8349, " disagree": 8350, " failing": 8351, " Never": 8352, " Little": 8353, " Jay": 8354, " dynamic": 8355, " serves": 8356, " Cameron": 8357, " Brother": 8358, " Mah": 8359, " testim": 8360, " gathered": 8361, " Stone": 8362, " Information": 8363, " soph": 8364, "oding": 8365, " implemented": 8366, " controversy": 8367, " collective": 8368, " trained": 8369, "anna": 8370, " NSA": 8371, " neighbour": 8372, " fears": 8373, "leveland": 8374, " samples": 8375, " fiction": 8376, " prosec": 8377, " estimate": 8378, " Community": 8379, " Ice": 8380, " Medical": 8381, " 1997": 8382, " Philipp": 8383, " referring": 8384, " tip": 8385, " captain": 8386, "Will": 8387, " 1996": 8388, " spaces": 8389, "69": 8390, "cific": 8391, " trem": 8392, " Walker": 8393, " versus": 8394, " legs": 8395, " Santa": 8396, " temporary": 8397, "PC": 8398, " noise": 8399, "'.": 8400, " HD": 8401, " overt": 8402, " incorpor": 8403, " tone": 8404, " visitors": 8405, " reven": 8406, " civilians": 8407, " wages": 8408, " hypot": 8409, "aka": 8410, " sin": 8411, " remarks": 8412, " awareness": 8413, " ON": 8414, " Spring": 8415, " recommended": 8416, " stupid": 8417, " Allen": 8418, " heading": 8419, " handful": 8420, "umin": 8421, " regulation": 8422, "icket": 8423, " Action": 8424, " Core": 8425, " platforms": 8426, " accus": 8427, " Anthony": 8428, "mad": 8429, " affairs": 8430, "gener": 8431, " touchdown": 8432, " rural": 8433, " attacking": 8434, " extend": 8435, " ultimate": 8436, " attached": 8437, " Vegas": 8438, " discussions": 8439, " Ren": 8440, " horse": 8441, " Brew": 8442, " reprodu": 8443, " genetic": 8444, " expanded": 8445, " attempting": 8446, "phones": 8447, " Matthew": 8448, " races": 8449, "including": 8450, "iry": 8451, " Queen": 8452, " raw": 8453, " ignore": 8454, " Columbia": 8455, "serv": 8456, " Pent": 8457, " Guardian": 8458, "hour": 8459, " Cook": 8460, " iP": 8461, "itionally": 8462, " gear": 8463, " symptoms": 8464, " Patrick": 8465, " suffer": 8466, " settings": 8467, " Make": 8468, "alling": 8469, " salary": 8470, "case": 8471, " licens": 8472, "mary": 8473, "GO": 8474, " tweeted": 8475, "angel": 8476, " publication": 8477, " brill": 8478, " factory": 8479, " suspected": 8480, " purchased": 8481, "aret": 8482, " intervention": 8483, " eastern": 8484, " holiday": 8485, "type": 8486, "2014": 8487, " theat": 8488, "About": 8489, " displ": 8490, "esh": 8491, " ranked": 8492, " neck": 8493, " Conservative": 8494, " Austin": 8495, " Museum": 8496, "ective": 8497, " Roy": 8498, "\")": 8499, " cro": 8500, " Budd": 8501, "Sen": 8502, " enormous": 8503, "intendo": 8505, " cogn": 8506, " logic": 8507, "ultural": 8508, "ictions": 8509, " improvement": 8510, " API": 8511, " viewed": 8512, " ingred": 8513, " entertainment": 8514, "Ass": 8515, " legitimate": 8516, " Professor": 8517, "ommod": 8518, " presum": 8519, " Albert": 8520, " Massachusetts": 8521, " Ball": 8522, " 2019": 8523, " www": 8524, "News": 8525, " actors": 8526, " substantial": 8527, " humanity": 8528, " involves": 8529, " resource": 8530, "arms": 8531, " brothers": 8532, " liquid": 8533, " rational": 8534, " seemingly": 8535, " sorry": 8536, " layer": 8537, " loans": 8538, " rook": 8539, " investigating": 8540, " absence": 8541, " providers": 8542, " tomorrow": 8543, " fallen": 8544, " bureau": 8545, " grounds": 8546, " coaches": 8547, " stake": 8548, " resign": 8549, " outs": 8550, "rec": 8551, " advocates": 8552, " Ho": 8553, " \u00e2\u0123\u00ac": 8554, "RC": 8555, " investigators": 8556, " conspiracy": 8557, "Where": 8558, " medicine": 8559, " dramatic": 8560, " fulf": 8561, " monitor": 8562, " Chair": 8563, "EST": 8564, "repre": 8565, " overs": 8566, " chapter": 8567, " Season": 8568, " coc": 8569, "oval": 8570, "GE": 8571, "lah": 8572, ".-": 8573, " activist": 8574, "plete": 8575, " boat": 8576, " Check": 8577, " Control": 8578, " gam": 8579, " jur": 8580, " suspended": 8581, " papers": 8582, "Script": 8583, " Greece": 8584, " opinions": 8585, " Such": 8586, " Ross": 8587, " missile": 8588, " Golden": 8589, " celeb": 8590, " Revolution": 8591, "ped": 8592, "2016": 8593, " Ra": 8594, " Head": 8595, " stayed": 8596, " covers": 8597, "iverpool": 8598, " diversity": 8599, "otype": 8600, " bars": 8601, "Part": 8602, "Russ": 8603, " embarrass": 8604, "xit": 8605, " offices": 8606, " Acc": 8607, "rets": 8608, "ourse": 8609, "claim": 8610, " Pot": 8611, " Iranian": 8612, " disrupt": 8613, "cover": 8614, " WW": 8615, " preced": 8616, " poly": 8617, " forest": 8618, "wered": 8619, " careful": 8620, "reprene": 8621, "vard": 8622, "ila": 8623, " amid": 8624, " History": 8625, " mad": 8626, "hot": 8627, "quest": 8628, " Hospital": 8629, "isting": 8630, "ammed": 8631, " Ale": 8632, " authent": 8633, " Illinois": 8634, " CBS": 8635, " Sony": 8636, "uction": 8637, "79": 8638, "geon": 8639, "Related": 8640, "rine": 8641, " transportation": 8642, " Vancouver": 8643, "bi": 8644, " Gaza": 8645, " handed": 8646, " protocol": 8647, " consistently": 8648, " mountain": 8649, " 52": 8650, " Ap": 8651, " reads": 8652, " Stat": 8653, " pref": 8654, " clothes": 8655, " attitude": 8656, "iability": 8657, " Share": 8658, " Kennedy": 8659, " porn": 8660, " princip": 8661, " Freedom": 8662, "ses": 8663, " depends": 8664, " mining": 8665, "des": 8666, " petition": 8667, " noting": 8668, " warrant": 8669, " conce": 8670, " colors": 8671, " lowest": 8672, " Anderson": 8673, " Tri": 8674, " addressed": 8675, " Family": 8676, "72": 8677, "unes": 8678, "Ste": 8679, " entr": 8680, " Stadium": 8681, "xx": 8682, " throwing": 8683, " je": 8684, "74": 8685, " fruit": 8686, " virtually": 8687, "!)": 8688, " stone": 8689, " foss": 8690, " guarantee": 8691, " referend": 8692, "inch": 8693, "Both": 8694, "??": 8695, " speaks": 8696, " Baltimore": 8697, " steel": 8698, " closing": 8699, "itting": 8700, " reader": 8701, "dri": 8702, "FF": 8703, " buff": 8704, " personality": 8705, " Cre": 8706, " appreciate": 8707, " Iraqi": 8708, " surf": 8709, " Environment": 8710, " nerv": 8711, "iences": 8712, "maker": 8713, "keep": 8714, " handling": 8715, " profits": 8716, "ordon": 8717, " grav": 8718, " km": 8719, " marks": 8720, "low": 8721, " tries": 8722, " Broad": 8723, " contributions": 8724, " Engine": 8725, "ropri": 8726, " spiritual": 8727, " conversations": 8728, " fantastic": 8729, " Tro": 8730, "zed": 8731, " lands": 8732, " console": 8733, " horror": 8734, "ppers": 8735, "\".[": 8736, "icity": 8737, " gains": 8738, " covering": 8739, " tea": 8740, "ivals": 8741, " Harris": 8742, "Her": 8743, " hint": 8744, " astron": 8745, "aval": 8746, " shoulder": 8747, "scale": 8748, " wrest": 8749, " guest": 8750, " Ext": 8751, " accommod": 8752, "uted": 8753, "uits": 8754, " depression": 8755, " CA": 8756, " _": 8757, " Lewis": 8758, " lucky": 8759, " Bang": 8760, " encouraged": 8761, "flix": 8762, "amac": 8763, " judges": 8764, " incidents": 8765, " Cleveland": 8766, " drew": 8767, " subsequent": 8768, " spoken": 8769, "ira": 8770, " Howard": 8771, "annels": 8772, " Bad": 8773, " brown": 8774, " bacter": 8775, "Please": 8776, "ixed": 8777, " rhet": 8778, " ranks": 8779, " Getty": 8780, " photograp": 8781, " inflation": 8782, " inner": 8783, " Intelligence": 8784, " Po": 8785, "mat": 8786, " Ba": 8787, " maps": 8788, "abeth": 8789, " Patri": 8790, "ported": 8791, "ijing": 8792, "plate": 8793, " divided": 8794, " 1995": 8795, " NATO": 8796, " paralle": 8797, " drama": 8798, " Mexican": 8799, " distributed": 8800, " gal": 8801, " innovation": 8802, "unicip": 8803, " cust": 8804, " Unfortunately": 8805, " premium": 8806, " voter": 8807, " permit": 8808, " revel": 8809, " Kong": 8810, " dance": 8811, "pled": 8812, " Las": 8813, " swing": 8814, " efficiency": 8815, " promises": 8816, " Indeed": 8817, "Note": 8818, " CH": 8819, " Which": 8820, " ballot": 8821, " 51": 8822, "eding": 8823, "pie": 8824, " Adv": 8825, " temperatures": 8826, " Samsung": 8827, " portray": 8828, " spokesperson": 8829, " locked": 8830, " lying": 8831, " improving": 8832, "800": 8833, " threw": 8834, " joy": 8835, " dump": 8836, "Art": 8837, " musical": 8838, "PP": 8839, " mistakes": 8840, "dated": 8841, " shout": 8842, " Start": 8843, " homeless": 8844, "conf": 8845, " replacement": 8846, "eries": 8847, " comedy": 8848, " checks": 8849, " Without": 8850, " Moon": 8851, " instrument": 8852, "ounce": 8853, " Connect": 8854, " acknowledged": 8855, " barrel": 8856, " responses": 8857, " protecting": 8858, "backs": 8859, " Det": 8860, "\u00c2\u0133": 8861, "heim": 8862, " silver": 8863, " copies": 8864, " les": 8865, " AC": 8866, " dad": 8867, " breaks": 8868, " Plus": 8869, " Buff": 8870, " commonly": 8871, " lets": 8872, " legacy": 8873, "itage": 8874, " mathem": 8875, " protein": 8876, " joke": 8877, "amacare": 8878, "erted": 8879, "arre": 8880, " passengers": 8881, "2015": 8882, " yellow": 8883, " Marvel": 8884, "hop": 8885, " naturally": 8886, "Your": 8887, " Scient": 8888, " nomination": 8889, "Source": 8890, " measured": 8891, "aping": 8892, "alia": 8893, " Use": 8894, " abandoned": 8895, "oded": 8896, " Prince": 8897, " studied": 8898, " Football": 8899, "helsea": 8900, " diverse": 8901, "argo": 8902, " acquired": 8903, "ieties": 8904, " Lyn": 8905, "Cons": 8906, "esty": 8907, " soil": 8908, " Marsh": 8909, " demonstrated": 8910, " blast": 8911, " rear": 8912, " funded": 8913, " headquarters": 8914, "hesis": 8915, " stolen": 8916, "inians": 8917, " scan": 8918, " counts": 8919, " tape": 8920, " partnership": 8921, " midfield": 8922, " NOT": 8923, "yo": 8924, " (\u00e2\u0121\u013d": 8925, " upgrade": 8926, " Cost": 8927, " Atlantic": 8928, " march": 8929, " grid": 8930, " ordinary": 8931, " Aud": 8932, " Nev": 8933, " rom": 8934, "aware": 8935, " literature": 8936, " plain": 8937, " stages": 8938, " \u00e2\u0121\u00a2": 8939, "high": 8940, " assert": 8941, " 1994": 8942, " AI": 8943, " helpful": 8944, " arrive": 8945, " exit": 8946, " scope": 8947, " falls": 8948, "dog": 8949, "yer": 8950, " ignored": 8951, "BM": 8952, " twenty": 8953, "eters": 8954, " Master": 8955, " clock": 8956, " compe": 8957, "inction": 8958, " virus": 8959, " Trib": 8960, " referendum": 8961, " inequ": 8962, " unions": 8963, " Does": 8964, "erg": 8965, "assador": 8966, " Gun": 8967, " conservatives": 8968, " rif": 8969, " symp": 8970, " festival": 8971, " shopping": 8972, " fro": 8973, " waters": 8974, " Pop": 8975, " capabilities": 8976, " Bron": 8977, " ax": 8978, "zing": 8979, "lahoma": 8980, " usage": 8981, " Hind": 8982, "iate": 8983, " Empire": 8984, "aeda": 8985, " Indiana": 8986, "iley": 8987, " transactions": 8988, " hoped": 8989, "VE": 8990, " distract": 8991, " Ast": 8992, " guitar": 8993, " Eag": 8994, " Abb": 8995, " sty": 8996, " ramp": 8997, " assessment": 8998, "ctic": 8999, " universities": 9000, " Dave": 9001, " moon": 9002, " monitoring": 9003, "ormal": 9004, "acket": 9005, "bridge": 9006, "Facebook": 9007, " representing": 9008, " ratio": 9009, " Death": 9010, "encing": 9011, "ught": 9012, " Prov": 9013, " conventional": 9014, "comes": 9015, "UST": 9016, "orge": 9017, " trave": 9018, "ington": 9019, " Set": 9020, " tracking": 9021, "door": 9022, "ntil": 9023, " Sometimes": 9024, "only": 9025, "shire": 9026, " Sus": 9027, " hung": 9028, " reliable": 9029, " tie": 9030, " proposals": 9031, " skept": 9032, " Hell": 9033, " replied": 9034, " Ros": 9035, "fund": 9036, " criticized": 9037, "uh": 9038, " appearances": 9039, "62": 9040, "ecutive": 9041, " Ha": 9042, " racism": 9043, "ela": 9044, " Lim": 9045, " insisted": 9046, "organ": 9047, "rimin": 9048, " introduction": 9049, " 2020": 9050, " appointed": 9051, "dney": 9052, " Bureau": 9053, "olph": 9054, "agic": 9055, " Pass": 9056, "cut": 9057, "Ke": 9058, " Line": 9059, " beauty": 9060, " concrete": 9061, " receiver": 9062, " supplies": 9063, " performing": 9064, "made": 9065, " bub": 9066, " exch": 9067, "rite": 9068, " visiting": 9069, " Technology": 9070, "63": 9071, " Denver": 9072, "ocument": 9073, "EE": 9074, " Jam": 9075, "omes": 9076, " Capt": 9077, "theless": 9078, "RL": 9079, " letting": 9080, " swim": 9081, "AND": 9082, " deficit": 9083, " classified": 9084, " Galaxy": 9085, "aga": 9086, " auto": 9087, " render": 9088, " absor": 9089, " Orig": 9090, " accomplish": 9091, " programme": 9092, " presidency": 9093, "HT": 9094, "crib": 9095, "61": 9096, " blocked": 9097, " Sweden": 9098, "archy": 9099, " dust": 9100, " Utah": 9101, " drove": 9102, " landscape": 9103, " cance": 9104, " Portland": 9105, "plus": 9106, " dismissed": 9107, " LA": 9108, " hyper": 9109, " abroad": 9110, " bonus": 9111, " Tour": 9112, "har": 9113, " sequence": 9114, " predicted": 9115, " senator": 9116, "\u00c2\u00b0": 9117, " Age": 9118, " domain": 9119, " Code": 9120, " ec": 9121, " museum": 9122, " Associated": 9123, "acco": 9124, " warn": 9125, " persons": 9126, "NS": 9127, "ji": 9128, " dub": 9129, " requested": 9130, " trigger": 9131, " Ontario": 9132, " hockey": 9133, " Corpor": 9134, "iano": 9135, " artific": 9136, " dates": 9137, " testimony": 9138, " centers": 9139, "\u00d0\u00bb": 9140, " rocket": 9141, "irts": 9142, " ves": 9143, " transit": 9144, " congressional": 9145, " entitled": 9146, "ultane": 9147, " spokeswoman": 9148, " Front": 9149, " Nintendo": 9150, " Alexander": 9151, " rescue": 9152, " Cooper": 9153, "mony": 9154, " assign": 9155, " Bon": 9156, " equality": 9157, " patch": 9158, " urged": 9159, " bread": 9160, " Olympic": 9161, " documentary": 9162, " veterans": 9163, " clar": 9164, "fol": 9165, " Wik": 9166, " \u00e2\u0121\u013e": 9167, "king": 9168, "pton": 9169, " recall": 9170, " populations": 9171, " Low": 9172, " breath": 9173, "Still": 9174, "600": 9175, "rooms": 9176, " whenever": 9177, " violation": 9178, " tactics": 9179, " wider": 9180, "ounding": 9181, "93": 9182, " targeting": 9183, "Yet": 9184, "through": 9185, " pursue": 9186, "92": 9187, " salt": 9188, " lean": 9189, "Are": 9190, "izabeth": 9191, " firing": 9192, "94": 9193, " Kar": 9194, " Mill": 9195, " acid": 9196, "inating": 9197, " mole": 9198, "isons": 9199, " restaurants": 9200, " compare": 9201, "fare": 9202, "Comp": 9203, "dy": 9204, "orous": 9205, "ennis": 9206, " employed": 9207, " Roberts": 9208, " contrad": 9209, " Bible": 9210, " politically": 9211, "aver": 9212, " phrase": 9213, " satellite": 9214, " Cro": 9215, " survival": 9216, " retirement": 9217, " banking": 9218, " Form": 9219, " brilliant": 9220, " Girl": 9221, "atar": 9222, " channels": 9223, "71": 9224, " servers": 9225, "73": 9226, " Beijing": 9227, " soccer": 9228, "trans": 9229, " Mach": 9230, "they": 9231, " burden": 9232, " introduce": 9233, " experiments": 9234, "enez": 9235, " prisoners": 9236, "rapped": 9237, " cig": 9238, " WH": 9239, "afe": 9240, "jud": 9241, " fighter": 9242, " scientist": 9243, "OK": 9244, " YOU": 9245, "usalem": 9246, " List": 9247, " submit": 9248, " approached": 9249, " Award": 9250, " monthly": 9251, " Liverpool": 9252, " designs": 9253, " representatives": 9254, " titled": 9255, "ordinary": 9256, " quote": 9257, " popularity": 9258, "olves": 9259, " abilities": 9260, "oenix": 9261, " cul": 9262, " PD": 9263, " membership": 9264, " investigations": 9265, " focusing": 9266, " bab": 9267, "mans": 9268, " hosp": 9269, " Bridge": 9270, "Though": 9271, " Maryland": 9272, " saving": 9273, "bow": 9274, " rush": 9275, " Governor": 9276, " shadow": 9277, "ouri": 9278, " Hur": 9279, " Base": 9280, " objective": 9281, "berry": 9282, " Ted": 9283, "erts": 9284, "ederation": 9285, " mit": 9286, " prepar": 9287, " tips": 9288, " Was": 9289, "ele": 9290, "emed": 9291, " pipeline": 9292, "David": 9293, " childhood": 9294, " ratings": 9295, " thorough": 9296, " entreprene": 9297, "enter": 9298, "ais": 9299, " Vill": 9300, " Dutch": 9301, "was": 9302, "break": 9303, " actively": 9304, " Harvard": 9305, " pig": 9306, " demanding": 9307, " loose": 9308, "asty": 9309, " unexpected": 9310, " smoking": 9311, " smell": 9312, " deny": 9313, "CO": 9314, "don": 9315, " universal": 9316, "ika": 9317, " forecast": 9318, " argues": 9319, " phenomenon": 9320, " overseas": 9321, " settled": 9322, "olds": 9323, "walk": 9324, " Beck": 9325, " generations": 9326, " weekly": 9327, " chicken": 9328, " preparing": 9329, " 95": 9330, " smartphone": 9331, " producers": 9332, " butt": 9333, " PA": 9334, " legislative": 9335, " anxiety": 9336, " Have": 9337, " innocent": 9338, "minute": 9339, " Click": 9340, " mortg": 9341, " celebrate": 9342, " Ur": 9343, " provision": 9344, "Dem": 9345, " DO": 9346, " keys": 9347, " mini": 9348, " shame": 9349, " arguing": 9350, " Justin": 9351, " Design": 9352, "held": 9353, " questioned": 9354, " forcing": 9355, " Cow": 9356, " Hop": 9357, "ompson": 9358, "agh": 9359, "\u00e2\u0135": 9360, " broader": 9361, " encounter": 9362, "mers": 9363, "SL": 9364, " flags": 9365, " fool": 9366, "Sim": 9367, " fur": 9368, " mac": 9369, " 53": 9370, " deadly": 9371, " reverse": 9372, "oz": 9373, " weigh": 9374, " Edward": 9375, " Among": 9376, " tens": 9377, " ~": 9378, " mos": 9379, " wealthy": 9380, " Obamacare": 9381, " unpre": 9382, " tab": 9383, " maintained": 9384, "eals": 9385, " surely": 9386, " shield": 9387, " Prop": 9388, "ocolate": 9389, "oret": 9390, " secondary": 9391, " savings": 9392, "isa": 9393, "irlf": 9394, "aved": 9395, " roof": 9396, " stability": 9397, " civilian": 9398, "\u00c4\u0124": 9399, "elson": 9400, " Carter": 9401, " reveals": 9402, "mind": 9403, " alarm": 9404, " anniversary": 9405, " sorts": 9406, " Bra": 9407, " Ak": 9408, "vernment": 9409, "El": 9410, " tonight": 9411, " releases": 9412, " Hon": 9413, " rooms": 9414, "irlfriend": 9415, " Gulf": 9416, " outrage": 9417, " prosecutors": 9418, " Left": 9419, "inals": 9420, " disorder": 9421, "84": 9422, " wedd": 9423, " exha": 9424, "orious": 9425, "isk": 9426, " shr": 9427, " relax": 9428, " windows": 9429, " threatening": 9430, " differently": 9431, " harassment": 9432, " quoted": 9433, " healthcare": 9434, " submitted": 9435, " arbit": 9436, " lunch": 9437, "step": 9438, "pa": 9439, " Run": 9440, " reforms": 9441, " torture": 9442, "rection": 9443, " fate": 9444, " stored": 9445, " Belg": 9446, " okay": 9447, " propaganda": 9448, " spots": 9449, " instructions": 9450, " Vietnam": 9451, " sevent": 9452, " rounds": 9453, " odds": 9454, "itter": 9455, " 1992": 9456, " aer": 9457, "html": 9458, "tenance": 9459, " errors": 9460, " Oklahoma": 9461, " hydro": 9462, "icism": 9463, "GA": 9464, " delic": 9465, "ailed": 9466, " Liberal": 9467, " silence": 9468, " Graham": 9469, " Sab": 9470, "ois": 9471, "acts": 9472, " Warren": 9473, " graduate": 9474, " affordable": 9475, " circle": 9476, "sect": 9477, " Bloom": 9478, " cooperation": 9479, " picks": 9480, " sear": 9481, "itary": 9482, " Sarah": 9483, "aa": 9484, " Fall": 9485, "ested": 9486, "orship": 9487, " Expl": 9488, " striking": 9489, " puzz": 9490, " persu": 9491, " streaming": 9492, " comprehensive": 9493, "race": 9494, " importantly": 9495, " cow": 9496, " possess": 9497, "Watch": 9498, " fing": 9499, " execution": 9500, " Ruby": 9501, "lined": 9502, " intim": 9503, " struggled": 9504, " Som": 9505, " Person": 9506, " assass": 9507, " Silver": 9508, " Leader": 9509, "uten": 9510, "ahu": 9511, " gent": 9512, " Price": 9513, "Reuters": 9514, "Ty": 9515, "ishop": 9516, " deserve": 9517, " Jerusalem": 9518, " landing": 9519, " calm": 9520, " alter": 9521, " ceremony": 9522, " assumed": 9523, " demonstrate": 9524, " difficulty": 9525, " ages": 9526, " pron": 9527, " dying": 9528, " hal": 9529, " distingu": 9530, "asury": 9531, " stepped": 9532, " borders": 9533, " chest": 9534, "ethe": 9535, " Wolf": 9536, " Lt": 9537, " Bud": 9538, " adventure": 9539, " pointing": 9540, "bury": 9541, "ova": 9542, " waves": 9543, " kilomet": 9544, "essee": 9545, "atern": 9546, "ierce": 9547, " Netflix": 9548, " autonom": 9549, " Ten": 9550, " precisely": 9551, " architecture": 9552, " greatly": 9553, " promising": 9554, " consent": 9555, " consideration": 9556, " Deb": 9557, " drives": 9558, " dialogue": 9559, " Main": 9560, " tremend": 9561, "asant": 9562, " newsletter": 9563, " rookie": 9564, " awarded": 9565, " Meanwhile": 9566, "after": 9567, " repeat": 9568, " Story": 9569, " contribution": 9570, " Tele": 9571, " burning": 9572, "83": 9573, "iev": 9574, "party": 9575, " simultane": 9576, " Scottish": 9577, " Vice": 9578, " donations": 9579, " Indust": 9580, "akh": 9581, " interf": 9582, "itol": 9583, " Magic": 9584, " voices": 9585, " analyst": 9586, " Bruce": 9587, " Tech": 9588, "ceptions": 9589, " gif": 9590, " frequency": 9591, " Common": 9592, " procedure": 9593, " wanting": 9594, " Pres": 9595, " executives": 9596, " playoffs": 9597, "oice": 9598, " staying": 9599, "apolis": 9600, " birds": 9601, " bias": 9602, "VD": 9603, " Hong": 9604, " Az": 9605, "izer": 9606, " inches": 9607, " trillion": 9608, "omy": 9609, "holders": 9610, "ds": 9611, " highlights": 9612, " semi": 9613, " remarkable": 9614, " whereas": 9615, "EX": 9616, "ributes": 9617, " Palestinians": 9618, " knee": 9619, "open": 9620, " Jonathan": 9621, "raig": 9622, " implications": 9623, "scribe": 9624, " formation": 9625, " superior": 9626, " strategies": 9627, " ans": 9628, "itual": 9629, " Berlin": 9630, "Step": 9631, "div": 9632, " Link": 9633, "stal": 9634, " Sydney": 9635, "lee": 9636, " MORE": 9637, " categories": 9638, " Ark": 9639, " fet": 9640, " followers": 9641, " cream": 9642, "Story": 9643, "portation": 9644, "FO": 9645, " contacted": 9646, "Ms": 9647, " judgment": 9648, "annon": 9649, " smile": 9650, "bered": 9651, " info": 9652, " emerging": 9653, "igious": 9654, "rif": 9655, "js": 9656, "onder": 9657, "vision": 9658, " Eff": 9659, "vertisements": 9660, "iffs": 9661, "hatt": 9662, " accessible": 9663, "yes": 9664, "TP": 9665, " physically": 9666, " assigned": 9667, " 54": 9668, " Andre": 9669, " guidelines": 9670, " defeated": 9671, " crimin": 9672, " wounded": 9673, " trials": 9674, " stem": 9675, " managing": 9676, " spell": 9677, " ministry": 9678, " grade": 9679, " coinc": 9680, " riding": 9681, " indicates": 9682, " centuries": 9683, "Christ": 9684, "cest": 9685, " Affairs": 9686, " opens": 9687, "aki": 9688, " pharm": 9689, "lla": 9690, " meaningful": 9691, "omed": 9692, " tiss": 9693, "erent": 9694, " Mrs": 9695, " ease": 9696, "child": 9697, " margin": 9698, " Store": 9699, " clothing": 9700, " Tes": 9701, " \u00e2\u0129\u0133": 9702, " Six": 9703, " Capital": 9704, " participation": 9705, "cedented": 9706, "Mus": 9707, " revers": 9708, "aria": 9709, " poison": 9710, " Brexit": 9711, " 120": 9712, " Yemen": 9713, " lapt": 9714, "iac": 9715, " competing": 9716, " memories": 9717, " CS": 9718, " theories": 9719, " recipe": 9720, " gross": 9721, "umble": 9722, "author": 9723, "hard": 9724, " passage": 9725, " aged": 9726, " Credit": 9727, " bin": 9728, " drone": 9729, " blank": 9730, " dispute": 9731, "van": 9732, " damaged": 9733, " 1993": 9734, " Hamilton": 9735, " Lam": 9736, "base": 9737, " substance": 9738, " hosted": 9739, "TER": 9740, "Google": 9741, " Chelsea": 9742, " promoting": 9743, " facilit": 9744, " openly": 9745, " Instagram": 9746, " 1950": 9747, " Vik": 9748, "View": 9749, " Children": 9750, " Crime": 9751, "sl": 9752, " clinical": 9753, "Out": 9754, " nic": 9755, "bits": 9756, "eremy": 9757, " Hold": 9758, "even": 9759, " investments": 9760, " consensus": 9761, "igate": 9762, " Leon": 9763, " Fal": 9764, " 99": 9765, " educational": 9766, "const": 9767, " dish": 9768, " manifest": 9769, " custody": 9770, "ito": 9771, "week": 9772, " eligible": 9773, " Hawai": 9774, " legally": 9775, " missions": 9776, " endorse": 9777, "eria": 9778, " gate": 9779, " memo": 9780, " GT": 9781, " tables": 9782, " Pict": 9783, " nin": 9784, " studying": 9785, "Hz": 9786, " ?": 9787, " charity": 9788, "aration": 9789, " addresses": 9790, "adi": 9791, " inspect": 9792, " discount": 9793, "rix": 9794, "left": 9795, " battles": 9796, "ALL": 9797, " Der": 9798, " 250": 9799, " Assembly": 9800, " athletes": 9801, "Pre": 9802, " Trade": 9803, " fossil": 9804, " enthusi": 9805, " Management": 9806, " suspects": 9807, " tired": 9808, " helic": 9809, "Act": 9810, " counterpart": 9811, " na": 9812, "82": 9813, "achel": 9814, " dating": 9815, " Eth": 9816, " spectrum": 9817, " Metro": 9818, "ateral": 9819, " Station": 9820, " Bal": 9821, " presentation": 9822, " lux": 9823, "gered": 9824, " bottle": 9825, " tap": 9826, "arts": 9827, "riors": 9828, " vig": 9829, " fundra": 9830, " enhance": 9831, "assy": 9832, " Sean": 9833, " therapy": 9834, " Wales": 9835, " Exper": 9836, " perceived": 9837, "market": 9838, " Tok": 9839, " dominant": 9840, "Def": 9841, "math": 9842, " backing": 9843, " Festival": 9844, " underlying": 9845, " defending": 9846, " Through": 9847, " racing": 9848, " discussing": 9849, " expanding": 9850, " muscle": 9851, " stops": 9852, "uz": 9853, " beings": 9854, " Marx": 9855, " Equ": 9856, " transaction": 9857, "rows": 9858, " Uber": 9859, "Cal": 9860, " recruit": 9861, "itudes": 9862, "acher": 9863, " Gary": 9864, " mood": 9865, " picking": 9866, "lando": 9867, "ylum": 9868, "player": 9869, " managers": 9870, "orable": 9871, " gathering": 9872, " hopefully": 9873, "angle": 9874, " Son": 9875, "alysis": 9876, " Video": 9877, "section": 9878, " crus": 9879, " Libya": 9880, " impression": 9881, " hip": 9882, "olar": 9883, "\u00c3\u00a2": 9884, " scrut": 9885, " roy": 9886, " Tai": 9887, "igenous": 9888, " institution": 9889, " Batman": 9890, "}}": 9891, " stere": 9892, " procedures": 9893, "\u00c3\u00b1": 9894, " pocket": 9895, " creatures": 9896, " compat": 9897, " arrival": 9898, "ptions": 9899, "oln": 9900, "watch": 9901, " Boe": 9902, " eager": 9903, " pollution": 9904, "iture": 9905, " foods": 9906, " kitchen": 9907, "ocial": 9908, " recre": 9909, " surviv": 9910, "roph": 9911, " organic": 9912, " Pentagon": 9913, " Morgan": 9914, " shipping": 9915, " capitalism": 9916, " insult": 9917, " timing": 9918, "odox": 9919, " requirement": 9920, "sub": 9921, " unfair": 9922, "aders": 9923, " mice": 9924, " 56": 9925, " Assad": 9926, " Represent": 9927, " Mess": 9928, " MLS": 9929, "Mod": 9930, "Rem": 9931, "atively": 9932, " Elizabeth": 9933, " Op": 9934, " diseases": 9935, " industries": 9936, " Oakland": 9937, " bowl": 9938, " Murray": 9939, " Creat": 9940, " helicop": 9941, " divor": 9942, "agger": 9943, " beach": 9944, " punishment": 9945, "abet": 9946, " shell": 9947, " fled": 9948, " hospitals": 9949, "missions": 9950, " tons": 9951, " Kick": 9952, " seed": 9953, "ogy": 9954, "AF": 9955, "81": 9956, " Comey": 9957, "opyright": 9958, " statist": 9959, " engineers": 9960, " obsc": 9961, " hire": 9962, " module": 9963, "Reg": 9964, "AY": 9965, " coaching": 9966, "amous": 9967, " sed": 9968, "oca": 9969, " answered": 9970, "rac": 9971, "SC": 9972, "TR": 9973, " graphics": 9974, " regulatory": 9975, " sovere": 9976, " stance": 9977, "alties": 9978, " bow": 9979, " Keep": 9980, "Click": 9981, " explaining": 9982, " rhetoric": 9983, " beating": 9984, " tut": 9985, " Friend": 9986, " Email": 9987, "rior": 9988, " Yeah": 9989, "emic": 9990, " Mit": 9991, " acknowledge": 9992, " Michel": 9993, " principal": 9994, " pulling": 9995, "erves": 9996, " signature": 9997, "brid": 9998, "olving": 9999, " convince": 10000, " Roll": 10001, " variable": 10002, "cosystem": 10003, " pill": 10004, " searching": 10005, " Ox": 10006, " dies": 10007, " overcome": 10008, " preferred": 10009, "duction": 10010, " sixth": 10011, " adviser": 10012, " Tennessee": 10013, " !": 10014, " trends": 10015, " Russell": 10016, " (\"": 10017, " Thompson": 10018, " merch": 10019, " rebels": 10020, " interaction": 10021, " periods": 10022, "Ge": 10023, " psychological": 10024, "Mich": 10025, " Sure": 10026, " Using": 10027, " economics": 10028, " Charlie": 10029, " Bi": 10030, " outlets": 10031, " Gil": 10032, " Intel": 10033, " signals": 10034, "pg": 10035, " echo": 10036, " Executive": 10037, " Kentucky": 10038, " tempor": 10039, " billions": 10040, " lineup": 10041, " math": 10042, " Yan": 10043, "urg": 10044, "2013": 10045, " 1991": 10046, " setup": 10047, " rend": 10048, "Finally": 10049, "netic": 10050, " eggs": 10051, "Comm": 10052, " segment": 10053, " arr": 10054, "ui": 10055, "mic": 10056, " badly": 10057, "kee": 10058, " Li": 10059, " sentenced": 10060, " everyday": 10061, " Dragon": 10062, " commander": 10063, " Holl": 10064, " AN": 10065, " loves": 10066, "unicipal": 10067, " genes": 10068, "NBC": 10069, " bold": 10070, " requiring": 10071, " bullet": 10072, " invasion": 10073, "will": 10074, " partly": 10075, " escal": 10076, "91": 10077, " instant": 10078, " gig": 10079, " Jean": 10080, "check": 10081, "!!!": 17637, " arts": 10083, " gene": 10084, " removal": 10085, " undert": 10086, " upload": 10087, "liest": 10088, " Hart": 10089, " topics": 10090, " Iron": 10091, "enezuel": 10092, " inquiry": 10093, " amendment": 10094, " weakness": 10095, " Rather": 10096, " concepts": 10097, "news": 10098, " McK": 10099, "PL": 10100, " shoes": 10101, "arted": 10102, " Sound": 10103, "rer": 10104, " fabric": 10105, "izza": 10106, " Delhi": 10107, "Earlier": 10108, "tsburgh": 10109, " frequent": 10110, " sections": 10111, " occurs": 10112, " Ze": 10113, "oli": 10114, " migrants": 10115, " compensation": 10116, " engineer": 10117, "eness": 10118, " lad": 10119, "has": 10120, " Finally": 10121, " fo": 10122, " attractive": 10123, " Box": 10124, " unve": 10125, "cor": 10126, " ).": 10127, " citing": 10128, " tweets": 10129, " utility": 10130, "arency": 10131, "grade": 10132, " posting": 10133, " ridiculous": 10134, " blockchain": 10135, " cler": 10136, " Clark": 10137, " speaker": 10138, "\u00e2\u0135\u0121": 10139, " diam": 10140, "\u00d8\u00a7": 10141, " corrupt": 10142, " talented": 10143, " lect": 10144, " collaps": 10145, " mask": 10146, "\u00e2\u0121\u0131": 10147, "necess": 10148, "screen": 10149, " notable": 10150, " Therefore": 10151, " elder": 10152, " genre": 10153, "instein": 10154, " deadline": 10155, " rolling": 10156, " carries": 10157, " BM": 10158, "Top": 10159, " Final": 10160, "via": 10161, " ET": 10162, "ental": 10163, " approaches": 10164, " eliminate": 10165, " Priv": 10166, " analysts": 10167, " sits": 10168, " cens": 10169, "State": 10170, " instances": 10171, " Simon": 10172, " publishing": 10173, " unprecedented": 10174, " colour": 10175, " roots": 10176, " Phoenix": 10177, "VP": 10178, " cock": 10179, " bene": 10180, " Dur": 10181, " Psych": 10182, " toxic": 10183, "gus": 10184, " collaboration": 10185, " arc": 10186, " inequality": 10187, " neighbors": 10188, " insight": 10189, " dramatically": 10190, " Harper": 10191, " homosexual": 10192, " towns": 10193, " prize": 10194, " extraordinary": 10195, " perception": 10196, " Gordon": 10197, " Whether": 10198, " Phill": 10199, " parad": 10200, "arget": 10201, " gest": 10202, " maintenance": 10203, "owski": 10204, " GO": 10205, " Gro": 10206, " cheaper": 10207, "isdom": 10208, " associate": 10209, "die": 10210, " coup": 10211, "Mark": 10212, " Event": 10213, " sheet": 10214, " Bow": 10215, " Below": 10216, " distur": 10217, " Sav": 10218, " Captain": 10219, "pack": 10220, " cognitive": 10221, " encouraging": 10222, " dreams": 10223, " Pers": 10224, " seized": 10225, " interviewed": 10226, " deployed": 10227, " violations": 10228, " camps": 10229, " comics": 10230, " constitu": 10231, " Reagan": 10232, " glad": 10233, " reserved": 10234, " buck": 10235, " employers": 10236, "atus": 10237, " aims": 10238, " functional": 10239, " Sa": 10240, " mystery": 10241, " displayed": 10242, "Paul": 10243, "iban": 10244, " span": 10245, " loop": 10246, "apore": 10247, " delight": 10248, "cre": 10249, " traged": 10250, " Economic": 10251, "ixture": 10252, " 57": 10253, "ricane": 10254, " occasionally": 10255, " vend": 10256, " Sud": 10257, " export": 10258, "TON": 10259, " birthday": 10260, " heroes": 10261, "wa": 10262, " fatal": 10263, "estyle": 10264, "oga": 10265, " correctly": 10266, " Stew": 10267, " prompted": 10268, " stamp": 10269, " Cole": 10270, "elle": 10271, " contemporary": 10272, " Access": 10273, " Jenn": 10274, " prospects": 10275, "oting": 10276, " Ve": 10277, " irre": 10278, "AB": 10279, " recommendations": 10280, " diplomatic": 10281, "throp": 10282, " pa": 10283, "ighth": 10284, "mir": 10285, " bell": 10286, " parallel": 10287, " exclud": 10288, "eling": 10289, " constitution": 10290, "onz": 10291, " disappointed": 10292, " manufacturers": 10293, " adequ": 10294, " intr": 10295, " Staff": 10296, " moderate": 10297, " Ever": 10298, " Dog": 10299, "ols": 10300, " ecosystem": 10301, " accompan": 10302, "Time": 10303, " demanded": 10304, "vi": 10305, " 85": 10306, " GDP": 10307, " Photos": 10308, " nose": 10309, " Montreal": 10310, " Dick": 10311, "ailable": 10312, " interpre": 10313, "endar": 10314, " pleased": 10315, "2017": 10316, "rowing": 10317, " labour": 10318, " lifetime": 10319, " Brooklyn": 10320, " Tax": 10321, " Est": 10322, " Reserve": 10323, "rock": 10324, " communicate": 10325, " fights": 10326, " modified": 10327, "non": 10328, " drunk": 10329, " Ocean": 10330, " sessions": 10331, " wedding": 10332, " knock": 10333, " explosion": 10334, " Library": 10335, " biological": 10336, " repair": 10337, " landed": 10338, " EPA": 10339, " 58": 10340, " Authority": 10341, " subsc": 10342, " representation": 10343, " Given": 10344, " artificial": 10345, "250": 10346, "leans": 10347, "fit": 10348, "Fi": 10349, " relation": 10350, " owns": 10351, "ixon": 10352, " Khan": 10353, " Antonio": 10354, " Digital": 10355, " lift": 10356, "agen": 10357, " designer": 10358, "rot": 10359, " recon": 10360, "Thanks": 10361, " emp": 10362, " consciousness": 10363, " kicked": 10364, " Order": 10365, " defender": 10366, " hanging": 10367, " lessons": 10368, "hist": 10369, " imposed": 10370, " guests": 10371, " adopt": 10372, " anonymous": 10373, "150": 10374, " sli": 10375, " concerning": 10376, "wind": 10377, " pregnant": 10378, " Five": 10379, "incoln": 10380, " Bul": 10381, " underground": 10382, " maintaining": 10383, " asset": 10384, "acre": 10385, " Alan": 10386, " punch": 10387, " Rome": 10388, "bourne": 10389, " shirt": 10390, " ingredients": 10391, "Update": 10392, " cheese": 10393, " intellig": 10394, "isition": 10395, " Channel": 10396, " Convention": 10397, " podcast": 10398, " interior": 10399, "graph": 10400, "\":\"": 10401, " emotions": 10402, "ching": 10403, "human": 10404, " abstract": 10405, " Argent": 10406, " couples": 10407, " lesson": 10408, " creature": 10409, " resolve": 10410, " shocked": 10411, " oppose": 10412, "Whe": 10413, " summit": 10414, " performances": 10415, " SU": 10416, " volunteers": 10417, " Burn": 10418, "Dis": 10419, " Bol": 10420, " soldier": 10421, "\u00d1\u0124": 10422, "some": 10423, " stimul": 10424, " logo": 10425, "\u00e0\u00a4": 10426, "appropri": 10427, "istant": 10428, " terr": 10429, "ben": 10430, " vocal": 10431, " accum": 10432, " girlfriend": 10433, " Protection": 10434, "ulty": 10435, " jumped": 10436, " annoy": 10437, " Page": 10438, "wed": 10439, " jihad": 10440, " mile": 10441, " nurs": 10442, "SE": 10443, " Lear": 10444, "dr": 10445, " 600": 10446, " militants": 10447, "acles": 10448, "(\"": 10449, "user": 10450, " guid": 10451, " Fant": 10452, " Missouri": 10453, " professionals": 10454, "Gener": 10455, " Anna": 10456, "Instead": 10457, "ikh": 10458, "ials": 10459, " butter": 10460, " swit": 10461, " refers": 10462, " desktop": 10463, " traveling": 10464, " libr": 10465, "gets": 10466, " isolated": 10467, " forum": 10468, " advocate": 10469, " existed": 10470, " opposing": 10471, " Coal": 10472, " recalled": 10473, "\u00e2\u0121\u00a6.": 10474, "Next": 10475, "Station": 10476, " Case": 10477, "Israel": 10478, " integration": 10479, " describing": 10480, " boxes": 10481, " JavaScript": 10482, " Orleans": 10483, "early": 10484, " stro": 10485, "CD": 10486, " Mail": 10487, " minimal": 10488, " Hal": 10489, "tainment": 10490, " confused": 10491, " Custom": 10492, " SD": 10493, "umph": 10494, " peaceful": 10495, " inherent": 10496, "odge": 10497, " surrounded": 10498, " vert": 10499, "cal": 10500, "sa": 10501, "gate": 10502, "owned": 10503, " Capitol": 10504, "hattan": 10505, " Hand": 10506, "commun": 10507, " holes": 10508, " meal": 10509, " 1989": 10510, " integrity": 10511, " Know": 10512, " Player": 10513, "siss": 10514, " Barb": 10515, " pm": 10516, " inspiration": 10517, " configuration": 10518, " sne": 10519, " Trust": 10520, " Rs": 10521, "hero": 10522, "\u00f0\u0140": 10523, " expense": 10524, "issis": 10525, " credits": 10526, " Non": 10527, "abe": 10528, " Ban": 10529, " subur": 10530, " ideology": 10531, " electoral": 10532, " yell": 10533, " silent": 10534, " dual": 10535, " Marine": 10536, " Doctor": 10537, " stack": 10538, " suspic": 10539, " buried": 10540, "TE": 10541, " Nevada": 10542, "\u00c3\u00a7": 10543, "imize": 10544, " desperate": 10545, " Occ": 10546, "starter": 10547, "Id": 10548, "\u00d0\u00ba": 10549, " scream": 10550, " clip": 10551, " choosing": 10552, " bombs": 10553, "atics": 10554, "Trans": 10555, " CB": 10556, " bands": 10557, " teammates": 10558, " fleet": 10559, " SH": 10560, "iens": 10561, " convert": 10562, " acceptable": 10563, "tra": 10564, " Orlando": 10565, "ibl": 10566, " jer": 10567, "Gu": 10568, " Wright": 10569, " registration": 10570, "List": 10571, " Portug": 10572, " Hitler": 10573, " brutal": 10574, "awks": 10575, "SU": 10576, "Net": 10577, " Move": 10578, " scar": 10579, " ancest": 10580, " Online": 10581, " Alliance": 10582, "election": 10583, " subscribe": 10584, " struggles": 10585, "aro": 10586, " keyboard": 10587, " momentum": 10588, " Leban": 10589, " Area": 10590, " promotion": 10591, " Arsenal": 10592, " Ven": 10593, " evident": 10594, "Fl": 10595, " quit": 10596, "hire": 10597, "father": 10598, "Name": 10599, " organisation": 10600, " wondering": 10601, " Indones": 10602, " closest": 10603, "mits": 10604, "too": 10605, " embrace": 10606, " Steel": 10607, "books": 10608, "isd": 10609, " Following": 10610, " refugee": 10611, " Hamp": 10612, " teeth": 10613, "ART": 10614, " probe": 10615, " Han": 10616, " utter": 10617, "Speaking": 10618, "chell": 10619, " athe": 10620, " Word": 10621, " occasional": 10622, " monster": 10623, "strong": 10624, " assembly": 10625, " bankrupt": 10626, " references": 10627, " journalism": 10628, " expenses": 10629, " subsequently": 10630, "oub": 10631, "stop": 10632, "oker": 10633, " pride": 10634, " guards": 10635, " Mun": 10636, " interpretation": 10637, " Venezuel": 10638, " yeah": 10639, "\u00ef\u00bc": 10640, "hr": 10641, " removing": 10642, " orbit": 10643, " Independent": 10644, " lin": 10645, "Gl": 10646, " Writ": 10647, " profound": 10648, "ipedia": 10649, "rett": 10650, "2012": 10651, " Pittsburgh": 10652, " compromise": 10653, " knife": 10654, " districts": 10655, " exclusively": 10656, " survived": 10657, " Source": 10658, " considerable": 10659, " stating": 10660, " engaging": 10661, " Could": 10662, " refuse": 10663, " bird": 10664, " characteristics": 10665, " Mountain": 10666, " Raj": 10667, " justify": 10668, "HP": 10669, " dominated": 10670, " 72": 10671, "QL": 10672, " briefly": 10673, " Nazi": 10674, "bound": 10675, "arson": 10676, " Rest": 10677, " chip": 10678, " ministers": 10679, " prost": 10680, "grad": 10681, " electron": 10682, " tremendous": 10683, " contrary": 10684, "rend": 10685, " gri": 10686, " sustainable": 10687, "Share": 10688, " loaded": 10689, " flour": 10690, " disappear": 10691, " nervous": 10692, " routes": 10693, "orneys": 10694, " proportion": 10695, " sophistic": 10696, "attered": 10697, " executed": 10698, "ocated": 10699, " 800": 10700, "elve": 10701, " Duke": 10702, " asylum": 10703, "utter": 10704, " Everyone": 10705, " gameplay": 10706, " sexually": 10707, "700": 10708, "Thank": 10709, "Hey": 10710, " Bu": 10711, " pir": 10712, " donors": 10713, " confusion": 10714, " Dream": 10715, " revolutionary": 10716, "amine": 10717, "cap": 10718, " Aaron": 10719, " Andy": 10720, " Pant": 10721, "Ag": 10722, " curious": 10723, " Treasury": 10724, " harsh": 10725, "limited": 10726, "lihood": 10727, "income": 10728, "KE": 10729, " attending": 10730, " Adams": 10731, "immer": 10732, " IM": 10733, "\u00c3\u00a8": 10734, "security": 10735, "UC": 10736, " speakers": 10737, " cabinet": 10738, "\u00c3\u00b3n": 10739, " nowhere": 10740, "reek": 10741, " flee": 10742, " void": 10743, " brands": 10744, " chronic": 10745, " printed": 10746, " Tesla": 10747, " Short": 10748, " charging": 10749, " engines": 10750, " physics": 10751, "reck": 10752, " Having": 10753, "function": 10754, " Mult": 10755, " concert": 10756, "scar": 10757, " Sheriff": 10758, " outcomes": 10759, "inge": 10760, " Aren": 10761, " Officer": 10762, "MAN": 10763, "ublished": 10764, "olid": 10765, "otte": 10766, " orient": 10767, "inst": 10768, " mirror": 10769, " Jun": 10770, " strengthen": 10771, " Gib": 10772, "thood": 10773, " fails": 10774, "opt": 10775, " spo": 10776, " obser": 10777, " chaos": 10778, ".]": 10779, " passenger": 10780, " iPad": 10781, " Current": 10782, " criminals": 10783, " fel": 10784, " Spir": 10785, " steady": 10786, " lobb": 10787, " Robinson": 10788, " Nether": 10789, "merce": 10790, " \u00c2\u00b1": 10791, " robust": 10792, " Manhattan": 10793, " CON": 10794, "white": 10795, "IE": 10796, " endors": 10797, " speculation": 10798, " Change": 10799, "reshold": 10800, " certific": 10801, " deemed": 10802, " Taliban": 10803, " dropping": 10804, " hiring": 10805, " Norm": 10806, " Giants": 10807, " Singapore": 10808, " Alp": 10809, " integrated": 10810, " Perry": 10811, " presents": 10812, " avo": 10813, " Band": 10814, " FA": 10815, " guaranteed": 10816, "apper": 10817, " fert": 10818, " epic": 10819, " leaked": 10820, " Ts": 10821, " Kings": 10822, " packages": 10823, "mble": 10824, " pleasure": 10825, "BN": 10826, " suspension": 10827, " challenged": 10828, " packed": 10829, " checking": 10830, "\u00e0\u00b8": 10831, " bits": 10832, "good": 10833, " vit": 10834, " engagement": 10835, " radiation": 10836, " slot": 10837, " bombing": 10838, " Hu": 10839, " patri": 10840, "leep": 10841, " da": 10842, " alert": 10843, "Pal": 10844, "istle": 10845, " wet": 10846, "rics": 10847, " hunting": 10848, " USB": 10849, " Tel": 10850, "riv": 10851, "\u00c4\u0122": 10852, " produces": 10853, " witnesses": 10854, " Craig": 10855, "ophob": 10856, " editorial": 10857, " defended": 10858, " recovered": 10859, " Holy": 10860, "mented": 10861, "Red": 10862, " developments": 10863, " simultaneously": 10864, " boom": 10865, " Log": 10866, " bacteria": 10867, " blocking": 10868, "Right": 10869, " Later": 10870, " 59": 10871, " attracted": 10872, " 66": 10873, " figured": 10874, " Opp": 10875, " Hung": 10876, " correl": 10877, " alliance": 10878, " researcher": 10879, " taxpayers": 10880, " Entertainment": 10881, " Les": 10882, " None": 10883, " caps": 10884, "card": 10885, "imb": 10886, " Jeremy": 10887, " hosts": 10888, " cinem": 10889, " patent": 10890, " Russians": 10891, "izarre": 10892, " examine": 10893, "ATCH": 10894, " Future": 10895, " variables": 10896, "aste": 10897, "ERE": 10898, " Lincoln": 10899, "ifier": 10900, " oxy": 10901, " embed": 10902, " junior": 10903, "lynn": 10904, "ateful": 10905, "Black": 10906, " Gh": 10907, "uter": 10908, " Chairman": 10909, " publish": 10910, " Tower": 10911, "JP": 10912, " tear": 10913, "oned": 10914, " 62": 10915, " meth": 10916, "test": 10917, " breast": 10918, " Vlad": 10919, "DR": 10920, "gly": 10921, " vent": 10922, " Poland": 10923, " Ukrainian": 10924, " Studies": 10925, "adesh": 10926, "gged": 10927, "dep": 10928, " enact": 10929, "Car": 10930, "may": 10931, " Dak": 10932, " flights": 10933, "omic": 10934, " accuracy": 10935, " flav": 10936, " Wi": 10937, " distribut": 10938, " los": 10939, " impacts": 10940, " surprisingly": 10941, " solo": 10942, " raises": 10943, " burned": 10944, " Kit": 10945, " ric": 10946, " Bor": 10947, "dam": 10948, " Sci": 10949, " angle": 10950, "secutive": 10951, " Would": 10952, " evac": 10953, " qualified": 10954, " decrease": 10955, " CPU": 10956, "oft": 10957, "nie": 10958, " evolved": 10959, "vas": 10960, " flavor": 10961, "olitical": 10962, "imir": 10963, " unnecess": 10964, "aco": 10965, " assemb": 10966, " Total": 10967, " intimid": 10968, "wich": 10969, " Ub": 10970, " courtesy": 10971, " OR": 10972, "Cor": 10973, " fingers": 10974, " MPs": 10975, "rition": 10976, " productive": 10977, " voc": 10978, " blamed": 10979, "etheless": 10980, " HIV": 10981, " dependent": 10982, " expecting": 10983, " transferred": 10984, " Rangers": 10985, " enabled": 10986, " identical": 10987, " visits": 10988, " expects": 10989, " lane": 10990, "dict": 10991, " Gill": 10992, "bul": 10993, " ignor": 10994, " accord": 10995, " Griff": 10996, "terror": 10997, "ishers": 10998, "anim": 10999, "Book": 11000, " Stewart": 11001, " venture": 11002, "bin": 11003, " CC": 11004, " barg": 11005, " shops": 11006, " departure": 11007, " Command": 11008, "Br": 11009, " Mississ": 11010, " killer": 11011, " repeal": 11012, " motivated": 11013, " restore": 11014, " agreements": 11015, " Du": 11016, " conflicts": 11017, "thodox": 11018, " organis": 11019, " scared": 11020, " forgotten": 11021, "df": 11022, " Think": 11023, "iden": 11024, "icked": 11025, "ulse": 11026, " inher": 11027, " nationwide": 11028, " Edition": 11029, "bian": 11030, " cycl": 11031, " influenced": 11032, " criteria": 11033, " Ni": 11034, "ernand": 11035, " occupied": 11036, " animation": 11037, " BC": 11038, " trailer": 11039, " ranking": 11040, " Pope": 11041, " Should": 11042, " Things": 11043, " `": 11044, " backs": 11045, "ahoo": 11046, " telephone": 11047, " occasion": 11048, "TO": 11049, "about": 11050, "unity": 11051, " analys": 11052, " Reddit": 11053, " functionality": 11054, " checked": 11055, " concentration": 11056, " Model": 11057, "looking": 11058, " households": 11059, "link": 11060, " reass": 11061, "onduct": 11062, " algorithm": 11063, " courage": 11064, "rah": 11065, "ressing": 11066, " Support": 11067, " promoted": 11068, " Hug": 11069, "oup": 11070, " imprison": 11071, "aments": 11072, " explicitly": 11073, " batter": 11074, " desp": 11075, " babies": 11076, "iar": 11077, " tanks": 11078, " ought": 11079, " static": 11080, " Product": 11081, " releasing": 11082, " antib": 11083, " Place": 11084, "rike": 11085, " subtle": 11086, "Former": 11087, "ILL": 11088, " stats": 11089, " bases": 11090, " strip": 11091, " doct": 11092, "large": 11093, "uating": 11094, "\u00e2\u0135\u0121\u00e2\u0135": 11095, " privilege": 11096, " Jerry": 11097, "MB": 11098, " Moreover": 11099, "agine": 11100, " Ent": 11101, "Gr": 11102, " Warner": 11103, " NO": 11104, " meters": 11105, " entrance": 11106, "ippi": 11107, " nod": 11108, " tower": 11109, " investigated": 11110, "Three": 11111, " senators": 11112, "zone": 11113, " Cold": 11114, " Canadians": 11115, "iere": 11116, " hub": 11117, " wise": 11118, " overl": 11119, " applies": 11120, " formula": 11121, " Standard": 11122, "ollar": 11123, " Eb": 11124, " Egyptian": 11125, " mart": 11126, " Christopher": 11127, " inevitable": 11128, "breaking": 11129, " uncertainty": 11130, " provider": 11131, "actor": 11132, " painting": 11133, " continu": 11134, " modest": 11135, " lens": 11136, " influential": 11137, " destination": 11138, " Queens": 11139, " Map": 11140, "forward": 11141, "izations": 11142, "\",\"": 11143, " chips": 11144, "being": 11145, "Supp": 11146, " ally": 11147, " infection": 11148, " dimin": 11149, "leading": 11150, " Univers": 11151, " jet": 11152, "kes": 11153, " solely": 11154, " belt": 11155, " screw": 11156, " inaug": 11157, " 63": 11158, " insist": 11159, "Good": 11160, "Yeah": 11161, "rying": 11162, " TR": 11163, " Niger": 11164, " theft": 11165, "uccess": 11166, " Marg": 11167, " politician": 11168, " Alaska": 11169, " transparency": 11170, " PlayStation": 11171, " invested": 11172, " singer": 11173, " immune": 11174, " Ottawa": 11175, " provisions": 11176, "istance": 11177, " Stock": 11178, "town": 11179, " handled": 11180, "overs": 11181, " py": 11182, " uncomfort": 11183, "ampa": 11184, " Olympics": 11185, " Louisiana": 11186, " impressed": 11187, " inbox": 11188, " Oil": 11189, " operator": 11190, "SD": 11191, "ardo": 11192, "untu": 11193, " Netherlands": 11194, "Em": 11195, " balls": 11196, " tent": 11197, "ilation": 11198, " Jane": 11199, " colleg": 11200, " similarly": 11201, " lifestyle": 11202, " headlines": 11203, "idal": 11204, "offs": 11205, "olas": 11206, " boards": 11207, "rifice": 11208, "?)": 11209, " Trek": 11210, "comp": 11211, " disabled": 11212, "thur": 11213, " Kr": 11214, "ante": 11215, "ixel": 11216, " Stanley": 11217, " operated": 11218, " regarded": 11219, "var": 11220, " Type": 11221, " launching": 11222, " SN": 11223, " reluct": 11224, " Exp": 11225, "achment": 11226, "wall": 11227, "Down": 11228, " Mother": 11229, " bol": 11230, " Drug": 11231, " volunt": 11232, " photographs": 11233, "such": 11234, " kidn": 11235, "?\u00e2\u0121\u013a": 11236, " sake": 11237, "citation": 11238, " keen": 11239, " detention": 11240, "track": 11241, " consecutive": 11242, "rc": 11243, "Obama": 11244, " gym": 11245, " Unlike": 11246, "inite": 11247, "million": 11248, ").[": 11249, " Blood": 11250, " prosecutor": 11251, " filter": 11252, " Da": 11253, " prosecution": 11254, "keley": 11255, " suck": 11256, "anguage": 11257, " conviction": 11258, "ige": 11259, "uther": 11260, " earthqu": 11261, " rolled": 11262, " kiss": 11263, " Table": 11264, "oning": 11265, "erald": 11266, "armed": 11267, "ista": 11268, " inex": 11269, " Modi": 11270, "orate": 11271, " Corporation": 11272, "aha": 11273, " Caption": 11274, "tarian": 11275, " Corp": 11276, "bitious": 11277, " bulk": 11278, "first": 11279, " Hampshire": 11280, " males": 11281, " FO": 11282, "Jo": 11283, " unre": 11284, " tears": 11285, " tragedy": 11286, " chocolate": 11287, " mouse": 11288, " poet": 11289, " preserve": 11290, "llor": 11291, " guidance": 11292, " Father": 11293, " Tam": 11294, " Being": 11295, " leak": 11296, " Philippines": 11297, "Bel": 11298, " Forest": 11299, "urches": 11300, " nu": 11301, "lean": 11302, "assion": 11303, " bags": 11304, " Several": 11305, " reck": 11306, "block": 11307, " destro": 11308, " examined": 11309, " synd": 11310, " accepting": 11311, " elabor": 11312, " missiles": 11313, "Further": 11314, " absurd": 11315, " beneath": 11316, " neur": 11317, " participating": 11318, "vironments": 11319, "bes": 11320, " 1000": 11321, " Hans": 11322, " neighborhoods": 11323, "ucker": 11324, " Stanford": 11325, " compelling": 11326, " reflects": 11327, " Wy": 11328, " complained": 11329, "\u0121\u00e2\u0135\u0121": 11330, " adap": 11331, " bother": 11332, " controller": 11333, " luxury": 11334, " Victoria": 11335, " Edit": 11336, " Marc": 11337, " Grant": 11338, " Morm": 11339, "laim": 11340, "aya": 11341, " theater": 11342, " Mario": 11343, " enfor": 11344, " Nelson": 11345, " shelter": 11346, "stra": 11347, "boys": 11348, " fer": 11349, " Medicare": 11350, " Cloud": 11351, "speed": 11352, "rin": 11353, " fits": 11354, " Medicaid": 11355, " jurisd": 11356, "mons": 11357, "ouses": 11358, " poster": 11359, "usting": 11360, " Knight": 11361, " consists": 11362, "\u00e2\u0121\u013e)": 11363, "opp": 11364, " pose": 11365, " significance": 11366, " polling": 11367, "bat": 11368, " Film": 11369, " stopping": 11370, "friendly": 11371, " occasions": 11372, "neg": 11373, " bone": 11374, "vo": 11375, " DE": 11376, " Tokyo": 11377, " Rubio": 11378, " wireless": 11379, " realistic": 11380, " excuse": 11381, " Local": 11382, "Among": 11383, " ..": 11384, "Each": 11385, " Cas": 11386, " Imm": 11387, " Chron": 11388, " tension": 11389, " accompanied": 11390, " seeks": 11391, "asm": 11392, " Gard": 11393, " backup": 11394, "otion": 11395, " resemb": 11396, " mandate": 11397, " Had": 11398, "fish": 11399, " Sport": 11400, " theoret": 11401, " Pa": 11402, " Continue": 11403, "ello": 11404, " assists": 11405, " possibilities": 11406, " Quest": 11407, "ects": 11408, " beta": 11409, " accusations": 11410, " Winter": 11411, "iah": 11412, " advent": 11413, " cooking": 11414, " CR": 11415, " Champions": 11416, " Abu": 11417, " supposedly": 11418, " inhab": 11419, " Snowden": 11420, " emphasis": 11421, " finishing": 11422, " Dal": 11423, "ping": 11424, " sustained": 11425, "Perhaps": 11426, "cat": 11427, " Malays": 11428, " beaten": 11429, " SEC": 11430, "itement": 11431, " bump": 11432, "iper": 11433, " Pear": 11434, " dressed": 11435, " awards": 11436, " projected": 11437, "isms": 11438, " Nothing": 11439, " torn": 11440, " innovative": 11441, " Everything": 11442, " Mind": 11443, " affects": 11444, " Abd": 11445, " polar": 11446, " preventing": 11447, " constructed": 11448, " Ka": 11449, " Flash": 11450, " Bir": 11451, "bery": 11452, " longtime": 11453, "ATION": 11454, "thal": 11455, "Following": 11456, " Section": 11457, " fucking": 11458, " Vin": 11459, " eru": 11460, " garden": 11461, " 360": 11462, "IO": 11463, " Organization": 11464, " speeds": 11465, " fed": 11466, " operators": 11467, " Soft": 11468, "ilst": 11469, " gut": 11470, " Financial": 11471, " drum": 11472, " manual": 11473, " outstanding": 11474, " password": 11475, " mortgage": 11476, " Hamas": 11477, " entity": 11478, " Python": 11479, "cott": 11480, " recession": 11481, " Nich": 11482, "una": 11483, " wisdom": 11484, " Steam": 11485, " Nature": 11486, " documented": 11487, " traded": 11488, " intrig": 11489, " IV": 11490, " golf": 11491, " Jimmy": 11492, " occupation": 11493, " Kurdish": 11494, " oldest": 11495, " fut": 11496, " documentation": 11497, " favourite": 11498, "iox": 11499, " praised": 11500, " residential": 11501, "incial": 11502, " spotted": 11503, " cops": 11504, "century": 11505, "Bar": 11506, "ega": 11507, "ugby": 11508, " revenues": 11509, " Commons": 11510, " Third": 11511, " layers": 11512, " walks": 11513, "olitan": 11514, " MA": 11515, " interactions": 11516, " Patriots": 11517, " surge": 11518, "charg": 11519, " bicy": 11520, " awful": 11521, " panels": 11522, " ther": 11523, " calculated": 11524, " Dom": 11525, " infant": 11526, " circuit": 11527, "cular": 11528, "iated": 11529, " experimental": 11530, " 67": 11531, "\u00e2\u0123\u00ac": 11532, "rons": 11533, "DC": 11534, " renewable": 11535, "ques": 11536, " automatic": 11537, " CL": 11538, " mysterious": 11539, " dirty": 11540, "anyahu": 11541, " Lad": 11542, " trains": 11543, " Others": 11544, " threshold": 11545, " tale": 11546, " Nash": 11547, " 68": 11548, " Kal": 11549, " dealt": 11550, " Rh": 11551, " reviewed": 11552, " 61": 11553, "\u00e2\u0137\u0129": 11554, "lied": 11555, " painful": 11556, " globe": 11557, " Citiz": 11558, "leted": 11559, "mn": 11560, " coin": 11561, " trips": 11562, "irs": 11563, " True": 11564, " Airport": 11565, "requ": 11566, " Wayne": 11567, " cleared": 11568, "err": 11569, "omer": 11570, " Fle": 11571, " earnings": 11572, "arded": 11573, "~~": 11574, "Ben": 11575, " crossed": 11576, " administrative": 11577, " convenient": 11578, " graphic": 11579, " riders": 11580, " Emer": 11581, " Nik": 11582, " lady": 11583, " liberty": 11584, " ranging": 11585, " bizarre": 11586, " pour": 11587, " iter": 11588, "uto": 11589, " org": 11590, " hes": 11591, "former": 11592, " displays": 11593, " iconic": 11594, " environments": 11595, " robots": 11596, " mothers": 11597, "China": 11598, " hosting": 11599, " ambitious": 11600, "Mart": 11601, " 1988": 11602, "ding": 11603, "owder": 11604, "seless": 11605, " desert": 11606, "beat": 11607, " reserve": 11608, " secular": 11609, "Mon": 11610, " sentiment": 11611, " predec": 11612, " McDonald": 11613, "Ps": 11614, "isive": 11615, "jamin": 11616, "Only": 11617, " converted": 11618, " Climate": 11619, " tissue": 11620, " Murphy": 11621, " Larry": 11622, " tum": 11623, " AFP": 11624, " FOR": 11625, " drops": 11626, " Deep": 11627, "shore": 11628, "kind": 11629, "Did": 11630, " exploit": 11631, " Dean": 11632, "words": 11633, " Reds": 11634, " Summer": 11635, " creator": 11636, " resort": 11637, "count": 11638, " addressing": 11639, " Var": 11640, " anch": 11641, " sons": 11642, " safely": 11643, " hiding": 11644, " attorneys": 11645, "\u00c3\u00a5": 11646, " devastating": 11647, "EMENT": 11648, "two": 11649, " spray": 11650, " sleeping": 11651, "uably": 11652, " crossing": 11653, " Sin": 11654, " pension": 11655, " Sac": 11656, " restricted": 11657, " arrests": 11658, " wore": 11659, " scrutiny": 11660, "ICE": 11661, "uj": 11662, " unfortunately": 11663, "puter": 11664, " burst": 11665, " Pir": 11666, " libraries": 11667, " departments": 11668, " murdered": 11669, " competitors": 11670, " Drive": 11671, " whis": 11672, " align": 11673, " container": 11674, " availability": 11675, " newsletters": 11676, " filing": 11677, " Singh": 11678, "kward": 11679, " adoption": 11680, "ailing": 11681, " newspapers": 11682, " misc": 11683, "bet": 11684, "atter": 11685, " productivity": 11686, " toss": 11687, "pin": 11688, " reign": 11689, " builds": 11690, " SE": 11691, " discrimin": 11692, " pregnancy": 11693, " NS": 11694, "celona": 11695, " overnight": 11696, " indication": 11697, " appearing": 11698, "oyd": 11699, " publisher": 11700, " earning": 11701, "ighting": 11702, "arians": 11703, " combine": 11704, " viewing": 11705, " duties": 11706, "evelop": 11707, "ASH": 11708, " Manning": 11709, "oj": 11710, " mm": 11711, " fishing": 11712, " reflected": 11713, "isode": 11714, " Tan": 11715, "arios": 11716, " uncomfortable": 11717, " Magazine": 11718, " tu": 11719, " Whit": 11720, " regret": 11721, "government": 11722, " municipal": 11723, " Furthermore": 11724, "named": 11725, "Check": 11726, "data": 11727, "gence": 11728, " Native": 11729, "agu": 11730, "dev": 11731, "UD": 11732, " horrible": 11733, "accept": 11734, "bably": 11735, "oop": 11736, " chemicals": 11737, " relie": 11738, " anonym": 11739, " cave": 11740, " separated": 11741, "Maybe": 11742, "uels": 11743, " sophisticated": 11744, "World": 11745, " rivals": 11746, " rewards": 11747, " Fig": 11748, "oria": 11749, " viable": 11750, " deserves": 11751, " pricing": 11752, "eller": 11753, " acted": 11754, " Phys": 11755, " Wiki": 11756, " relatives": 11757, " indu": 11758, " Mand": 11759, " winners": 11760, " recept": 11761, " Madrid": 11762, " slide": 11763, " preparation": 11764, " equipped": 11765, "version": 11766, " ritual": 11767, " limitations": 11768, " Chrome": 11769, " Inn": 11770, "ernel": 11771, " 1984": 11772, " complexity": 11773, " amongst": 11774, " Ronald": 11775, " ==": 11776, " mechanisms": 11777, " peer": 11778, " commod": 11779, "lesh": 11780, " parameters": 11781, " Federation": 11782, " firearms": 11783, " carrier": 11784, " bip": 11785, " tob": 11786, " Naz": 11787, "size": 11788, " suggestions": 11789, " Heart": 11790, "iors": 11791, "gal": 11792, " Na": 11793, " delayed": 11794, " HTML": 11795, " Blu": 11796, " exploring": 11797, " meets": 11798, "winning": 11799, " toug": 11800, " 1986": 11801, " coord": 11802, " Taiwan": 11803, " lighting": 11804, " curve": 11805, "tit": 11806, " startup": 11807, " Collins": 11808, "emit": 11809, " intelligent": 11810, "Unfortunately": 11811, " ghost": 11812, " celebrated": 11813, " Mississippi": 11814, " abund": 11815, " cease": 11816, "arer": 11817, " interven": 11818, "/.": 11819, " quietly": 11820, " ensuring": 11821, " Poll": 11822, "XX": 11823, "ATED": 11824, "burn": 11825, " rebel": 11826, " Luke": 11827, " nights": 11828, "map": 11829, "quer": 11830, " collecting": 11831, "2011": 11832, " translation": 11833, " worlds": 11834, " detained": 11835, "fi": 11836, " orange": 11837, " McCon": 11838, "profile": 11839, "DAY": 11840, " beef": 11841, " employer": 11842, " DVD": 11843, " Level": 11844, "Pat": 11845, " Bab": 11846, "acies": 11847, " radar": 11848, " Sex": 11849, "White": 11850, " installation": 11851, " Block": 11852, " delivering": 11853, "avery": 11854, " designated": 11855, " coins": 11856, "Michael": 11857, " migration": 11858, " debates": 11859, " );": 11860, "THE": 11861, " pledge": 11862, " Melbourne": 11863, "oda": 11864, " catast": 11865, " EC": 11866, " grants": 11867, " caution": 11868, " offseason": 11869, " notably": 11870, " bugs": 11871, " tablet": 11872, "emin": 11873, "hyth": 11874, " themes": 11875, "RO": 11876, "uates": 11877, " Express": 11878, " wrap": 11879, "natural": 11880, " golden": 11881, "gov": 11882, " delegates": 11883, "Advertisements": 11884, "Att": 11885, " courses": 11886, "\u00e2\u0121\u00b3": 11887, " countless": 11888, " Eagles": 11889, " Disc": 11890, " witnessed": 11891, " gradually": 11892, " Quebec": 11893, "alid": 11894, " commands": 11895, " Cuba": 11896, "code": 11897, "ori": 11898, " Coalition": 11899, " tends": 11900, " violated": 11901, " meanwhile": 11902, "ected": 11903, " psychiat": 11904, "media": 11905, " demonstration": 11906, "pot": 11907, " demo": 11908, " Crit": 11909, " Pod": 11910, "formance": 11911, " commentary": 11912, "witzer": 11913, " Swedish": 11914, " annually": 11915, " forb": 11916, " pending": 11917, "onds": 11918, " Heat": 11919, " Eve": 11920, " observations": 11921, " thro": 11922, "orical": 11923, "athon": 11924, " Saint": 11925, "oples": 11926, "ersion": 11927, "arently": 11928, " Toy": 11929, "\u00e2\u0121\u013a\u00e2\u0121": 11930, "arma": 11931, " remembered": 11932, " fires": 11933, " questioning": 11934, "rencies": 11935, " climb": 11936, " Smart": 11937, " Nap": 11938, " laptop": 11939, "FS": 11940, " verify": 11941, " impose": 11942, " highlighted": 11943, " replacing": 11944, "rup": 11945, " corn": 11946, " Lady": 11947, " seeds": 11948, " contents": 11949, " hunt": 11950, " preview": 11951, "elcome": 11952, "Media": 11953, "\u013a\u00e2\u0121\u013a": 11954, "founder": 11955, " frustration": 11956, " Marshall": 11957, " discipline": 11958, " patrol": 11959, " supplement": 11960, " poorly": 11961, "onda": 11962, "udeau": 11963, " comed": 11964, " grave": 11965, " Progress": 11966, " praise": 11967, " tempt": 11968, " Peace": 11969, " Arts": 11970, " furn": 11971, " bathroom": 11972, " Pel": 11973, "rait": 11974, "piece": 11975, " actress": 11976, " aspir": 11977, " happiness": 11978, " Ky": 11979, " exploration": 11980, " gentle": 11981, " Round": 11982, " cruel": 11983, " Lions": 11984, "omach": 11985, " starter": 11986, "outing": 11987, " Hunter": 11988, " prevented": 11989, " Blake": 11990, " chamber": 11991, "file": 11992, " Len": 11993, " Ward": 11994, " prayer": 11995, " cultiv": 11996, " Storm": 11997, " venue": 11998, " permitted": 11999, " instantly": 12000, " oxygen": 12001, " Huff": 12002, "War": 12003, " altogether": 12004, "urities": 12005, "Republic": 12006, " bonds": 12007, "atal": 12008, " ambassador": 12009, " Beat": 12010, " Motor": 12011, ".),": 12012, " arena": 12013, "ugs": 12014, " conced": 12015, " Berkeley": 12016, " disappeared": 12017, " planes": 12018, " 76": 12019, " technological": 12020, "Min": 12021, "string": 12022, " Ay": 12023, "shot": 12024, "ierre": 12025, " suggestion": 12026, " Roger": 12027, " partially": 12028, " agriculture": 12029, " Ow": 12030, "anches": 12031, " unl": 12032, " dil": 12033, " drinks": 12034, "ocur": 12035, " Campbell": 12036, "flow": 12037, " Fergus": 12038, " sizes": 12039, " incorrect": 12040, "Twitter": 12041, " protections": 12042, " FR": 12043, "hill": 12044, " fascinating": 12045, " Environmental": 12046, " Christianity": 12047, "group": 12048, " vaccine": 12049, "aman": 12050, " Hawaii": 12051, " Additionally": 12052, " logical": 12053, " Mas": 12054, " Hann": 12055, " parks": 12056, " Much": 12057, "aucus": 12058, " styles": 12059, "atical": 12060, " supporter": 12061, " honestly": 12062, " adj": 12063, " alike": 12064, " Laur": 12065, "appropriate": 12066, " NCAA": 12067, " prol": 12068, " tobacco": 12069, " marginal": 12070, "encer": 12071, " toll": 12072, " summary": 12073, "ttes": 12074, "ologically": 12075, " flew": 12076, " Gene": 12077, " Kickstarter": 12078, " advised": 12079, " Gab": 12080, " hearts": 12081, " compr": 12082, " singing": 12083, "Leaks": 12084, " wound": 12085, "Their": 12086, " appointment": 12087, " Qual": 12088, " Forces": 12089, " Congressional": 12090, " ethics": 12091, " Jen": 12092, " stunning": 12093, "esides": 12094, " capability": 12095, " Mitchell": 12096, " transmission": 12097, " enterprise": 12098, " Cry": 12099, " Vladimir": 12100, " metaph": 12101, "chron": 12102, " Speaker": 12103, "bu": 12104, " prosper": 12105, " powered": 12106, " Manager": 12107, " reactions": 12108, " Editor": 12109, " essay": 12110, " electrical": 12111, " cous": 12112, "pling": 12113, " stressed": 12114, " haz": 12115, "py": 12116, " Todd": 12117, " faculty": 12118, " makers": 12119, " Gre": 12120, " Corps": 12121, " ash": 12122, " Arena": 12123, " ceiling": 12124, " sket": 12125, "sk": 12126, " derived": 12127, " Reid": 12128, "last": 12129, " seventh": 12130, " Name": 12131, "ivan": 12132, " mountains": 12133, " celebration": 12134, " rice": 12135, " pressing": 12136, " arguably": 12137, " drafted": 12138, " crown": 12139, " damn": 12140, "lected": 12141, " depos": 12142, " raid": 12143, " Jess": 12144, " RT": 12145, " Orange": 12146, " UI": 12147, "NT": 12148, " endless": 12149, "Fe": 12150, " Imp": 12151, " traveled": 12152, "utt": 12153, " complain": 12154, " Benn": 12155, " drones": 12156, " Sessions": 12157, " Commissioner": 12158, " Oxford": 12159, "TIS": 12160, " ineff": 12161, " Brus": 12162, " Row": 12163, "gments": 12164, " awkward": 12165, " bund": 12166, "orer": 12167, "witzerland": 12168, " applying": 12169, " Watson": 12170, " sacrifice": 12171, " accomplished": 12172, " shooter": 12173, " Bah": 12174, "gary": 12175, "('": 12176, " bubble": 12177, " weaken": 12178, "ults": 12179, "Take": 12180, " Flynn": 12181, " epid": 12182, "onia": 12183, " mechanics": 12184, " assumption": 12185, "aughters": 12186, " advocacy": 12187, " cats": 12188, " hostile": 12189, "ims": 12190, " breach": 12191, " revealing": 12192, "BL": 12193, " fract": 12194, " respective": 12195, "handed": 12196, "bie": 12197, " scratch": 12198, "Have": 12199, "storm": 12200, " Modern": 12201, "Several": 12202, " expertise": 12203, " Dakota": 12204, " devoted": 12205, "Second": 12206, "hol": 12207, "atoes": 12208, " Parker": 12209, " Indians": 12210, " Baker": 12211, " anarch": 12212, " circles": 12213, "mare": 12214, " strongest": 12215, "atin": 12216, " Rap": 12217, " Chall": 12218, "written": 12219, " focuses": 12220, "DE": 12221, "formed": 12222, "ipher": 12223, " shocking": 12224, " sword": 12225, " calendar": 12226, "uez": 12227, "oard": 12228, " audiences": 12229, " mic": 12230, " ---": 12231, " lone": 12232, " Kas": 12233, " citizenship": 12234, " buyers": 12235, "agraph": 12236, " confirmation": 12237, " Medicine": 12238, "uming": 12239, "WS": 12240, "Eng": 12241, " trucks": 12242, " 700": 12243, " particles": 12244, "idth": 12245, " frank": 12246, " acquisition": 12247, " conclusions": 12248, " computing": 12249, " sauce": 12250, "\u00e2\u0125": 12251, "sur": 12252, " Lawrence": 12253, "uerto": 12254, " unnecessary": 12255, " directors": 12256, "mid": 12257, "Data": 12258, " rod": 12259, " lyr": 12260, " Date": 12261, "Bre": 12262, " lineback": 12263, "actory": 12264, "GM": 12265, " penalties": 12266, " decor": 12267, "itate": 12268, "half": 12269, " spy": 12270, " longest": 12271, " responding": 12272, " Temple": 12273, "lli": 12274, "liver": 12275, "vol": 12276, "vious": 12277, "nor": 12278, "2010": 12279, "Hist": 12280, "itivity": 12281, "anded": 12282, " Find": 12283, " bitter": 12284, " ED": 12285, "Men": 12286, "brew": 12287, "byn": 12288, " stir": 12289, " Resp": 12290, " Hus": 12291, "ocus": 12292, " historically": 12293, " entities": 12294, " Morris": 12295, "atre": 12296, " advertisement": 12297, " interrupt": 12298, " Dor": 12299, " addiction": 12300, " yard": 12301, " bears": 12302, " placing": 12303, " Yang": 12304, " contributing": 12305, " boundaries": 12306, " greet": 12307, " qualify": 12308, "stan": 12309, " Ferguson": 12310, " understands": 12311, " Sunn": 12312, " composition": 12313, " duration": 12314, "?'": 12315, "jan": 12316, " quantum": 12317, "borne": 12318, " Hotel": 12319, " conversion": 12320, " shake": 12321, " frustrated": 12322, "\u00d9\u0125": 12323, " coordinator": 12324, " Legisl": 12325, " operates": 12326, " orientation": 12327, " hacking": 12328, " Safety": 12329, " Prom": 12330, "zes": 12331, " Barcelona": 12332, "MM": 12333, " cam": 12334, " stun": 12335, "Given": 12336, " Roc": 12337, "PI": 12338, " Records": 12339, " priest": 12340, " feminist": 12341, "lements": 12342, " Hispan": 12343, "acular": 12344, " Jacob": 12345, "Inter": 12346, " 1987": 12347, "Big": 12348, "andy": 12349, "\u00e2\u0121\u00a6\u00e2\u0121": 12350, " distant": 12351, " motivation": 12352, " fastest": 12353, " tar": 12354, "minded": 12355, " grocer": 12356, " painted": 12357, " popul": 12358, "boards": 12359, " Ian": 12360, "Set": 12361, " Netanyahu": 12362, "umm": 12363, "outheast": 12364, " pedest": 12365, " FCC": 12366, "liminary": 12367, " overd": 12368, "connect": 12369, " Rain": 12370, " node": 12371, "\u00a6\u00e2\u0121\u00a6": 12372, "IST": 12373, " density": 12374, " UC": 12375, "PDATE": 12376, " oversight": 12377, " tunnel": 12378, " Ry": 12379, " experiencing": 12380, " controlling": 12381, " counties": 12382, "orph": 12383, " mild": 12384, "La": 12385, " safer": 12386, " Hend": 12387, "tech": 12388, " Song": 12389, " till": 12390, "fs": 12391, " vague": 12392, " 1979": 12393, " divide": 12394, "bles": 12395, " Fif": 12396, "prot": 12397, " BE": 12398, " Swiss": 12399, "km": 12400, "Med": 12401, " transformation": 12402, " directions": 12403, " Bart": 12404, "asted": 12405, " receives": 12406, " sentences": 12407, " imperial": 12408, "leton": 12409, "dec": 12410, "mart": 12411, "\u00c2\u00b7": 12412, "Figure": 12413, " ugly": 12414, " suprem": 12415, " illegally": 12416, "comed": 12417, " probability": 12418, "acer": 12419, " intensity": 12420, " composed": 12421, "abling": 12422, "Euro": 12423, " enjoying": 12424, " Cos": 12425, "ogg": 12426, " Abbott": 12427, "western": 12428, " heaven": 12429, " dign": 12430, " Side": 12431, "supp": 12432, " mandatory": 12433, "specific": 12434, "ACK": 12435, " conservation": 12436, " achievement": 12437, " gaining": 12438, " Remember": 12439, " Bloomberg": 12440, "Har": 12441, "ryption": 12442, " insane": 12443, " Against": 12444, " agricultural": 12445, "Par": 12446, " por": 12447, " balanced": 12448, " lung": 12449, " 69": 12450, " condemned": 12451, " stomach": 12452, " 1985": 12453, " residence": 12454, " distinction": 12455, " Lie": 12456, " printing": 12457, " pione": 12458, " emerge": 12459, " prototype": 12460, " Beng": 12461, " Ca": 12462, " wings": 12463, "health": 12464, " spacecraft": 12465, " investing": 12466, " acceptance": 12467, "\u00c2\u0135": 12468, " 77": 12469, " touched": 12470, " Rice": 12471, " tune": 12472, " zomb": 12473, " toile": 12474, " Tea": 12475, " initiatives": 12476, " Building": 12477, " exchanges": 12478, "otypes": 12479, " scary": 12480, " pays": 12481, " DJ": 12482, " ideological": 12483, "ayed": 12484, " pink": 12485, " Blog": 12486, "main": 12487, "orient": 12488, " scenarios": 12489, "idding": 12490, " filling": 12491, " manufacturer": 12492, " Beh": 12493,
[...]
