{"!": 33, "\"": 34, "#": 35, "$": 36, "%": 37, "&": 38, "'": 39, "(": 40, ")": 41, "*": 42, "+": 43, ",": 44, "-": 45, ".": 46, "/": 47, "0": 48, "1": 49, "2": 50, "3": 51, "4": 52, "5": 53, "6": 54, "7": 55, "8": 56, "9": 57, ":": 58, ";": 59, "<": 60, "=": 61, ">": 62, "?": 63, "@": 64, "A": 65, "B": 66, "C": 67, "D": 68, "E": 69, "F": 70, "G": 71, "H": 72, "I": 73, "J": 74, "K": 75, "L": 76, "M": 77, "N": 78, "O": 79, "P": 80, "Q": 81, "R": 82, "S": 83, "T": 84, "U": 85, "V": 86, "W": 87, "X": 88, "Y": 89, "Z": 90, "[": 91, "\\": 92, "]": 93, "^": 94, "_": 95, "`": 96, "a": 97, "b": 98, "c": 99, "d": 100, "e": 101, "f": 102, "g": 103, "h": 104, "i": 105, "j": 106, "k": 107, "l": 108, "m": 109, "n": 110, "o": 111, "p": 112, "q": 113, "r": 114, "s": 115, "t": 116, "u": 117, "v": 118, "w": 119, "x": 120, "y": 121, "z": 122, "{": 123, "|": 124, "}": 125, "~": 126, "\u00a1": 161, "\u00a2": 162, "\u00a3": 163, "\u00a4": 164, "\u00a5": 165, "\u00a6": 166, "\u00a7": 167, "\u00a8": 168, "\u00a9": 169, "\u00aa": 170, "\u00ab": 171, "\u00ac": 172, "\u00ae": 174, "\u00af": 175, "\u00b0": 176, "\u00b1": 177, "\u00b2": 178, "\u00b3": 179, "\u00b4": 180, "\u00b5": 181, "\u00b6": 182, "\u00b7": 183, "\u00b8": 184, "\u00b9": 185, "\u00ba": 186, "\u00bb": 187, "\u00bc": 188, "\u00bd": 189, "\u00be": 190, "\u00bf": 191, "\u00c0": 192, "\u00c1": 193, "\u00c2": 194, "\u00c3": 195, "\u00c4": 196, "\u00c5": 197, "\u00c6": 198, "\u00c7": 199, "\u00c8": 200, "\u00c9": 201, "\u00ca": 202, "\u00cb": 203, "\u00cc": 204, "\u00cd": 205, "\u00ce": 206, "\u00cf": 207, "\u00d0": 208, "\u00d1": 209, "\u00d2": 210, "\u00d3": 211, "\u00d4": 212, "\u00d5": 213, "\u00d6": 214, "\u00d7": 215, "\u00d8": 216, "\u00d9": 217, "\u00da": 218, "\u00db": 219, "\u00dc": 220, "\u00dd": 221, "\u00de": 222, "\u00df": 223, "\u00e0": 224, "\u00e1": 225, "\u00e2": 226, "\u00e3": 227, "\u00e4": 228, "\u00e5": 229, "\u00e6": 230, "\u00e7": 231, "\u00e8": 232, "\u00e9": 233, "\u00ea": 234, "\u00eb": 235, "\u00ec": 236, "\u00ed": 237, "\u00ee": 238, "\u00ef": 239, "\u00f0": 240, "\u00f1": 241, "\u00f2": 242, "\u00f3": 243, "\u00f4": 244, "\u00f5": 245, "\u00f6": 246, "\u00f7": 247, "\u00f8": 248, "\u00f9": 249, "\u00fa": 250, "\u00fb": 251, "\u00fc": 252, "\u00fd": 253, "\u00fe": 254, "\u00ff": 255, "\u0100": 0, "\u0101": 1, "\u0102": 2, "\u0103": 3, "\u0104": 4, "\u0105": 5, "\u0106": 6, "\u0107": 7, "\u0108": 8, "\u0109": 9, "\u010a": 10, "\u010b": 11, "\u010c": 12, "\u010d": 13, "\u010e": 14, "\u010f": 15, "\u0110": 16, "\u0111": 17, "\u0112": 18, "\u0113": 19, "\u0114": 20, "\u0115": 21, "\u0116": 22, "\u0117": 23, "\u0118": 24, "\u0119": 25, "\u011a": 26, "\u011b": 27, "\u011c": 28, "\u011d": 29, "\u011e": 30, "\u011f": 31, "\u0120": 32, "\u0121": 127, "\u0122": 128, "\u0123": 129, "\u0124": 130, "\u0125": 131, "\u0126": 132, "\u0127": 133, "\u0128": 134, "\u0129": 135, "\u012a": 136, "\u012b": 137, "\u012c": 138, "\u012d": 139, "\u012e": 140, "\u012f": 141, "\u0130": 142, "\u0131": 143, "\u0132": 144, "\u0133": 145, "\u0134": 146, "\u0135": 147, "\u0136": 148, "\u0137": 149, "\u0138": 150, "\u0139": 151, "\u013a": 152, "\u013b": 153, "\u013c": 154, "\u013d": 155, "\u013e": 156, "\u013f": 157, "\u0140": 158, "\u0141": 159, "\u0142": 160, "\u0143": 173, "<|endoftext|>": 256, "\u0120t": 257, "\u0120a": 258, "he": 259, "in": 260, "re": 261, "\u0120the": 262, "on": 263, "er": 264, "\u0120s": 265, "\u0120w": 266, "at": 267, "\u0120o": 268, "en": 269, "\u0120c": 270, "it": 271, "is": 272, "an": 273, "or": 274, "\u0120b": 275, "es": 276, "ed": 277, "\u0120f": 278, "ing": 279, "\u0120p": 280, "ou": 281, "\u0120an": 282, "al": 283, "\u0120to": 284, "ar": 285, "\u0120m": 286, "\u0120in": 287, "\u0120of": 288, "\u0120h": 289, "\u0120d": 290, "\u00e2\u0122": 291, "as": 292, "ic": 293, "\u0120and": 294, "\u0120th": 295, "le": 296, "om": 297, "ion": 298, "ll": 299, "ent": 300, "\u0120n": 301, "\u0120l": 302, "\u0120re": 303, "st": 304, "ve": 305, "\u0120e": 306, "ly": 307, "ro": 308, "\u0120be": 309, "\u0120g": 310, "id": 311, "ut": 312, "ac": 313, "ot": 314, "\u0120T": 315, "\u0120I": 316, "\u0120that": 317, "\u0120on": 318, "ay": 319, "\u0120S": 320, "\u0120is": 321, "et": 322, "im": 323, "am": 324, "ad": 325, "ow": 326, "se": 327, "ig": 328, "\u0120for": 329, "\u00e2\u0122\u013b": 330, "\u0120A": 331, "ver": 332, "ur": 333, "ct": 334, "ld": 335, "\u0120C": 336, "\u0120u": 337, "\u0120st": 338, "\u0120y": 339, "\u0120it": 340, "\u0120he": 341, "ir": 342, "ation": 343, "ith": 344, "\u0120wh": 345, "\u0120M": 346, "ce": 347, "ter": 348, "ol": 349, "\u0120we": 350, "il": 351, "\u0120with": 352, "\u0120as": 353, "\u0120B": 354, "ch": 355, "ill": 356, "nd": 357, "\u0120P": 358, "\u0120was": 359, "ers": 360, "\u0120you": 361, "ke": 362, "\u0120\u00e2\u0122": 363, "\u0120con": 364, "\u0120de": 365, "\u0120r": 366, "her": 367, "if": 368, "ate": 369, "ag": 370, "\u0120at": 371, "\u0120ha": 372, "\u0120W": 373, "\u0120se": 374, "\u0120H": 375, "ore": 376, "\u0120pro": 377, "ul": 378, "pp": 379, "ment": 380, "ri": 381, "\u0120are": 382, "\u0120D": 383, "\u01201": 384, "us": 385, "est": 386, "ist": 387, "\u0120com": 388, "and": 389, "\u0120R": 390, "op": 391, "ain": 392, "\u0120The": 393, "\u01202": 394, "igh": 395, "rom": 396, "\u0120(": 397, "ort": 398, "od": 399, "\u0120ne": 400, "\u0120F": 401, "um": 402, "un": 403, "\u0120ex": 404, "res": 405, "ab": 406, "\u00e2\u0122\u013f": 407, "\u0120not": 408, "\u0120N": 409, "\u0120v": 410, "ess": 411, "\u0120have": 412, "ity": 413, "em": 414, "ould": 415, "\u0120or": 416, "th": 417, "\u0120by": 418, "os": 419, "ant": 420, "\u0120G": 421, "ive": 422, "\u0120from": 423, "\u0120al": 424, "el": 425, "'s": 426, "oc": 427, "art": 428, "\u0120su": 429, "\u0120L": 430, "\u0120sh": 431, "\u0120this": 432, "nt": 433, "qu": 434, "ight": 435, "pe": 436, "ust": 437, "\u0120le": 438, "ies": 439, "\u0120E": 440, "end": 441, "\u0120ch": 442, "\u0120sa": 443, "out": 444, "\u0120ab": 445, "The": 446, "all": 447, "ie": 448, "ack": 449, "red": 450, "00": 451, "\u0120\u00e2\u0122\u013e": 452, "\u0120has": 453, "ally": 454, "\u0120J": 455, "\u0120pl": 456, "\u0120go": 457, "ard": 458, "iv": 459, "\u0120his": 460, "ome": 461, "ap": 462, "ost": 463, "gh": 464, "ear": 465, "\u0120O": 466, "\u0120tr": 467, "our": 468, "ast": 469, "\u0120j": 470, "ak": 471, "ud": 472, "\u0120do": 473, "\u0120they": 474, "\u0120but": 475, "\u0120wor": 476, "rou": 477, "\u0120can": 478, "ge": 479, "\u0120will": 480, "\u0120said": 481, "\u0120whe": 482, "\u0120U": 483, "\u0120k": 484, "ich": 485, "\u0120all": 486, "ok": 487, "\u0120\"": 488, "ide": 489, "\u0120who": 490, "\u0120int": 491, "ame": 492, "ans": 493, "ther": 494, "ial": 495, "\u0120out": 496, "ff": 497, "\u0120their": 498, "ong": 499, "ect": 500, "pl": 501, "ice": 502, "ure": 503, "pt": 504, "one": 505, "\u0120more": 506, "age": 507, "ions": 508, "act": 509, "ike": 510, "\u0120me": 511, "\u0120up": 512, "ous": 513, "ine": 514, "\u0120ad": 515, "\u0120about": 516, "ated": 517, "ra": 518, "ber": 519, "\u0120one": 520, "\u0120were": 521, "\u0120so": 522, "\u0120us": 523, "ime": 524, "og": 525, "\u0120K": 526, "ep": 527, "ia": 528, "\u0120had": 529, "are": 530, "ub": 531, "cc": 532, "\u0120would": 533, "\u0120cl": 534, "\u012020": 535, "\u0120im": 536, "\u0120which": 537, "ind": 538, "ue": 539, "ake": 540, "\u0120cont": 541, "iz": 542, "very": 543, "\u0120ag": 544, "\u0120te": 545, "\u0120off": 546, "\u0120comp": 547, "\u0120un": 548, "\u0120been": 549, "\u0120St": 550, "so": 551, "\u0120en": 552, "per": 553, "ign": 554, "au": 555, "\u0120Th": 556, "ary": 557, "ace": 558, "\u0120year": 559, "ip": 560, "ew": 561, "\u0120like": 562, "ere": 563, "ven": 564, "ook": 565, "\u0120inc": 566, "ays": 567, "\u0120man": 568, "\u0120pe": 569, "ry": 570, "ose": 571, "\u0120res": 572, "able": 573, "ite": 574, "\u0120per": 575, "ass": 576, "ord": 577, "\u0120sp": 578, "ire": 579, "\u0120In": 580, "\u0120other": 581, "mer": 582, "\u0120some": 583, "ile": 584, "ib": 585, "ence": 586, "ople": 587, "\u0120201": 588, "ks": 589, "ations": 590, "\u0120over": 591, "ical": 592, "\u0120there": 593, "ress": 594, "\u0120dis": 595, "ult": 596, "int": 597, "\u0120new": 598, "own": 599, "\u0120also": 600, "\u0120than": 601, "\u0120ar": 602, "\u0120bec": 603, "ru": 604, "\u0120them": 605, "ance": 606, "ount": 607, "ough": 608, "\u0120app": 609, "port": 610, "ail": 611, "\u0120part": 612, "\u0120your": 613, "\u0120when": 614, "ree": 615, "\u0120what": 616, "orm": 617, "ond": 618, "\u0120people": 619, "fter": 620, "\u0120sc": 621, "\u0120Ch": 622, "av": 623, "ase": 624, "\u0120qu": 625, "\u0120any": 626, "\u0120just": 627, "\u0120its": 628, "\u0120Y": 629, "ach": 630, "\u0120time": 631, "\u0120It": 632, "\u0120kn": 633, "\u0120her": 634, "\u01203": 635, "ens": 636, "lic": 637, "\u0120rec": 638, "reat": 639, "\u0120my": 640, "\u0120get": 641, "\u0120if": 642, "\u0120V": 643, "ian": 644, ".\u00e2\u0122\u013f": 645, "\u0120into": 646, "ound": 647, "\u0120work": 648, "\u0120tw": 649, "irst": 650, "vel": 651, "ction": 652, "\u0120no": 653, "du": 654, "ings": 655, "ory": 656, "ick": 657, "ors": 658, "\u0120our": 659, "ition": 660, "ident": 661, "ob": 662, "\u0120-": 663, "\u0120pre": 664, "ove": 665, "\u0120play": 666, "ang": 667, "ink": 668, "ause": 669, "wn": 670, "amp": 671, "te": 672, "ade": 673, "hing": 674, "ates": 675, "ark": 676, "\u0120ro": 677, "\u0120pol": 678, "\u0120she": 679, "vers": 680, "\u0120co": 681, ",\u00e2\u0122\u013f": 682, "\u0120after": 683, "\u0120first": 684, "\u0120could": 685, "\u0120how": 686, "\u0120He": 687, "ne": 688, "\u012019": 689, "ious": 690, "nder": 691, "ild": 692, "\u0120acc": 693, "\u0120him": 694, "aw": 695, "'t": 696, "ons": 697, "\u0120po": 698, "\u0120only": 699, "\u0120fe": 700, "\u0120att": 701, "ict": 702, "hed": 703, "\u0120pr": 704, "\u0120two": 705, "rit": 706, "ov": 707, "ish": 708, "\u0120comm": 709, "\u00e2\u0122\u013e": 710, "form": 711, "\u0120spe": 712, "\u0120act": 713, "we": 714, "erv": 715, "\u0120bl": 716, "ft": 717, "\u0120bet": 718, "\u0120dec": 719, ".\"": 720, "ning": 721, "\u0120back": 722, "\u0120most": 723, "ces": 724, "ood": 725, "ck": 726, "\u0120\u00e2\u0122\u0135": 727, "\u0120am": 728, "oy": 729, "\u0120did": 730, "rough": 731, "iff": 732, "ater": 733, "round": 734, "\u0120again": 735, "\u01204": 736, "ual": 737, "day": 738, "ise": 739, "\u0120under": 740, "\u0120des": 741, "\u0120want": 742, "ull": 743, "sel": 744, "\u0120cons": 745, "\u0120\u00e2\u0122\u0136": 746, "..": 747, "\u0120because": 748, "\u0120now": 749, "lud": 750, "ents": 751, "\u0120years": 752, "man": 753, "tern": 754, "ublic": 755, "ec": 756, "\u0120need": 757, "\u0120even": 758, "\u0120$": 759, "iss": 760, "\u0120inv": 761, "\u0120know": 762, "\u0120We": 763, "\u0120see": 764, "ments": 765, "ced": 766, "\u0120add": 767, ",\"": 768, "ting": 769, "old": 770, "\u0120ind": 771, "\u0120sec": 772, "fore": 773, "uch": 774, "\u0120every": 775, "urn": 776, "\u01205": 777, "\u0120supp": 778, "\u0120make": 779, "pect": 780, "\u0120Un": 781, "\u0120em": 782, "\u0120these": 783, "ock": 784, "oll": 785, "\u0120where": 786, "ject": 787, "In": 788, "ational": 789, "vern": 790, "xt": 791, "\u0120bu": 792, "\u0120look": 793, "Th": 794, "\u0120And": 795, "oss": 796, "\u0120don": 797, "\u0120ev": 798, "ump": 799, "ating": 800, "\u0120way": 801, "\u0120being": 802, "\u0120rem": 803, "\u0120right": 804, "ily": 805, "\u0120may": 806, "ng": 807, "row": 808, "lect": 809, "iew": 810, "\u0120then": 811, "\u0120many": 812, "\u0120[": 813, "\u0120diff": 814, "\u0120def": 815, "ason": 816, "\u0120rel": 817, "\u0120call": 818, "\u0120But": 819, "\u0120Tr": 820, "ont": 821, "ied": 822, "les": 823, "ased": 824, "\u0120includ": 825, "\u0120think": 826, "aking": 827, "\u0120reg": 828, ").": 829, "meric": 830, "\u0120imp": 831, "\u0120through": 832, "ath": 833, "ited": 834, "rib": 835, "\u0120sy": 836, "\u0120should": 837, "\u0120pres": 838, "\u0120say": 839, "ell": 840, "\u0120fl": 841, "uring": 842, "\u0120last": 843, "\u0120those": 844, "ower": 845, "\u0120very": 846, "ty": 847, "other": 848, "\u0120much": 849, "000": 4881, "ities": 851, "ific": 852, "\u0120state": 853, "\u0120This": 854, "ative": 855, "\u0120show": 856, "tle": 857, "hen": 858, "\u0120br": 859, "ss": 860, "arg": 861, "\u0120well": 862, "oth": 863, "\u0120ph": 864, "\u0120Wh": 865, "\u0120count": 866, "als": 867, "und": 868, "\u0120does": 869, "\u0120down": 870, "\u0120own": 871, "arly": 872, "\u0120end": 873, "\u0120ass": 874, "\u0120bel": 875, "\u0120use": 876, "ics": 877, "ange": 878, "--": 879, "ts": 880, "\u0120long": 881, "\u0120Americ": 882, "ters": 883, "ince": 884, "\u0120before": 885, "omet": 886, "gr": 887, "\u0120mon": 888, "ward": 889, "\u0120govern": 890, "\u0120start": 891, "\u0120report": 892, "ible": 893, "\u0120ke": 894, "up": 895, "ues": 896, "\u0120New": 897, "\u0120fin": 898, "\u0120team": 899, "ble": 900, "\u0120made": 901, "ife": 902, "olog": 903, "ener": 904, "),": 905, "\u0120such": 906, "ren": 907, "com": 908, "\u0120200": 909, "oun": 910, "erson": 911, "ek": 912, "ix": 913, "\u0120sm": 914, "\u00e2\u0122\u0136": 915, "lp": 916, "ility": 917, "\u0120going": 918, "ism": 919, "ful": 920, "\u0120world": 921, "ually": 922, "\u0120stud": 923, "ists": 924, "\u0120good": 925, "\u0120ac": 926, "tain": 927, "It": 928, "\u0120sub": 929, "\u0120eff": 930, "ini": 931, "\u0120sur": 932, "\u0120against": 933, "its": 934, "\u0120game": 935, "\u0120set": 936, "ork": 937, "\u01206": 938, "\u0120gu": 939, "\u0120point": 940, "\u0120ent": 941, "ys": 942, "gan": 943, "ars": 944, "li": 945, "stem": 946, "\u0120prov": 947, "\u0120still": 948, "roup": 949, "\u0120while": 950, "illion": 951, "\u0120help": 952, "\u0120lead": 953, "ween": 954, "ef": 955, "ax": 956, "ank": 957, "alk": 958, "imes": 959, "\u0120says": 960, "\u0120ob": 961, "ms": 962, "cy": 963, "\u0120produ": 964, "\u0120gr": 965, "\u0120inter": 966, "\u0120inst": 967, "\u0120str": 968, "cess": 969, "\u0120sim": 970, "self": 971, "\u0120conf": 972, "io": 973, "\u0120col": 974, "\u0120take": 975, "\u0120min": 976, "ures": 977, "arch": 978, "\u0120same": 979, "\u0120though": 980, "\u0120between": 981, "ollow": 982, "\u0120offic": 983, "ever": 984, "\u0120cr": 985, "\u0120differe": 986, "ool": 987, "uss": 988, "ution": 989, "land": 990, "\u0120disc": 991, "air": 992, "\u0120op": 993, "ah": 994, "\u0120ed": 995, "\u0120high": 996, "read": 997, "\u0120num": 998, "\u0120law": 999, "\u0120sign": 1000, "way": 1001, "\u0120government": 1002, "gg": 1003, "\u0120Re": 1004, "led": 1005, "ner": 1006, "hip": 1007, "atch": 1008, "hes": 1009, "ames": 1010, "any": 1011, "\u0120ter": 1012, "\u0120somet": 1013, "cent": 1014, "velop": 1015, "ted": 1016, "We": 1017, "\u0120ref": 1018, "\u0120trans": 1019, "ten": 1020, "\u0120ins": 1021, "\u0120run": 1022, "\u0120ser": 1023, "\u0120found": 1024, "\u0120three": 1025, "ives": 1026, "ave": 1027, "\u0120mem": 1028, "\u0120around": 1029, "\u0120here": 1030, "ather": 1031, "\u0120med": 1032, "\u0120real": 1033, "\u0120used": 1034, "ouse": 1035, "\u012010": 1036, "ved": 1037, "\u0120exp": 1038, "az": 1039, "\u0120Ar": 1040, "cept": 1041, "oot": 1042, "\u0120system": 1043, "\u0120You": 1044, "ci": 1045, "\u0120really": 1046, "\u0120mod": 1047, "ving": 1048, "con": 1049, "cer": 1050, "\u0120group": 1051, "\u0120support": 1052, "\u01207": 1053, "\u0120cour": 1054, "ets": 1055, "ale": 1056, "nin": 1057, "ins": 1058, "\u0120ret": 1059, "\u0120hand": 1060, "\u0120public": 1061, "\u0120spec": 1062, "pr": 1063, "\u0120Le": 1064, "ying": 1065, "\u0120great": 1066, "\u0120car": 1067, "ense": 1068, "\u0120ext": 1069, ".[": 1070, "ton": 1071, "irect": 1072, "\u0120cur": 1073, "\u0120fam": 1074, "\u0120Com": 1075, "alth": 1076, "\u0120happ": 1077, "\u0120fact": 1078, "ph": 1079, "\u0120exper": 1080, "\u0120They": 1081, "\u0120Trump": 1082, "\u0120fr": 1083, "\u0120wom": 1084, "\u0120Is": 1085, "\u0120cap": 1086, "\u0120both": 1087, "\u0120day": 1088, "\u0120find": 1089, "\u0120Al": 1090, "ular": 1091, "\u0120read": 1092, "ines": 1093, "oh": 1094, "ices": 1095, "\u0120det": 1096, "\u0120lit": 1097, "\u0120sl": 1098, "\u0120rep": 1099, "uth": 1100, "ered": 1101, "\u0120during": 1102, "\u0120Sh": 1103, "\u0120As": 1104, "\u01200": 1105, "\u0120serv": 1106, "\u0120month": 1107, "the": 1108, "ision": 1109, "\u0120cre": 1110, "\u0120develop": 1111, "\u0120big": 1112, "min": 1113, "\u01208": 1114, "\u0120person": 1115, "akes": 1116, "\u0120follow": 1117, "\u0120Cl": 1118, "\u0120iss": 1119, "ex": 1120, "\u0120told": 1121, "\u0120since": 1122, "ared": 1123, "med": 1124, "ically": 1125, "\u0120week": 1126, "ages": 1127, "ivers": 1128, "\u0120war": 1129, "\u0120few": 1130, "orth": 1131, "ording": 1132, "\u0120cent": 1133, "\u0120leg": 1134, "aj": 1135, "get": 1136, "\u0120polit": 1137, "ves": 1138, "ash": 1139, "\u0120expl": 1140, "\u0120lot": 1141, "ric": 1142, "\u0120Se": 1143, "\u0120belie": 1144, "ata": 1145, "\u0120gener": 1146, "\u0120too": 1147, "\u01209": 1148, "der": 1149, "rent": 1150, "\u0120opp": 1151, "Wh": 1152, "\u0120requ": 1153, "\u0120contin": 1154, "\u0120prot": 1155, "iet": 1156, "bers": 1157, "anc": 1158, "\u0120fil": 1159, "ention": 1160, "ness": 1161, "\u0120cle": 1162, "\u0120resp": 1163, "\u0120put": 1164, "ized": 1165, "\u0120If": 1166, "\u0120another": 1167, "20": 1168, "chool": 1169, "\u0120inf": 1170, "\u0120something": 1171, "\u0120De": 1172, "\u0120different": 1173, "\u0120cor": 1174, "\u0120loc": 1175, "ute": 1176, "\u0120invest": 1177, "\u0120soc": 1178, "\u0120power": 1179, "\u0120che": 1180, "uc": 1181, "\u0120'": 1182, "\u0120pass": 1183, "\u0120commun": 1184, "\u0120life": 1185, "\u0120Fr": 1186, "\u0120plan": 1187, "ody": 1188, "\u0120rele": 1189, "\u0120head": 1190, "ience": 1191, "\u0120things": 1192, "ned": 1193, "\u0120far": 1194, "\u0120art": 1195, "\u0120poss": 1196, "\u0120met": 1197, "thing": 1198, "ox": 1199, "erest": 1200, "\u0120camp": 1201, "ross": 1202, "arge": 1203, "\u0120vot": 1204, "This": 1205, "view": 1206, "ier": 1207, "\u0120child": 1208, "ants": 1209, "\u0120ask": 1210, "\u0120.": 1211, "\u0120might": 1212, "\u0120each": 1213, "ize": 1214, "iness": 1215, "\u0120dep": 1216, "\u0120never": 1217, "\u0120next": 1218, "ield": 1219, "\u0120second": 1220, "\u0120mark": 1221, "tt": 1222, "\u0120quest": 1223, "\u0120bus": 1224, "\u0120adv": 1225, "ik": 1226, "\u0120An": 1227, "...": 3252, "\u0120dem": 1229, "\u0120For": 1230, "\u0120come": 1231, "\u0120got": 1232, "\u0120\u00e2\u0122\u013a": 1233, "\u0120open": 1234, "\u0120best": 1235, "ient": 1236, "ital": 1237, "\u0120allow": 1238, "\u0120That": 1239, "rat": 1240, "\u0120seem": 1241, "\u0120post": 1242, "ple": 1243, "nce": 1244, "\u0120feel": 1245, "\u0120Pro": 1246, "\u0120US": 1247, "ug": 1248, "\u0120pri": 1249, "gram": 1250, "\u0120percent": 1251, "cl": 1252, "\u0120home": 1253, "\u0120dist": 1254, "\u0120direct": 1255, "ired": 1256, "\u0120incre": 1257, "\u0120contro": 1258, "\u0120Rep": 1259, "son": 1260, "orn": 1261, "less": 1262, "osed": 1263, "\u0120result": 1264, "\u0120hard": 1265, "\u0120care": 1266, "ately": 1267, "\u0120million": 1268, "chn": 1269, "\u0120comple": 1270, "\u0120place": 1271, "\u0120without": 1272, "\u0120inform": 1273, "\u0120including": 1274, "\u0120import": 1275, "\u0120av": 1276, "conom": 1277, "\u0120hum": 1278, "ama": 1279, "\u0120ide": 1280, "\u0120proble": 1281, "\u0120build": 1282, "\u0120top": 1283, "\u0120number": 1284, "\u0120country": 1285, "gy": 1286, "oney": 1287, "aim": 1288, "\u0120Bl": 1289, "ret": 1290, "ral": 1291, "ably": 1292, "uro": 1293, "\u0120stand": 1294, "\u0120gl": 1295, "\u0120el": 1296, "riend": 1297, "\u0120four": 1298, "ished": 1299, "ways": 1300, "\u0120partic": 1301, "\u0120better": 1302, "\u0120tri": 1303, "But": 1304, "\u0120recent": 1305, "\u0120interest": 1306, "\u0120mov": 1307, "\u0120let": 1308, "co": 1309, "ration": 1310, "\u0120season": 1311, "\u0120less": 1312, "ead": 1313, "\u0120turn": 1314, "\u0120little": 1315, "\u0120beh": 1316, "\u0120mil": 1317, "\u0120appro": 1318, "ract": 1319, "line": 1320, "\u0120bro": 1321, "ling": 1322, "ised": 1323, "\u0120called": 1324, "app": 1325, "10": 1326, "\u0120case": 1327, "\u0120dr": 1328, "\u0120Ind": 1329, "\u0120rest": 1330, "\u0120left": 1331, "\u0120pop": 1332, "\u0120ann": 1333, "\u0120Z": 1334, "ency": 1335, "ode": 1336, "\u0120move": 1337, "\u0120attack": 1338, "ina": 1339, "\u0120There": 1340, "\u0120keep": 1341, "\u0120full": 1342, "ering": 1343, "\u0120didn": 1344, "be": 1345, "\u0120fun": 1346, "\u0120main": 1347, "ajor": 1348, "__": 1349, "\u0120effect": 1350, "inal": 1351, "leg": 1352, "\u0120prev": 1353, "\u0120program": 1354, "\u0120using": 1355, "\u0120test": 1356, "rem": 1357, "\u0120pay": 1358, "ature": 1359, "\u0120ear": 1360, "to": 1361, "\u0120val": 1362, "\u0120police": 1363, "\u0120writ": 1364, "\u0120form": 1365, "\u0120econom": 1366, "\u0120data": 1367, "\u0120news": 1368, "\u0120pos": 1369, "\u0120win": 1370, "\u0120American": 1371, "\u0120level": 1372, "\u0120sit": 1373, "\u0120char": 1374, "ains": 1375, "iving": 1376, "uck": 1377, "\u0120small": 1378, "ined": 1379, "ready": 1380, "He": 1381, "\u0120school": 1382, "\u0120list": 1383, "ology": 1384, "rap": 1385, "ided": 1386, "mit": 1387, "ploy": 1388, "'re": 1389, "ger": 1390, "\u0120eas": 1391, "\u0120process": 1392, "ird": 1393, "\u0120change": 1394, "\u0120women": 1395, "\u0120current": 1396, "\u0120rece": 1397, "\u0120prom": 1398, "\u0120hist": 1399, "\u0120dri": 1400, "\u0120=": 1401, "reen": 1402, "\u0120president": 1403, "\u0120company": 1404, "\u0120So": 1405, "used": 1406, "\u0120mat": 1407, "ruct": 1408, "\u0120already": 1409, "ohn": 1410, "\u0120United": 1411, "wit": 1412, "\u0120ty": 1413, "\u0120why": 1414, "\u0120bre": 1415, "\u0120unt": 1416, "\u0120money": 1417, "\u0120sol": 1418, "\u0120always": 1419, "\u0120later": 1420, "\u0120expect": 1421, "\u0120techn": 1422, "\u0120business": 1423, "\u0120How": 1424, "\u0120official": 1425, "ron": 1426, "\u0120Q": 1427, "\u0120Ob": 1428, "stand": 1429, "iversity": 1430, "\u0120bo": 1431, "\u0120book": 1432, "\u0120Ph": 1433, "aign": 1434, "\u0120thing": 1435, "\u0120class": 1436, "\u0120project": 1437, "ases": 1438, "\u0120claim": 1439, "\u0120job": 1440, "\u0120information": 1441, "\u0120organ": 1442, "aff": 1443, "\u0120She": 1444, "ards": 1445, "\u0120talk": 1446, "\u0120Be": 1447, "\u0120design": 1448, "\u0120story": 1449, "\u0120chang": 1450, "\u0120major": 1451, "\u0120able": 1452, "\u0120prof": 1453, "\u0120--": 1454, "lection": 1455, "iven": 1456, "ertain": 1457, "\u0120rese": 1458, "\u0120health": 1459, "\u0120vis": 1460, "\u0120past": 1461, "urs": 1462, "\u0120free": 1463, "outh": 1464, "here": 1465, "\u0120Ad": 1466, "\u0120oper": 1467, "ption": 1468, "\u0120away": 1469, "ior": 1470, "\u0120Can": 1471, "\u0120must": 1472, "\u0120city": 1473, "ample": 1474, "ians": 1475, "rist": 1476, "sc": 1477, "ural": 1478, "\u0120happen": 1479, "uthor": 1480, "\u012018": 1481, "\u0120important": 1482, "acy": 1483, "urity": 1484, "\u0120kill": 1485, "\u0120sk": 1486, "\u0120est": 1487, "ured": 1488, "\u0120old": 1489, "\u0120pat": 1490, "ury": 1491, "ending": 1492, "\u0120doesn": 1493, "ission": 1494, "\u0120least": 1495, "---": 1575, "\u0120grow": 1497, "\u0120edit": 1498, "\u0120var": 1499, "ained": 1500, "St": 1501, "\u0120cost": 1502, "\u0120Go": 1503, "ney": 1504, "ider": 1505, "ides": 1506, "els": 1507, "\u0120days": 1508, "\u0120tell": 1509, "\u0120hop": 1510, "\u0120stre": 1511, "\u0120campaign": 1512, "side": 1513, "\u012012": 1514, "\u0120men": 1515, "\u0120came": 1516, "\u0120aff": 1517, "\u0120const": 1518, "resident": 1519, "\u0120enough": 1520, "\u0120view": 1521, "ccess": 1522, "\u0120kind": 1523, "\u0120Mar": 1524, "oad": 1525, "\u0120Sp": 1526, "ern": 1527, "\u0120making": 1528, "\u0120large": 1529, "\u0120record": 1530, "50": 1531, "ush": 1532, "\u0120friend": 1533, "\u0120mar": 1534, "\u0120family": 1535, "\u00e2\u0122\u00a6": 1536, "ley": 1537, "\u0120elect": 1538, "ded": 1539, "eral": 1540, "\u0120polic": 1541, "\u0120tax": 1542, "ising": 1543, "ror": 1544, "by": 1545, "pped": 1546, "ality": 1547, "ator": 1548, "ified": 1549, "As": 1550, "ived": 1551, "arent": 1552, "\u0120until": 1553, "ee": 1554, "ional": 1555, "\u0120political": 1556, "\u0120vide": 1557, "\u0120deal": 1558, "ries": 1559, "alf": 1560, "augh": 1561, "\u0120ve": 1562, "\u0120working": 1563, "ued": 1564, "\u0120Republic": 1565, "\u0120took": 1566, "\u0120deb": 1567, "bs": 1568, "If": 1569, "ister": 1570, "\u0120line": 1571, "\u0120John": 1572, "aining": 1573, "\u0120air": 1574, "\u0120es": 1576, "\u0120intern": 1577, "\u0120fore": 1578, "iol": 1579, "ane": 1580, "ocrat": 1581, "\u0120become": 1582, "\u0120actually": 1583, "aps": 1584, "ony": 1585, "\u0120mean": 1586, "work": 1587, "\u0120fund": 1588, "\u0120Sc": 1589, "ware": 1590, "19": 1591, "ember": 1592, "\u0120Pl": 1593, "\u0120former": 1594, "\u0120often": 1595, "\u0120Euro": 1596, "ott": 1597, "\u0120won": 1598, "\u0120give": 1599, "ann": 1600, "oint": 1601, "\u0120according": 1602, "\u0120ever": 1603, "most": 1604, "eng": 1605, "year": 1606, "wh": 1607, "aring": 1608, "\u0120games": 1609, "ison": 1610, "\u0120human": 1611, "\u0120bas": 1612, "ization": 1613, "\u0120return": 1614, "\u0120times": 1615, "\u0120order": 1616, "\u0120Russ": 1617, "\u0120word": 1618, "\u0120bit": 1619, "\u0120Dem": 1620, "\u0120name": 1621, "11": 1622, "\u0120sever": 1623, "\u0120All": 1624, "\u0120dev": 1625, "icle": 1626, "uture": 1627, "for": 1628, "ither": 1629, "\u0120par": 1630, "\u0120199": 1631, "\u0120Mc": 1632, "\u0120wr": 1633, "\u0120Con": 1634, "raft": 1635, "\u0120sing": 1636, "\u0120perform": 1637, "\u0120Sy": 1638, "\u0120market": 1639, "\u0120fac": 1640, "\u0120charac": 1641, "There": 1642, "iqu": 1643, "\u0120Or": 1644, "idd": 1645, "\u0120At": 1646, "\u0120May": 1647, "\u0120ra": 1648, "\u0120doing": 1649, "\u0120appear": 1650, "ER": 1651, "ched": 1652, "\u0120players": 1653, "\u0120la": 1654, "\u0120night": 1655, "ene": 1656, "\u0120lear": 1657, "aken": 1658, "rop": 1659, "ats": 1660, "mber": 1661, "\u0120today": 1662, "\u0120early": 1663, "\u012015": 1664, "\u0120seen": 1665, "//": 1666, "\u0120having": 1667, "\u0120,": 1668, "\u0120pot": 1669, "\u0120children": 1670, "\u0120event": 1671, "\u0120media": 1672, "\u0120social": 1673, "\u0120crit": 1674, "\u0120President": 1675, "\u0120whether": 1676, "\u0120several": 1677, "\u0120control": 1678, "idence": 1679, "\u0120meet": 1680, "sh": 1681, "\u0120milit": 1682, "\u0120press": 1683, "\u0120went": 1684, "artment": 1685, "\u0120five": 1686, "\u0120young": 1687, "ories": 1688, "\u0120sure": 1689, "\u0120prop": 1690, "iously": 1691, "\u0120equ": 1692, "\u0120beg": 1693, "\u0120question": 1694, "\u0120occ": 1695, "\u0120likely": 1696, "vert": 1697, "une": 1698, "\u0120members": 1699, "br": 1700, "ands": 1701, "\u0120certain": 1702, "\u0120eng": 1703, "\u0120water": 1704, "\u0120York": 1705, "\u0120example": 1706, "ots": 1707, "\u0120Col": 1708, "\u0120arg": 1709, "\u0120side": 1710, "\u0120ant": 1711, "\u0120done": 1712, "\u0120vers": 1713, "enn": 1714, "\u0120invol": 1715, "\u0120Mr": 1716, "\u0120States": 1717, "\u0120Europe": 1718, "ended": 1719, "let": 1720, "\u0120along": 1721, "\u0120short": 1722, "\u0120success": 1723, "ential": 1724, "\u0120months": 1725, "ball": 1726, "\u0120hour": 1727, "\u012011": 1728, "ium": 1729, "\u0120sex": 1730, "iver": 1731, "ially": 1732, "And": 1733, "lf": 1734, "empt": 1735, "\u0120within": 1736, "\u0120desc": 1737, "imate": 1738, "\u0120course": 1739, "\u0120fight": 1740, "ster": 1741, "urch": 1742, "ubl": 1743, "\u0120among": 1744, "\u0120activ": 1745, "uff": 1746, "\u00e2\u0122\u0135": 1747, "ague": 1748, "\u0120once": 1749, "\u0120future": 1750, "\u0120investig": 1751, "ulation": 1752, "rew": 1753, "\u0120possible": 1754, "\u0120Obama": 1755, "\u0120cho": 1756, "nect": 1757, "\u0120understand": 1758, "iting": 1759, "\u0120concer": 1760, "\u0120On": 1761, "\u0120]": 1762, "ones": 1763, "ortun": 1764, "\u0120problem": 1765, "\u0120Br": 1766, "\u0120priv": 1767, "\u0120means": 1768, "\u0120viol": 1769, "\u0120Car": 1770, "\u0120author": 1771, "itive": 1772, "\u0120No": 1773, "ggest": 1774, "\u0120avail": 1775, "oci": 1776, "ourn": 1777, "my": 1778, "\u0120known": 1779, "\u0120product": 1780, "\u0120non": 1781, "ivid": 1782, "\u0120thought": 1783, "\u0120yet": 1784, "gress": 1785, "\u0120across": 1786, "\u0120protect": 1787, "\u0120local": 1788, "ler": 1789, "\u0120hold": 1790, "\u0120Te": 1791, "\u0120fail": 1792, "inc": 1793, "\u0120When": 1794, "\u0120State": 1795, "\u0120community": 1796, "\u0120reason": 1797, "\u0120orig": 1798, "ede": 1799, "\u0120suggest": 1800, "\u0120&": 1801, "12": 1802, "\u0120makes": 1803, "verage": 1804, "ald": 1805, "not": 1806, "por": 1807, "back": 1808, "\u01202016": 1809, "\u0120i": 1810, "book": 1811, "\u0120asked": 1812, "ederal": 1813, "orld": 1814, "\u0120reported": 1815, "You": 1816, "aged": 1817, "ensive": 1818, "\u0120given": 1819, "\u0120strong": 1820, "\u0120prob": 1821, "\u0120mus": 1822, "\u0120others": 1823, "\u0120believe": 1824, "\u0120video": 1825, "iber": 1826, "\u0120ben": 1827, "\u0120getting": 1828, "\u0120House": 1829, "ances": 1830, "\u0120announ": 1831, "\u0120light": 1832, "ging": 1833, "ored": 1834, "ober": 1835, "\u0120University": 1836, "\u012030": 1837, "\u0120Co": 1838, "itions": 1839, "\u0120ident": 1840, "iron": 1841, "\u0120sent": 1842, "\u0120cut": 1843, "\u0120lim": 1844, "\u0120ca": 1845, "\u0120Christ": 1846, "iety": 1847, "30": 1848, "urther": 1849, "\u0120sour": 1850, "\u0120creat": 1851, "\u0120cond": 1852, "\u0120X": 1853, "rest": 1854, "ams": 1855, "'ve": 1856, "\u0120net": 1857, "ashing": 1858, "\u0120bat": 1859, "ament": 1860, "\u0120national": 1861, ".,": 1862, "\u0120close": 1863, "arm": 1864, "\u0120started": 1865, "\u0120saf": 1866, "\u0120death": 1867, "aster": 1868, "\u0120available": 1869, "\u0120hig": 1870, "For": 1871, "\u0120based": 1872, "\u0120issue": 1873, "of": 1874, "\u0120indust": 1875, "\u0120Democrat": 1876, "\u0120low": 1877, "\u0120following": 1878, "resent": 1879, "\u0120account": 1880, "\u0120land": 1881, "use": 1882, "\u0120Cent": 1883, "\u0120employ": 1884, "\u0120love": 1885, "\u01202015": 1886, "\u0120#": 1887, "\u0120history": 1888, "\u0120ago": 1889, "orts": 1890, "selves": 1891, "\u0120mom": 1892, "ana": 1893, "\u0120party": 1894, "\u0120Am": 1895, "ability": 1896, "eb": 1897, "\u0120series": 1898, "\u0120comes": 1899, "\u0120trying": 1900, "uly": 1901, "utes": 1902, "\u0120almost": 1903, "gether": 1904, "ument": 1905, "\u0120together": 1906, "ination": 1907, "AT": 1908, "\u0120America": 1909, "\u0120idea": 1910, "pro": 1911, "ief": 1912, "\u0120access": 1913, "\u0120foc": 1914, "hers": 1915, "ilar": 1916, "\u0120Fl": 1917, "reed": 1918, "ails": 1919, "\u0120commit": 1920, "itional": 1921, "\u0120isn": 1922, "\u0120Sen": 1923, "\u0120clear": 1924, "\u012016": 1925, "\u0120One": 1926, "\u0120trad": 1927, "\u0120Min": 1928, "though": 1929, "ring": 1930, "\u0120What": 1931, "\u0120pract": 1932, "\u0120added": 1933, "\u0120impro": 1934, "\u0120experience": 1935, "erence": 1936, "\u0120film": 1937, "15": 1938, "\u0120half": 1939, "ustom": 1940, "ged": 1941, "\u0120hit": 1942, "\u0120Bro": 1943, "witter": 1944, "rict": 1945, "\u0120anal": 1946, "inton": 1947, "ograp": 1948, "unch": 1949, "\u01202014": 1950, "\u0120rul": 1951, "ividual": 1952, "\u0120looking": 1953, "\u0120six": 1954, "\u0120live": 1955, "\u0120anything": 1956, "\u0120area": 1957, "\u0120complete": 1958, "erman": 1959, "minist": 1960, "\u0120miss": 1961, "rael": 1962, "\u0120Comm": 1963, "\u0120Ex": 1964, "\u0120fav": 1965, "\u0120ris": 1966, "nes": 1967, "\u0120present": 1968, "ai": 1969, "ote": 1970, "rug": 1971, "\u0120saying": 1972, "raw": 1973, "aid": 1974, "\u0120Canad": 1975, "\u0120vict": 1976, "IN": 1977, "cially": 1978, "\u0120bad": 1979, "ows": 1980, "uge": 1981, "\u0120taken": 1982, "oto": 1983, "\u0120entire": 1984, "\u0120Pr": 1985, "ators": 1986, "\u0120bill": 1987, "\u0120compet": 1988, "af": 1989, "\u0120mor": 1990, "\u0120Eng": 1991, "\u0120behind": 1992, "ien": 1993, "\u0120aut": 1994, "\u0120To": 1995, "'m": 1996, "\u0120court": 1997, "play": 1998, "\u0120try": 1999, "ev": 2000, "\u0120military": 2001, "\u0120z": 2002, "\u0120near": 2003, "osp": 2004, "\u0120mult": 2005, "What": 2006, "\u0120face": 2007, "wards": 2008, "\u0120er": 2009, "\u012014": 2010, "\u0120security": 2011, "\u0120Pol": 2012, "sy": 2013, "\u0120proper": 2014, "\u0120discuss": 2015, "\u0120threat": 2016, "\u0120tot": 2017, "ert": 2018, "\u0120study": 2019, "\u0120single": 2020, "\u0120rather": 2021, "\u0120individual": 2022, "\u0120Af": 2023, "\u0120Brit": 2024, "\u0120War": 2025, "\u0120\u00c2": 2026, "ttp": 2027, "\u0120quick": 2028, "\u0120Don": 2029, "\u0120mind": 2030, "\u0120Sec": 2031, "lement": 2032, "ales": 2033, "atic": 2034, "An": 2035, "\u0120North": 2036, "amed": 2037, "aper": 2038, "\u0120publ": 2039, "\u0120policy": 2040, "\u0120mess": 2041, "ris": 2042, "par": 2043, "\u0120black": 2044, "\u0120wanted": 2045, "\u0120fall": 2046, "irc": 2047, "**": 2048, "off": 2049, "\u0120food": 2050, "\u0120sum": 2051, "\u0120someone": 2052, "lling": 2053, "ids": 2054, "On": 2055, "\u0120|": 2056, "\u0120/": 2057, "\u0120cult": 2058, "\u0120special": 2059, "\u0120comb": 2060, "\u0120key": 2061, "\u0120player": 2062, "\u0120redu": 2063, "\u0120Gr": 2064, "\u0120bring": 2065, "\u012013": 2066, "\u0120compan": 2067, "\u012017": 2068, "ply": 2069, "\u0120Dep": 2070, "\u0120attempt": 2071, "\u0120National": 2072, "\u0120taking": 2073, "\u0120Bar": 2074, "When": 2075, "ON": 2076, "ify": 2077, "olution": 2078, "\u0120:": 2079, "viron": 2080, "\u0120foot": 2081, "\u0120Cal": 2082, "://": 2083, "\u0120else": 2084, "\u0120pret": 2085, "\u0120body": 2086, "\u0120space": 2087, "elt": 2088, "rote": 2089, "over": 2090, "\u0120probably": 2091, "16": 2092, "icult": 2093, ".)": 2094, "\u0120front": 2095, "\u0120cou": 2096, "\u0120nothing": 2097, "\u0120Im": 2098, "\u0120sw": 2099, "ashington": 2100, "\u0120connect": 2101, "ches": 2102, "\u0120World": 2103, "\u0120research": 2104, "14": 2105, "\u0120Clinton": 2106, "\u0120City": 2107, "ming": 2108, "\u0120coming": 2109, "\u0120points": 2110, "\u0120Israel": 2111, "\u0120however": 2112, "RE": 2113, "\u0120describ": 2114, "\u0120jo": 2115, "go": 2116, "\u0120signific": 2117, "\u0120similar": 2118, "yn": 2119, "reme": 2120, "cing": 2121, "\u0120benef": 2122, "lier": 2123, "\u0120Man": 2124, "\u0120Aust": 2125, "\u0120imm": 2126, "\u0120decision": 2127, "\u0120either": 2128, "aces": 2129, "Ad": 2130, "\u0120coun": 2131, "ault": 2132, "So": 2133, "\u0120mass": 2134, "\u0120Har": 2135, "\u0120sus": 2136, "\u0120targ": 2137, "ully": 2138, "\u0120feat": 2139, "That": 2140, "\u0120conv": 2141, "\u0120exist": 2142, "irl": 2143, "\u0120enc": 2144, "\u01202013": 2145, "\u0120rights": 2146, "\u0120service": 2147, "\u0120Su": 2148, "asing": 2149, "sw": 2150, "IS": 2151, "\u0120fire": 2152, "\u0120doc": 2153, "\u0120wrote": 2154, "\u0120further": 2155, "\u0120house": 2156, "rodu": 2157, "\u0120fig": 2158, "\u0120chall": 2159, "\u0120ban": 2160, "ww": 2161, "\u0120third": 2162, "mb": 2163, "\u0120wa": 2164, "\u0120create": 2165, "\u0120stop": 2166, "\u0120field": 2167, "now": 2168, "\u0120pick": 2169, "AN": 2170, "ape": 2171, "ively": 2172, "\u0120meas": 2173, "\u0120repl": 2174, "\u0120compl": 2175, "ung": 2176, "\u0120With": 2177, "\u0120issues": 2178, "pping": 2179, "\u0120begin": 2180, "\u0120super": 2181, "amer": 2182, "\u0120step": 2183, "eal": 2184, "ried": 2185, "ently": 2186, "\u0120whole": 2187, "\u0120relations": 2188, "\u0120seems": 2189, "\u0120)": 2190, "\u0120companies": 2191, "pecially": 2192, "\u0120due": 2193, "\u0120exec": 2194, "\u0120cand": 2195, "\u0120everything": 2196, "\u0120federal": 2197, "\u0120Ed": 2198, "\u0120Gu": 2199, "\u0120states": 2200, "\u0120ey": 2201, "\u0120room": 2202, "aul": 2203, "\u0120tra": 2204, "\u0120watch": 2205, "oon": 2206, "\u0120Ge": 2207, "\u0120custom": 2208, "\u0120leaders": 2209, "13": 2210, "uation": 2211, "\u0120However": 2212, "pite": 2213, "\u0120Jan": 2214, "\u0120Washington": 2215, "Ch": 2216, "lam": 2217, "\u0120self": 2218, "\u0120role": 2219, "ran": 2220, "ilt": 2221, "\u0120sound": 2222, "\u0120lab": 2223, "att": 2224, "head": 2225, "\u0120dam": 2226, "ivil": 2227, "\u0120officials": 2228, "\u0120stri": 2229, "\u01202012": 2230, "\u0120tre": 2231, "iday": 2232, "ibility": 2233, "\u0120released": 2234, "lu": 2235, "\u0120Inst": 2236, "\u0120began": 2237, "\u0120Dav": 2238, "\u0120App": 2239, "\u0120South": 2240, "\u0120opt": 2241, "obal": 2242, "\u0120students": 2243, "\u0120treat": 2244, "\u0120final": 2245, "\u0120character": 2246, "\u0120position": 2247, "\u0120matter": 2248, "\u00c3\u00a9": 2249, "ender": 2250, "\u0120ener": 2251, "lim": 2252, "\u0120outside": 2253, "ery": 2254, "sec": 2255, "ades": 2256, "\u0120dou": 2257, "vironment": 2258, "\u0120development": 2259, "\u0120statement": 2260, "\u0120himself": 2261, "\u01202017": 2262, "\u0120above": 2263, "like": 2264, "\u0120stat": 2265, "\u0120init": 2266, "\u0120break": 2267, "\u0120100": 2268, "\u0120amount": 2269, "\u0120provide": 2270, "\u0120hours": 2271, "\u0120itself": 2272, "\u0120themselves": 2273, "\u0120office": 2274, "\u0120represent": 2275, "\u0120action": 2276, "\u0120Part": 2277, "\u0120di": 2278, "\u0120became": 2279, "\u0120198": 2280, "\u0120general": 2281, "\u0120continue": 2282, "\u0120countries": 2283, "\u0120Intern": 2284, "\u0120neg": 2285, "\u0120address": 2286, "iod": 2287, "\u012025": 2288, "\u0120gun": 2289, "aced": 2290, "ask": 2291, "\u0120true": 2292, "\u0120specific": 2293, "ograph": 2294, "umb": 2295, "arter": 2296, "reg": 2297, "\u0120larg": 2298, "\u0120significant": 2299, "lish": 2300, "\u0120simply": 2301, "\u0120Ass": 2302, "\u0120Res": 2303, "\u0120wasn": 2304, "'ll": 2305, "ili": 2306, "\u0120interview": 2307, "acebook": 2308, "\u0120ground": 2309, "\u0120rad": 2310, "oid": 2311, "ogn": 2312, "\u0120difficult": 2313, "\u0120running": 2314, "\u0120Just": 2315, "\u0120evidence": 2316, "\u0120administ": 2317, "BC": 2318, "\u0120cop": 2319, "17": 2320, "ream": 2321, "\u0120drug": 2322, "\u0120version": 2323, "ogle": 2324, "\u0120bar": 2325, "\u0120agree": 2326, "iddle": 2327, "eks": 2328, "\u0120building": 2329, "\u0120China": 2330, "\u0120needs": 2331, "\u0120profess": 2332, "angu": 2333, "\u0120groups": 2334, "right": 2335, "\u0120typ": 2336, "\u0120respons": 2337, "\u0120common": 2338, "\u0120shows": 2339, "\u0120everyone": 2340, "\u0120dom": 2341, "\u0120dest": 2342, "\u0120red": 2343, "\u0120needed": 2344, "\u0120ball": 2345, "\u0120woman": 2346, "___": 2457, "\u0120German": 2348, "\u0120lat": 2349, "\u0120below": 2350, "\u0120tem": 2351, "light": 2352, "ournal": 2353, "\u0120music": 2354, "\u0120exc": 2355, "\u0120release": 2356, "ift": 2357, "\u0120inj": 2358, "\u0120pretty": 2359, "\u0120Ab": 2360, "AR": 2361, "ribut": 2362, "\u0120Med": 2363, "\u0120include": 2364, "\u0120saw": 2365, "\u0120deep": 2366, "\u0120ap": 2367, "body": 2368, "18": 2369, "\u0120played": 2370, "\u0120quite": 2371, "\u0120industry": 2372, "\u0120charg": 2373, "\u0120mag": 2374, "\u0120energy": 2375, "\u0120playing": 2376, "\u0120mot": 2377, "\u012050": 2378, "\u0120candid": 2379, "\u0120sense": 2380, "\u0120phys": 2381, "\u0120late": 2382, "\u0120alleg": 2383, "\u0120white": 2384, "\u0120His": 2385, "eg": 2386, "ival": 2387, "\u0120friends": 2388, "\u0120gen": 2389, "\u0120legal": 2390, "atur": 2391, "bo": 2392, "\u0120anim": 2393, "isc": 2394, "yle": 2395, "\u0120After": 2396, "omm": 2397, "How": 2398, "AS": 2399, "where": 2400, "\u0120abs": 2401, "lev": 2402, "\u0120instead": 2403, "\u0120billion": 2404, "\u0120lost": 2405, "\u0120especially": 2406, "\u0120value": 2407, "\u0120Mus": 2408, "\u0120West": 2409, "\u0120host": 2410, "osing": 2411, "oring": 2412, "\u0120hom": 2413, "\u0120News": 2414, "time": 2415, "ager": 2416, "\u0120ple": 2417, "istic": 2418, "\u0120weeks": 2419, "epend": 2420, "\u0120Not": 2421, "ccording": 2422, "\u0120forward": 2423, "\u0120deter": 2424, "\u0120election": 2425, "\u0120recently": 2426, "\u0120jud": 2427, "\u0120track": 2428, "\u0120suff": 2429, "\u0120vote": 2430, "\u0120Twitter": 2431, "\u0120object": 2432, "irt": 2433, "lt": 2434, "medi": 2435, "\u0120period": 2436, "\u0120changes": 2437, "\u0120opportun": 2438, "\u0120White": 2439, "\u0120Oct": 2440, "\u0120lo": 2441, "\u0120longer": 2442, "arc": 2443, "eed": 2444, "oke": 2445, "\u0120ep": 2446, "\u0120pain": 2447, "ique": 2448, "\u0120soon": 2449, "\u0120site": 2450, "\u0120{": 2451, "hod": 2452, "ript": 2453, "ached": 2454, "\u0120accept": 2455, "\u0120Cong": 2456, "irm": 2458, "\u0120shoot": 2459, "\u0120economic": 2460, "\u0120hope": 2461, "\u0120moment": 2462, "\u0120decl": 2463, "lege": 2464, "\u0120consum": 2465, "\u0120Will": 2466, "\u0120pie": 2467, "\u0120tit": 2468, "\u0120check": 2469, "oph": 2470, "oe": 2471, "\u0120potential": 2472, "\u0120block": 2473, "\u0120March": 2474, "ole": 2475, "\u0120wrong": 2476, "duct": 2477, "ners": 2478, "ij": 2479, "\u0120Sept": 2480, "den": 2481, "\u0120Department": 2482, "\u0120higher": 2483, "onse": 2484, "\u0120cred": 2485, "\u0120online": 2486, "\u0120focus": 2487, "\u012024": 2488, "\u0120consider": 2489, "key": 2490, "\u0120educ": 2491, "ancial": 2492, "\u0120My": 2493, "ns": 2494, "iding": 2495, "\u0120circ": 2496, "\u0120works": 2497, "\u0120relig": 2498, "\u0120share": 2499, "\u0120parent": 2500, "cial": 2501, "\u0120held": 2502, "25": 2503, "\u0120pred": 2504, "\u0120Dr": 2505, "\u0120walk": 2506, "\u0120webs": 2507, "ularly": 2508, "==": 2509, "\u0120reve": 2510, "\u0120led": 2511, "lear": 2512, "\u0120stay": 2513, "\u0120These": 2514, "overed": 2515, "\u0120stru": 2516, "alt": 2517, "\u0120Republican": 2518, "\u0120risk": 2519, "\u0120words": 2520, "\u0120Aug": 2521, "\u0120rev": 2522, "\u0120sold": 2523, "\u0120review": 2524, "icro": 2525, "\u0120contract": 2526, "\u0120results": 2527, "\u0120services": 2528, "\u0120laws": 2529, "They": 2530, "\u0120code": 2531, "cil": 2532, "\u0120Mich": 2533, "\u0120wind": 2534, "\u0120function": 2535, "\u0120aud": 2536, "\u0120ce": 2537, "\u0120Syri": 2538, "put": 2539, "aut": 2540, "\u0120total": 2541, "fect": 2542, "\u0120article": 2543, "\u0120age": 2544, "\u0120applic": 2545, "\u0120minutes": 2546, "\u0120personal": 2547, "ilities": 2548, "\u0120anyone": 2549, "uary": 2550, "ients": 2551, "itution": 2552, "asons": 2553, "\u0120June": 2554, "ateg": 2555, "\u0120prim": 2556, "anger": 2557, "\u0120target": 2558, "fer": 2559, "\u0120den": 2560, "\u0120earlier": 2561, "ule": 2562, "\u0120favor": 2563, "\u0120express": 2564, "haps": 2565, "\u0120dead": 2566, "\u0120answ": 2567, "\u0120upd": 2568, "ech": 2569, "\u0120popular": 2570, "che": 2571, "\u0120comput": 2572, "\u0120Ste": 2573, "\u0120vol": 2574, "pril": 2575, "\u0120necess": 2576, "ham": 2577, "\u0120hy": 2578, "\u0120rate": 2579, "ES": 2580, "aging": 2581, "\u0120technology": 2582, "apan": 2583, "\u0120respect": 2584, "val": 2585, "\u0120environment": 2586, "\u01202011": 2587, "Ph": 2588, "\u0120received": 2589, "\u0120expected": 2590, "\u0120Sm": 2591, "ends": 2592, "ude": 2593, "\u0120goal": 2594, "\u0120created": 2595, "\u0120base": 2596, "\u0120surpr": 2597, "\u0120anti": 2598, "\u0120Par": 2599, "\u0120July": 2600, "eter": 2601, "tee": 2602, "\u0120problems": 2603, "uel": 2604, "\u0120ways": 2605, "\u0120port": 2606, "iple": 2607, "action": 2608, "\u0120private": 2609, "\u0120Do": 2610, "\u0120scient": 2611, "\u0120increase": 2612, "ray": 2613, "reet": 2614, "\u0120announced": 2615, "\u0120comment": 2616, "isl": 2617, "\u0120cannot": 2618, "\u0120easy": 2619, "Al": 2620, "\u0120shot": 2621, "\u0120Congress": 2622, "\u0120questions": 2623, "bit": 2624, "\u0120force": 2625, "\u0120Pe": 2626, "aterial": 2627, "\u0120impact": 2628, "hern": 2629, "\u0120et": 2630, "\u0120Mond": 2631, "ples": 2632, "\u0120pack": 2633, "\u0120+": 2634, "\u0120pur": 2635, "\u0120Facebook": 2636, "\u0120langu": 2637, "atives": 2638, "\u0120God": 2639, "\u0120En": 2640, "\u0120involved": 2641, "omb": 2642, "aving": 2643, "ills": 2644, "60": 2645, "lex": 2646, "hood": 2647, "onst": 2648, "\u0120Austral": 2649, "\u0120div": 2650, "uesday": 2651, "\u0120execut": 2652, "ctor": 2653, "\u0120model": 2654, "itiz": 2655, "\u0120sen": 2656, "\u0120speak": 2657, "\u0120staff": 2658, "\u0120exact": 2659, "\u0120civil": 2660, "ees": 2661, "ires": 2662, "\u0120nearly": 2663, "\u0120type": 2664, "ourt": 2665, "okes": 2666, "\u0120original": 2667, "\u0120cases": 2668, "\u0120content": 2669, "\u0120197": 2670, "\u0120relationship": 2671, "\u0120terror": 2672, "\u0120Google": 2673, "To": 2674, "\u0120leave": 2675, "\u0120Friday": 2676, "\u0120response": 2677, "\u0120capt": 2678, "\u0120inside": 2679, "\u0120phot": 2680, "lled": 2681, "\u0120fans": 2682, "\u0120April": 2683, "\u0120international": 2684, "\u0120coll": 2685, "cast": 2686, "\u0120heart": 2687, "\u0120average": 2688, "\u0120broad": 2689, "\u0120arrest": 2690, "\u0120users": 2691, "\u0120Count": 2692, "\u0120cal": 2693, "At": 2694, "rel": 2695, "\u0120cell": 2696, "\u0120worth": 2697, "\u0120Em": 2698, "\u0120soft": 2699, "\u0120ur": 2700, "\u0120living": 2701, "bor": 2702, "\u0120Red": 2703, "\u0120nation": 2704, "ips": 2705, "ky": 2706, "\u0120killed": 2707, "\u0120reports": 2708, "\u01202010": 2709, "\u00e3\u0123": 2710, "\u0120becom": 2711, "\u0120source": 2712, "\u0120Monday": 2713, "\u0120Tuesday": 2714, "\u0120subject": 2715, "\u0120worked": 2716, "atural": 2717, "ests": 2718, "\u0120estab": 2719, "\u0120immedi": 2720, "EN": 2721, "\u0120respond": 2722, "\u0120global": 2723, "\u0120associ": 2724, "joy": 2725, "ellig": 2726, "\u0120club": 2727, "ops": 2728, "\u0120Americans": 2729, "ael": 2730, "\u0120obs": 2731, "ites": 2732, "\u0120Per": 2733, "\u0120Pal": 2734, "\u0120chance": 2735, "\u0120oil": 2736, "\u0120Act": 2737, "\u0120ability": 2738, "\u0120takes": 2739, "rought": 2740, "\u0120weap": 2741, "hel": 2742, "\u0120price": 2743, "\u0120Japan": 2744, "ological": 2745, "\u0120director": 2746, "izing": 2747, "\u0120workers": 2748, "\u0120terms": 2749, "\u0120road": 2750, "mon": 2751, "\u0120published": 2752, "\u0120del": 2753, "ext": 2754, "\u0120While": 2755, "\u0120tou": 2756, "\u0120phone": 2757, "rain": 2758, "\u0120collect": 2759, "\u0120financial": 2760, "\u0120mid": 2761, "osition": 2762, "\u0120decided": 2763, "ises": 2764, "OR": 2765, "\u0120Russia": 2766, "\u0120Some": 2767, "\u0120mother": 2768, "\u0120squ": 2769, "\u0120Wed": 2770, "\u0120lack": 2771, "\u0120defin": 2772, "ovember": 2773, "\u012040": 2774, "\u0120girl": 2775, "\u0120store": 2776, "\u0120gave": 2777, "\u0120buy": 2778, "\u0120influ": 2779, "\u0120Calif": 2780, "\u0120log": 2781, "\u0120happened": 2782, "\u0120require": 2783, "\u0120Now": 2784, "\u0120emer": 2785, "ino": 2786, "\u0120fem": 2787, "\".": 2788, "ese": 2789, "\u0120capital": 2790, "clus": 2791, "\u0120foreign": 2792, "\u0120currently": 2793, "\u0120Off": 2794, "based": 2795, "\u0120San": 2796, "\u0120goes": 2797, "\u0120By": 2798, "oved": 2799, "\u0120Geor": 2800, "vertise": 2801, "\u0120situation": 2802, "\u0120indic": 2803, "\u0120offer": 2804, "\u0120whose": 2805, "\u0120@": 2806, "\u0120tal": 2807, "\u0120material": 2808, "\u0120lives": 2809, "unt": 2810, "\u0120affect": 2811, "rown": 2812, "ought": 2813, "hem": 2814, "\u0120plans": 2815, "nesday": 2816, "\u0120arri": 2817, "\u0120bur": 2818, "\u0120member": 2819, "\u0120pict": 2820, "ursday": 2821, "\u0120Feb": 2822, "\u0120particip": 2823, "ruction": 2824, "\u0120recogn": 2825, "\u0120turned": 2826, "\u0120method": 2827, "\u0120events": 2828, "\u0120January": 2829, "\u0120Hill": 2830, "\u0120network": 2831, "One": 2832, "\u0120teams": 2833, "\u0120Sund": 2834, "\u0120bank": 2835, "\u0120meeting": 2836, "40": 2837, "rect": 2838, "\u0120norm": 2839, "\u0120introdu": 2840, "\u0120simple": 2841, "fully": 2842, "\u0120Ag": 2843, "\u0120Islam": 2844, "\u0120ill": 2845, "\u0120huge": 2846, "\u0120September": 2847, "\u0120regard": 2848, "\u0120areas": 2849, "\u0120cy": 2850, "order": 2851, "\u0120Cor": 2852, "\u0120TV": 2853, "\u0120Me": 2854, "bl": 2855, "\u0120couple": 2856, "\u0120approach": 2857, "aur": 2858, "\u0120career": 2859, "\u0120Afric": 2860, "\u0120Gl": 2861, "load": 2862, "\",": 2863, "\u0120deli": 2864, "oud": 2865, "\u0120race": 2866, "\u0120performance": 2867, "\u0120page": 2868, "ety": 2869, "apt": 2870, "\u0120November": 2871, "\u0120tool": 2872, "\u0120David": 2873, "\u0120felt": 2874, "\u0120quickly": 2875, "\u0120mis": 2876, "\u0120numbers": 2877, "oor": 2878, "\u0120email": 2879, "\u0120El": 2880, "\u012021": 2881, "aily": 2882, "\u0120ord": 2883, "istan": 2884, "\u0120administration": 2885, "\u0120hon": 2886, "\u0120Wednesday": 2887, "\u0120victim": 2888, "\u0120Paul": 2889, "\u0120via": 2890, "\u0120improve": 2891, "\u0120engine": 2892, "chie": 2893, "\u0120fre": 2894, "\u0120pull": 2895, "\u0120Ang": 2896, "\u0120round": 2897, "\u0120built": 2898, "\u012022": 2899, "\u0120pers": 2900, "\u0120European": 2901, "\u0120dig": 2902, "\u0120Thursday": 2903, "\u0120father": 2904, "ornia": 2905, "\u0120loss": 2906, "avy": 2907, "\u0120thous": 2908, "\u00c2\u0143": 2909, "\u0120http": 2910, "ructure": 2911, "\u0120production": 2912, "\u0120boy": 2913, "ume": 2914, "lin": 2915, "\u0120heard": 2916, "down": 2917, "Sh": 2918, "\u0120economy": 2919, "\u00e2\u0122\u013f.": 2920, "\u0120enjoy": 2921, "\u0120August": 2922, "\u0120trade": 2923, "\u0120Sch": 2924, "face": 2925, "\u0120website": 2926, "iment": 2927, "\u0120secret": 2928, "\u0120cover": 2929, "\u0120reveal": 2930, "\u0120wide": 2931, "\u0120board": 2932, "\u0120match": 2933, "\u0120Court": 2934, "AL": 2935, "\u0120allowed": 2936, "\u0120hands": 2937, "\u0120spent": 2938, "\u0120travel": 2939, "\u0120lower": 2940, "\u0120repe": 2941, "atory": 2942, "\u0120poll": 2943, "\u0120included": 2944, "cember": 2945, "\u0120ste": 2946, "\u0120October": 2947, "\u0120neigh": 2948, "\u0120legisl": 2949, "orters": 2950, "uses": 2951, "\u0120behav": 2952, "iction": 2953, "\u0120knew": 2954, "\u0120text": 2955, "\u0120wants": 2956, "\u0120town": 2957, "ights": 2958, "\u0120British": 2959, "\u0120separ": 2960, "ences": 2961, "estern": 2962, "\u0120visit": 2963, "\u0120Canada": 2964, "anks": 2965, "ctions": 2966, "With": 2967, "\u0120perfect": 2968, "\u0120gets": 2969, "ession": 2970, "\u0120movement": 2971, "\u0120aren": 2972, "ishing": 2973, "raz": 2974, "ground": 2975, "agement": 2976, "\u0120tried": 2977, "\u0120cause": 2978, "?\u00e2\u0122\u013f": 2979, "gest": 2980, "\u0120}": 2981, "\u0120forces": 2982, "\u0120Sunday": 2983, "\u0120ens": 2984, "After": 2985, "force": 2986, "ceed": 2987, "\u0120attention": 2988, "\u0120particular": 2989, "\u0120bi": 2990, "urd": 2991, "][": 2992, "\u0120veh": 2993, "\u0120bud": 2994, "\u0120fear": 2995, "\u0120population": 2996, "ened": 2997, "\u0120various": 2998, "\u0120UK": 2999, "\u0120reach": 3000, "\u0120looks": 3001, "\u012023": 3002, "\u0120California": 3003, "\u0120brought": 3004, "\u0120vo": 3005, "\u0120Kore": 3006, "\u0120link": 3007, "ibly": 3008, ");": 3009, "arily": 3010, "\u0120IS": 3011, "200": 3012, "\u0120previous": 3013, "ED": 3014, "\u0120mention": 3015, "\u0120Russian": 3016, "\u0120morning": 3017, "\u0120Qu": 3018, "cle": 3019, "idered": 3020, "'d": 3021, "\u0120fair": 3022, "\u0120growth": 3023, "aker": 3024, "\u0120Sw": 3025, "undred": 3026, "99": 3027, "sequ": 3028, "yond": 3029, "\u0120progress": 3030, "\u0120fell": 3031, "alled": 3032, "\u0120song": 3033, "iam": 3034, "ening": 3035, "\u0120Cont": 3036, "AC": 3037, "\u0120training": 3038, "field": 3039, "hold": 3040, "uk": 3041, "\u0120size": 3042, "\u0120Black": 3043, "cies": 3044, "\u0120December": 3045, "idents": 3046, "\u0120contact": 3047, "ledge": 3048, "\u0120hor": 3049, "\u0120Her": 3050, "\u0120demand": 3051, "While": 3052, "\u0120image": 3053, "\u0120rac": 3054, "\u0120hot": 3055, "ification": 3056, "OS": 3057, "\u0120leader": 3058, "set": 3059, "ecause": 3060, "\u0120rules": 3061, "\u0120prep": 3062, "\u0120liber": 3063, "ze": 3064, "\u0120search": 3065, "\u0120ess": 3066, "\u0120Post": 3067, "\u0120citiz": 3068, "\u0120upon": 3069, "\u0120strugg": 3070, "\u0120Street": 3071, "\u0120latest": 3072, "come": 3073, "ondon": 3074, "\u0120independ": 3075, "US": 3076, "uments": 3077, "inks": 3078, "arth": 3079, "\u0120features": 3080, "\u0120coach": 3081, "\u0120Park": 3082, "iant": 3083, "\u0120fast": 3084, "Tr": 3085, "oo": 3086, "sych": 3087, "\u0120talking": 3088, "\u0120Jew": 3089, "omp": 3090, "\u0120addition": 3091, "ges": 3092, "\u0120star": 3093, "\u0120wond": 3094, "\u0120Senate": 3095, "IT": 3096, "\u0120Pat": 3097, "\u0120speed": 3098, "\u0120exam": 3099, "\u0120considered": 3100, "raq": 3101, "icles": 3102, "aries": 3103, "\u0120reb": 3104, "\u0120levels": 3105, "eth": 3106, "\u0120Times": 3107, "\u0120County": 3108, "elligence": 3109, "\u0120slow": 3110, "\u0120investigation": 3111, "bed": 3112, "ps": 3113, "ille": 3114, "\u0120conduct": 3115, "aph": 3116, "\u0120Party": 3117, "22": 3118, "\u0120King": 3119, "\u0120medical": 3120, "\u0120mach": 3121, "\u0120sn": 3122, "imately": 3123, "vent": 3124, "\u0120achie": 3125, "\u0120language": 3126, "aturday": 3127, "\u0120card": 3128, "unk": 3129, "\u0120sort": 3130, "\u0120critic": 3131, "ope": 3132, "\u0120Tex": 3133, "\u0120Center": 3134, "\u0120pen": 3135, "\u0120und": 3136, "\u0120India": 3137, "\u0120paper": 3138, "wo": 3139, "ysis": 3140, "IC": 3141, "\u01202008": 3142, "pir": 3143, "\u0120conserv": 3144, "\u0120parents": 3145, "\u0120sexual": 3146, "ma": 3147, "\u0120systems": 3148, "\u0120prior": 3149, "uit": 3150, "asc": 3151, "imin": 3152, "\u0120doll": 3153, "\u0120written": 3154, "uf": 3155, "\u0120box": 3156, "\u0120spokes": 3157, "igr": 3158, "\u0120seek": 3159, "\u0120sens": 3160, "eared": 3161, "het": 3162, "\u0120document": 3163, "idge": 3164, "\u0120increasing": 3165, "\u0120hear": 3166, "ani": 3167, "atform": 3168, "\u0120draw": 3169, "\u0120seven": 3170, "\u0120son": 3171, "\u0120Muslim": 3172, "\u0120effort": 3173, "ruary": 3174, "\u0120jobs": 3175, "\u0120Iran": 3176, "\u0120extreme": 3177, "\u0120prevent": 3178, "\u0120learn": 3179, "ining": 3180, "\u0120serious": 3181, "\u0120regul": 3182, "rast": 3183, "\u0120inn": 3184, "\u0120range": 3185, "\u0120...": 3186, "room": 3187, "\u0120violence": 3188, "\u0120eight": 3189, "\u0120Mark": 3190, "80": 3191, "ources": 3192, "\u0120Iraq": 3193, "itch": 3194, "OP": 3195, "\u0120surve": 3196, "\u0120completely": 3197, "\u0120conc": 3198, "\u01202009": 3199, "eff": 3200, "\u0120message": 3201, "ico": 3202, "tr": 3203, "ha": 3204, "\u0120\u00e2": 3205, "\u0120obv": 3206, "\u0120interesting": 3207, "reedom": 3208, "She": 3209, "\u0120screen": 3210, "abor": 3211, "\u0120opportunity": 3212, "\u0120climate": 3213, "24": 3214, "\u0120majority": 3215, "\u0120Ke": 3216, "anced": 3217, "\u0120particularly": 3218, "\u0120doub": 3219, "\u0120journal": 3220, "\u0120despite": 3221, "\u0120Rom": 3222, "\u0120claims": 3223, "fort": 3224, "\u0120answer": 3225, "\u0120Char": 3226, "\u0120society": 3227, "\u0120London": 3228, "\u0120defense": 3229, "\u0120carry": 3230, "entially": 3231, "aming": 3232, "\u0120guy": 3233, "\u0120extra": 3234, "ension": 3235, "\u0120Donald": 3236, "isions": 3237, "\u0120attacks": 3238, "\u0120required": 3239, "erve": 3240, "rench": 3241, "illed": 3242, "\u0120biggest": 3243, "vertisement": 3244, "\u0120East": 3245, "\u0120exactly": 3246, "\u0120paid": 3247, "mp": 3248, "\u0120More": 3249, "iers": 3250, "ibr": 3251, "\u0120experien": 3253, "lying": 3254, "uclear": 3255, "inese": 3256, "isi": 3257, "\u0120modern": 3258, "\u0120remain": 3259, "\u0120quarter": 3260, "\u0120officers": 3261, "ett": 3262, "\u0120hundred": 3263, "\u0120cross": 3264, "\u0120except": 3265, "utions": 3266, "ari": 3267, "\u0120table": 3268, "\u0120practice": 3269, "inally": 3270, "\u0120natural": 3271, "\u0120middle": 3272, "erc": 3273, "\u012027": 3274, "\u0120certainly": 3275, "na": 3276, "\u0120dro": 3277, "oses": 3278, "\u0120Saturday": 3279, "\u0120stories": 3280, "\u0120Net": 3281, "\u0120histor": 3282, "\u0120gas": 3283, "\u0120products": 3284, "\u0120surv": 3285, "\u0120looked": 3286, "\u0120sometimes": 3287, "nces": 3288, "\u0120stuff": 3289, "\u0120rout": 3290, "\u0120science": 3291, "\u0120finally": 3292, "\u0120user": 3293, "\u0120Tur": 3294, "AM": 3295, "\u0120summer": 3296, "\u0120movie": 3297, "\u0120blood": 3298, "ospital": 3299, "aves": 3300, "\u0120communic": 3301, "\u0120aw": 3302, "ously": 3303, "\u0120lay": 3304, "\u0120changed": 3305, "\u0120term": 3306, "\u0120ones": 3307, "\u0120leading": 3308, "\u0120described": 3309, "\u0120Sand": 3310, "\u0120imag": 3311, "\u0120February": 3312, "fl": 3313, "\u0120prison": 3314, "\u0120convers": 3315, "ny": 3316, "\u0120details": 3317, "icks": 3318, "\u0120starting": 3319, "\u0120Spe": 3320, "\u0120quality": 3321, "\u0120occur": 3322, "\u0120pan": 3323, "hib": 3324, "\u0120showed": 3325, "\u0120named": 3326, "\u0120giving": 3327, "\u0120ult": 3328, "\u0120remains": 3329, "\u0120McC": 3330, "uing": 3331, "\u0120region": 3332, "pper": 3333, "\u0120provided": 3334, "\u0120costs": 3335, "akers": 3336, "\u0120Soc": 3337, "arr": 3338, "\u0120damage": 3339, "\u0120mob": 3340, "\u0120danger": 3341, "\u0120fit": 3342, "aught": 3343, "\u0120TH": 3344, "\u0120chief": 3345, "\u0120poor": 3346, "\u0120path": 3347, "\u0120Mor": 3348, "ida": 3349, "\u0120education": 3350, "\u0120multiple": 3351, "\u0120continued": 3352, "enge": 3353, "\u0120Int": 3354, "\u0120growing": 3355, "No": 3356, "\u0120demonst": 3357, "\u0120*": 3358, "\u0120parts": 3359, "\u012026": 3360, "\u0120writing": 3361, "\u0120comments": 3362, "\u012028": 3363, "\u0120ment": 3364, "yl": 3365, "\u0120maintain": 3366, "\u0120safe": 3367, "\u0120assist": 3368, "\u0120thinking": 3369, "\u0120Des": 3370, "inary": 3371, "\u0120Republicans": 3372, "\u0120Even": 3373, "\u0120purp": 3374, "\u0120request": 3375, "\u0120write": 3376, "\u0120fix": 3377, "\u0120item": 3378, "\u0120purch": 3379, "ables": 3380, "\u0120died": 3381, "\u0120Democratic": 3382, "\u0120Coun": 3383, "FL": 3384, "ara": 3385, "ago": 3386, "\u0120ready": 3387, "coin": 3388, "\u0120wouldn": 3389, "\u0120implement": 3390, "23": 3391, "\u0120increased": 3392, "\u0120culture": 3393, "\u0120efforts": 3394, "\u0120voters": 3395, "ux": 3396, "pre": 3397, "\u0120camer": 3398, "\u0120mill": 3399, "aly": 3400, "oper": 3401, "\u0120reading": 3402, "mitted": 3403, "iminal": 3404, "\u0120file": 3405, "\u0120usually": 3406, "\u0120calls": 3407, "\u0120spot": 3408, "Im": 3409, "\u0120effects": 3410, "\u0120Gener": 3411, "zz": 3412, "\u0120perhaps": 3413, "ban": 3414, "\u0120alone": 3415, "arian": 3416, "iles": 3417, "\u0120First": 3418, "\u0120although": 3419, "\u0120towards": 3420, "hest": 3421, "\u0120League": 3422, "\u0120consist": 3423, "\u0120Bill": 3424, "\u0120Texas": 3425, "\u0120select": 3426, "\u0120guys": 3427, "\u0120standard": 3428, "\u0120Michael": 3429, "\u0120subst": 3430, "\u0120cele": 3431, "\u0120beyond": 3432, "\u0120directly": 3433, "\u0120platform": 3434, "\u0120Chinese": 3435, "\u0120(@": 3436, "\u0120hous": 3437, "using": 3438, "itute": 3439, "\u0120speech": 3440, "\u0120reality": 3441, "egr": 3442, "icated": 3443, "\u0120kids": 3444, "\u0120James": 3445, "\u0120avoid": 3446, "\u0120throughout": 3447, "\u0120football": 3448, "\u0120student": 3449, "\u0120tur": 3450, "\u0120couldn": 3451, "BI": 3452, "ford": 3453, "\u0120unf": 3454, "\u0120immediately": 3455, "oul": 3456, "\u0120rob": 3457, "\u0120Ne": 3458, "\u0120includes": 3459, "\u0120cat": 3460, "\u0120concept": 3461, "\u0120center": 3462, "\u0120choice": 3463, "\u0120scene": 3464, "\u0120complex": 3465, "anch": 3466, "\u0120additional": 3467, "sp": 3468, "\u0120Mon": 3469, "\u0120challeng": 3470, "\u0120Cons": 3471, "\u0120wife": 3472, "\u0120clos": 3473, "\u0120tro": 3474, "\u0120recomm": 3475, "\u0120researc": 3476, "Re": 3477, "\u0120epis": 3478, "itor": 3479, "All": 3480, "\u0120ver": 3481, "\u0120Minister": 3482, "\u0120sle": 3483, "\u0120corpor": 3484, "\u0120\u00e2\u0122\u00a6": 3485, "\u0120designed": 3486, "\u0120Ser": 3487, "agon": 3488, "\u0120remember": 3489, "\u0120software": 3490, "\u0120safety": 3491, "\u0120Indian": 3492, "wise": 3493, "\u0120gone": 3494, "\u0120il": 3495, "astic": 3496, "ports": 3497, "\u0120cast": 3498, "\u0120sell": 3499, "\u0120toward": 3500, "\u0120agency": 3501, "\u0120ten": 3502, "\u0120officer": 3503, "aches": 3504, "bur": 3505, "\u0120figure": 3506, "\u0120piece": 3507, "\u0120brain": 3508, "omen": 3509, "\u0120battle": 3510, "\u0120Jack": 3511, "\u0120counter": 3512, "men": 3513, "\u0120debate": 3514, "airs": 3515, "ression": 3516, "ston": 3517, "\u0120thousands": 3518, "adem": 3519, "\u0120swe": 3520, "rupt": 3521, "\u0120ahead": 3522, "\u0120opin": 3523, "ingin": 3524, "icient": 3525, "Now": 3526, "imum": 3527, "\u0120relative": 3528, "irth": 3529, "\u0120letter": 3530, "\u0120receive": 3531, "\u0120pressure": 3532, "\u0120Bo": 3533, "\u0120\u00d0": 3534, "\u0120blog": 3535, "ilies": 3536, "ampions": 3537, "\u0120sil": 3538, "\u0120moved": 3539, "\u0120launch": 3540, "\u0120appears": 3541, "\u0120option": 3542, "\u0120Play": 3543, "\u0120passed": 3544, "\u0120ut": 3545, "\u0120prec": 3546, "\u0120stage": 3547, "roy": 3548, "oes": 3549, "\u012060": 3550, "\u0120clean": 3551, "\u0120Serv": 3552, "olute": 3553, "\u0120II": 3554, "atever": 3555, "berg": 3556, "OT": 3557, "\u0120property": 3558, "27": 3559, "\u0120helped": 3560, "\u0120drive": 3561, "\u0120Apple": 3562, "just": 3563, "\u0120alleged": 3564, "\u0120Green": 3565, "\u0120twe": 3566, "new": 3567, "\u0120disapp": 3568, "\u0120tour": 3569, "\u0120meaning": 3570, "\u0120rock": 3571, "\u0120dog": 3572, "\u0120x": 3573, "urt": 3574, "itation": 3575, "\u0120cris": 3576, "\u0120Associ": 3577, "\u0120suspect": 3578, "\u0120date": 3579, "\u0120Rich": 3580, "aughter": 3581, "\u0120moving": 3582, "\u0120score": 3583, "\u0120Democrats": 3584, "\u0120organization": 3585, "\u0120sat": 3586, "\u0120conditions": 3587, "\u0120touch": 3588, "\u0120dark": 3589, "\u0120command": 3590, "\u0120Then": 3591, "\u0120ign": 3592, "?\"": 3593, "\u0120reasons": 3594, "\u0120budget": 3595, "\u0120crow": 3596, "\u0120park": 3597, "more": 3598, "\u0120nuclear": 3599, "\u0120myself": 3600, "\u0120nom": 3601, "\u0120deg": 3602, "\u0120happy": 3603, "\u0120device": 3604, "\u0120difference": 3605, "rief": 3606, "\u0120Sim": 3607, "\u0120maybe": 3608, "\u0120beginning": 3609, "AD": 3610, "\u0120copy": 3611, "\u0120nature": 3612, "\u0120failed": 3613, "wood": 3614, "\u0120fan": 3615, "\u0120characters": 3616, "yan": 3617, "\u0120computer": 3618, "\u0120encour": 3619, "sis": 3620, "\u0120aim": 3621, "\u0120Mart": 3622, "\u0120title": 3623, "\u0120wall": 3624, "\u0120compared": 3625, "\u0120league": 3626, "ocked": 3627, "\u0120Super": 3628, "ean": 3629, "ivity": 3630, "\u0120estim": 3631, "add": 3632, "\u0120Val": 3633, "\u0120Star": 3634, "\u0120college": 3635, "\u0120eyes": 3636, "\u0120shown": 3637, "\u0120English": 3638, "\u0120century": 3639, "\u0120powerful": 3640, "\u0120Day": 3641, "lease": 3642, "ource": 3643, "\u0120bal": 3644, "aint": 3645, "\u0120limited": 3646, "\u0120yes": 3647, "\u0120band": 3648, "\u0120contribut": 3649, "\u0120positive": 3650, "\u0120forced": 3651, "\u0120necessary": 3652, "\u0120Che": 3653, "\u0120refer": 3654, "\u0120candidate": 3655, "\u0120stra": 3656, "\u0120disp": 3657, "35": 3658, "cient": 3659, "\u0120books": 3660, "\u0120trust": 3661, "AP": 3662, "\u0120French": 3663, "\u0120largest": 3664, "26": 3665, "\u0120arch": 3666, "enty": 3667, "\u0120sal": 3668, "\u0120Here": 3669, "aud": 3670, "\u0120conference": 3671, "\u0120Rober": 3672, "\u0120note": 3673, "\u0120analysis": 3674, "ufact": 3675, "\u0120spending": 3676, "\u0120presidential": 3677, "45": 3678, "\u0120Of": 3679, "\u0120citizens": 3680, "orks": 3681, "\u0120schools": 3682, "igration": 3683, "\u0120Syria": 3684, "\u0120throw": 3685, "\u0120Ben": 3686, "venue": 3687, "\u0120aware": 3688, "\u0120meant": 3689, "\u0120executive": 3690, "\u0120eventually": 3691, "My": 3692, "\u0120physical": 3693, "\u0120followed": 3694, "\u0120feature": 3695, "ares": 3696, "\u0120firm": 3697, "\u0120treatment": 3698, "\u0120Tor": 3699, "\u0120Wind": 3700, "\u0120streng": 3701, "\u0120mix": 3702, "\u0120confir": 3703, "\u0120bott": 3704, "ero": 3705, "\u0120correct": 3706, "orney": 3707, "\u012029": 3708, "\u0120Dis": 3709, "\u0120grad": 3710, "\u0120religious": 3711, "\u0120easily": 3712, "band": 3713, "\u0120autom": 3714, "\u0120esc": 3715, "\u0120pus": 3716, "board": 3717, "\u0120cool": 3718, "etro": 3719, "\u0120196": 3720, "\u0120families": 3721, "\u0120illeg": 3722, "ressed": 3723, "craft": 3724, "cul": 3725, "rated": 3726, "\u0120actions": 3727, "\u0120overall": 3728, "\u0120Air": 3729, "\u0120Mex": 3730, "\u0120allows": 3731, "\u0120gives": 3732, "\u0120feed": 3733, "\u0120\u00c2\u00a3": 3734, "):": 3735, "\u0120susp": 3736, "ube": 3737, "\u0120yourself": 3738, "By": 3739, "Is": 3740, "\u0120draft": 3741, "ken": 3742, "bum": 3743, "\u0120smart": 3744, "\u0120appeared": 3745, "ram": 3746, "\u0120detail": 3747, "\u0120income": 3748, "iring": 3749, "\u0120analy": 3750, "\u0120Bel": 3751, "\u0120signed": 3752, "New": 3753, "encies": 3754, "\u0120Ham": 3755, "\u0120central": 3756, "\u0120ideas": 3757, "\u0120ang": 3758, "\u0120Govern": 3759, "\u0120senior": 3760, "Advertisement": 3761, "\u0120frequ": 3762, "\u0120weapons": 3763, "ID": 3764, "\u0120display": 3765, "\u0120har": 3766, "\u0120promot": 3767, "\u0120nice": 3768, "inn": 3769, "\u0120credit": 3770, "\u0120decades": 3771, "\u0120psych": 3772, "\u0120politics": 3773, "Don": 3774, "\u0120Bre": 3775, "\u0120crime": 3776, "OM": 3777, "EC": 3778, "chan": 3779, "\u0120uses": 3780, "\u0120door": 3781, "\u0120dise": 3782, "uty": 3783, "\u0120International": 3784, "\u0120unique": 3785, "28": 3786, "\u0120altern": 3787, "\u0120lif": 3788, "According": 3789, "\u0120drop": 3790, "\u0120sales": 3791, "mar": 3792, "\u0120developed": 3793, "***": 4720, "resh": 3795, "\u0120customers": 3796, "ET": 3797, "\u0120benefits": 3798, "\u0120conflic": 3799, "urance": 3800, "Ar": 3801, "\u0120related": 3802, "\u0120crisis": 3803, "\u0120School": 3804, "\u0120mist": 3805, "erry": 3806, "iable": 3807, "\u0120predict": 3808, "\u0120noted": 3809, "\u0120Cap": 3810, "29": 3811, "\u0120Australia": 3812, "\u0120EU": 3813, "box": 3814, "\u0120truth": 3815, "part": 3816, "\u0120goals": 3817, "iny": 3818, "\u0120individuals": 3819, "\u0120charge": 3820, "\u0120Earth": 3821, "\u0120beaut": 3822, "\u0120continues": 3823, "onents": 3824, "\u0120Union": 3825, "\u0120Arab": 3826, "\u0120observ": 3827, "\u0120rap": 3828, "\u0120challenge": 3829, "que": 3830, "\u0120sto": 3831, "nown": 3832, "\u0120apparent": 3833, "\u0120Angel": 3834, "itely": 3835, "\u0120Smith": 3836, "Be": 3837, "\u0120lic": 3838, "\u0120projects": 3839, "\u0120peace": 3840, "\u0120measure": 3841, "\u0120Police": 3842, "oti": 3843, "\u0120intelligence": 3844, "\u0120Christian": 3845, "\u0120previously": 3846, "\u0120Germany": 3847, "\u0120fully": 3848, "\u0120rule": 3849, "\u0120manager": 3850, "\u0120brother": 3851, "\u0120rates": 3852, "\u0120advant": 3853, "change": 3854, "\u0120expand": 3855, "\u0120clearly": 3856, "\u0120reform": 3857, "net": 3858, "\u0120lines": 3859, "\u0120successful": 3860, "riage": 3861, "\u0120highly": 3862, "\u0120larger": 3863, "ounds": 3864, "Un": 3865, "\u0120traff": 3866, "\u0120spread": 3867, "iance": 3868, "\u0120seemed": 3869, "\u0120Council": 3870, "\u0120straight": 3871, "Some": 3872, "\u0120criminal": 3873, "\u0120Comp": 3874, "\u0120minor": 3875, "\u0120emb": 3876, "\u0120George": 3877, "\u0120programs": 3878, "iced": 3879, "attle": 3880, "owers": 3881, "\u0120Franc": 3882, "\u0120incident": 3883, "\u0120resources": 3884, "21": 3885, "\u0120Tom": 3886, "\u0120greater": 3887, "\u0120primary": 3888, "IA": 3889, "inated": 3890, "antly": 3891, "\u0120knowledge": 3892, "Pro": 3893, "\u0120studies": 3894, "while": 3895, "dom": 3896, "\u0120save": 3897, "orter": 3898, "\u0120web": 3899, "ategy": 3900, "\u0120kept": 3901, "\u0120attract": 3902, "ki": 3903, "\u0120Flor": 3904, "olic": 3905, "\u0120spir": 3906, "\u0120emot": 3907, "\u0120color": 3908, "\u0120feet": 3909, "sey": 3910, "\u0120rare": 3911, "\u0120reached": 3912, "\u0120arm": 3913, "\u0120Ant": 3914, "secut": 3915, "\u0120High": 3916, "levision": 3917, "\u0120Internet": 3918, "\u0120Brown": 3919, "oday": 3920, "iders": 3921, "osh": 3922, "\u0120favorite": 3923, "\u0120Cr": 3924, "\u0120places": 3925, "\u0120Rec": 3926, "rs": 3927, "\u0120regular": 3928, "wide": 3929, "ota": 3930, "vere": 3931, "bon": 3932, "\u0120manufact": 3933, "\u0120laun": 3934, "\u0120Def": 3935, "100": 3936, "\u0120send": 3937, "term": 3938, "\u0120prem": 3939, "roll": 3940, "lick": 3941, "icit": 3942, "ingly": 3943, "\u0120knows": 3944, "\u0120shooting": 3945, "\u0120activity": 3946, "\u0120pun": 3947, "\u0120sources": 3948, "\u0120normal": 3949, "icago": 3950, "onent": 3951, "ser": 3952, "\u0120status": 3953, "\u0120fighting": 3954, "ville": 3955, "\u0120voice": 3956, "\u0120rise": 3957, "ocks": 3958, "\u0120fine": 3959, "\u0120owners": 3960, "\u0120caused": 3961, "\u0120claimed": 3962, "\u0120Mac": 3963, "\u0120enem": 3964, "\u0120liter": 3965, "\u0120Rob": 3966, "\u0120Up": 3967, "\u0120General": 3968, "aith": 3969, "EO": 3970, "\u0120options": 3971, "\u01202007": 3972, "\u0120integr": 3973, "ength": 3974, "usion": 3975, "\u0120spend": 3976, "\u0120Gold": 3977, "ado": 3978, "\u0120cities": 3979, "miss": 3980, "\u0120organiz": 3981, "ING": 3982, "\u0120ended": 3983, "www": 3984, "\u0120researchers": 3985, "iled": 3986, "\u0120calling": 3987, "\u0120shut": 3988, "\u0120reflect": 3989, "\u0120La": 3990, "org": 3991, "mission": 3992, "mark": 3993, "\u00e2\u0122\u013f,": 3994, "oles": 3995, "70": 3996, "roid": 3997, "\u0120prices": 3998, "\u0120Every": 3999, "\u0120album": 4000, "\u0120From": 4001, "ifying": 4002, "\u0120employees": 4003, "\u0120female": 4004, "\u0120England": 4005, "ya": 4006, "\u0120virt": 4007, "\u0120crowd": 4008, "\u0120haven": 4009, "\u0120raised": 4010, "mittee": 4011, "\u0120ele": 4012, "uana": 4013, "\u0120jump": 4014, "33": 4015, "\u0120supposed": 4016, "itness": 4017, "\u0120happens": 4018, "\u0120adding": 4019, "\u0120policies": 4020, "\u0120names": 4021, "\u0120charges": 4022, "\u0120pros": 4023, "\u0120trou": 4024, "ica": 4025, "ribution": 4026, "\u0120basic": 4027, "uman": 4028, "Not": 4029, "iverse": 4030, "inger": 4031, "\u0120Mag": 4032, "\u0120concerns": 4033, "\u0120traditional": 4034, "\u0120wait": 4035, "\u0120plant": 4036, "\u0120absolute": 4037, "\u0120acqu": 4038, "\u0120hospital": 4039, "\u0120funding": 4040, "\u0120Bay": 4041, "\u0120print": 4042, "\u0120slight": 4043, "rol": 4044, "\u0120commer": 4045, "\u0120patients": 4046, "\u0120authorities": 4047, "\u0120minister": 4048, "Sc": 4049, "\u0120creating": 4050, "\u0120freedom": 4051, "\u0120AP": 4052, "\u0120mechan": 4053, "\u0120scen": 4054, "\u0120Mo": 4055, "\u0120style": 4056, "\u0120seeing": 4057, "\u0120grand": 4058, ".\u00e2\u0122\u013b": 4059, "\u0120beat": 4060, "\u0120lik": 4061, "dd": 4062, "ona": 4063, "rian": 4064, "\u0120station": 4065, "\u0120Scott": 4066, "see": 4067, "\u0120push": 4068, "ijuana": 4069, "\u0120behavior": 4070, "\u0120leaving": 4071, "\u0120cry": 4072, "\u0120impl": 4073, "\u0120birth": 4074, "\u0120ir": 4075, "\u0120actual": 4076, "EL": 4077, "pen": 4078, "\u0120ensure": 4079, "\u0120offered": 4080, "\u0120agreement": 4081, "\u0120Florida": 4082, "\u0120eth": 4083, "soft": 4084, "\u0120Hillary": 4085, "\u0120posted": 4086, "\u0120Reg": 4087, "\u0120gold": 4088, "\u0120Sun": 4089, "\u0120Ber": 4090, "\u0120weekend": 4091, "\u0120green": 4092, "\u0120Most": 4093, "\u0120adult": 4094, "alse": 4095, "\u0120weight": 4096, "OU": 4097, ".'": 4098, "acing": 4099, "\u0120determin": 4100, "\u0120vac": 4101, "Here": 4102, "\u0120revealed": 4103, "\u0120Well": 4104, "\u0120application": 4105, "\u0120mostly": 4106, "\u0120values": 4107, "\u0120propos": 4108, "itude": 4109, "\u0120Alex": 4110, "aby": 4111, "\u0120willing": 4112, "earch": 4113, "\u0120rank": 4114, "\u0120adop": 4115, "\u0120According": 4116, "\u0120establ": 4117, "\u0120eye": 4118, "\u0120records": 4119, "amb": 4120, "ection": 4121, "\u00e2\u0122\u00a2": 4122, "500": 4123, "\u0120enforce": 4124, "http": 4125, "\u0120picture": 4126, "\u0120believed": 4127, "pri": 4128, "\u0120mer": 4129, "uild": 4130, "\u0120brief": 4131, "\u0120Let": 4132, "\u0120learned": 4133, "\u0120Law": 4134, "\u0120install": 4135, "\u0120strategy": 4136, "\u0120appl": 4137, "igned": 4138, "\u0120choose": 4139, "istry": 4140, "gen": 4141, "SA": 4142, "\u0120dire": 4143, "\u0120wonder": 4144, "\u0120qual": 4145, "\u0120massive": 4146, "\u0120devices": 4147, "\u0120benefit": 4148, "\u0120wild": 4149, "\u0120parties": 4150, "\u0120Chicago": 4151, "\u0120lawy": 4152, "\u0120People": 4153, "\u0120uns": 4154, "cher": 4155, "\u0120cars": 4156, "\u0120Trans": 4157, "\u0120Port": 4158, "cont": 4159, "\u0120Phil": 4160, "\u0120arrested": 4161, "\u0120mount": 4162, "\u0120whatever": 4163, "\u0120wat": 4164, "\u0120Oh": 4165, "\u0120France": 4166, "\u0120street": 4167, "\u0120;": 4168, "\u0120provides": 4169, "\u0120whom": 4170, "\u0120assault": 4171, "90": 4172, "liament": 4173, "\u0120asking": 4174, "\u0120influence": 4175, "ties": 4176, "\u0120judge": 4177, "\u0120lose": 4178, "\u0120fat": 4179, "\u0120feeling": 4180, "\u0120operations": 4181, "\u0120produced": 4182, "\u0120temper": 4183, "ste": 4184, "\u0120critical": 4185, "\u0120Lou": 4186, "\u0120Secret": 4187, "\u0120negoti": 4188, "point": 4189, "\u0120mission": 4190, "\u0120enter": 4191, "\u0120Bush": 4192, "Ex": 4193, "\u0120images": 4194, "\u00d0\u00be": 4195, "\u0120Stud": 4196, "\u0120confirmed": 4197, "\u0120showing": 4198, "IL": 4199, "\u0120district": 4200, "ription": 4201, "\u0120runs": 4202, "\u0120pattern": 4203, "\u0120tend": 4204, "\u0120Mat": 4205, "===": 4347, "\u0120border": 4207, "\u0120residents": 4208, "orial": 4209, "rav": 4210, "\u0120debt": 4211, "However": 4212, "\u0120\u00c3": 4213, "aked": 4214, "\u0120cru": 4215, "\u0120teac": 4216, "\u0120Committee": 4217, "mine": 4218, "Cl": 4219, "\u0120opposition": 4220, "\u0120celebr": 4221, "\u0120Wall": 4222, "\u0120Health": 4223, "\u0120section": 4224, "\u0120defend": 4225, "\u0120etc": 4226, "estic": 4227, "\u0120produce": 4228, "icial": 4229, "\u0120Commission": 4230, "\u0120drink": 4231, "\u0120independent": 4232, "\u0120Mod": 4233, "ront": 4234, "cell": 4235, "\u0120Why": 4236, "\u0120brand": 4237, "ented": 4238, "ugg": 4239, "ags": 4240, "\u0120core": 4241, "\u0120Press": 4242, "\u0120tick": 4243, "\u0120digital": 4244, "\u0120Bit": 4245, "\u0120hero": 4246, "\u0120advoc": 4247, "\u0120dollars": 4248, "ae": 4249, "\u0120Sam": 4250, "ocr": 4251, "rial": 4252, "\u0120effective": 4253, "\u0120solution": 4254, "\u0120Mal": 4255, "\u0120vill": 4256, "\u0120interested": 4257, "\u0120Korea": 4258, "\u0120highest": 4259, "BA": 4260, "irg": 4261, "ords": 4262, "\u0120memory": 4263, "\u0120opening": 4264, "\u0120worse": 4265, "\u0120learning": 4266, "\u0120responsible": 4267, "\u0120trial": 4268, "\u0120daily": 4269, "\u0120kick": 4270, "\u0120theory": 4271, "\u0120Other": 4272, "\u0120offers": 4273, "\u0120Palest": 4274, "me": 4275, "\u0120replace": 4276, "\u0120restrict": 4277, "\u0120mur": 4278, "\u0120Get": 4279, "\u0120Office": 4280, "\u0120agreed": 4281, "\u0120television": 4282, "\u0120Francis": 4283, "cience": 4284, "\u0120Micro": 4285, "\u0120Because": 4286, "\u0120occas": 4287, "ST": 4288, "illing": 4289, "CC": 4290, "\u0120train": 4291, "\u0120investment": 4292, "\u0120vs": 4293, "\u0120types": 4294, "iation": 4295, "\u0120Western": 4296, "icians": 4297, "\u0120chair": 4298, "aks": 4299, "\u0120miles": 4300, "\u0120millions": 4301, "no": 4302, "gency": 4303, "\u0120chem": 4304, "\u0120Justice": 4305, "\u0120Del": 4306, "\u0120generally": 4307, "\u0120basis": 4308, "\u0120proposed": 4309, "\u012080": 4310, "\u0120Mike": 4311, "\u0120Mil": 4312, "\u0120Cup": 4313, "These": 4314, "ipe": 4315, "\u0120heavy": 4316, "\u0120explained": 4317, "\u0120Our": 4318, "\u0120map": 4319, "uries": 4320, "AA": 4321, "rad": 4322, "\u0120der": 4323, "oly": 4324, "\u0120partners": 4325, "ander": 4326, "\u0120opinion": 4327, "\u0120defe": 4328, "\u0120onto": 4329, "\u0120protest": 4330, "Con": 4331, "Get": 4332, "\u0120associated": 4333, "\u0120load": 4334, "rig": 4335, "azing": 4336, "\u0120NFL": 4337, "rate": 4338, "oom": 4339, "44": 4340, "win": 4341, "\u0120Found": 4342, "\u0120male": 4343, "\u0120becomes": 4344, "\u0120reject": 4345, "outhern": 4346, "\u0120Security": 4348, "vest": 4349, "\u0120coal": 4350, "\u0120obtain": 4351, "\u0120destroy": 4352, "\u0120advantage": 4353, "\u0120assum": 4354, "\u0120Liber": 4355, "\u0120condition": 4356, "\u0120announce": 4357, "\u0120hundreds": 4358, "\u0120achieve": 4359, "\u0120opened": 4360, "eline": 4361, "\u0120understanding": 4362, "odes": 4363, "\u0120Johnson": 4364, "coming": 4365, "icip": 4366, "\u0120surround": 4367, "ading": 4368, "bert": 4369, "orthern": 4370, "well": 4371, "upp": 4372, "\u0120initial": 4373, "\u0120Att": 4374, "\u0120Big": 4375, "\u0120sleep": 4376, "36": 4377, "\u0120ship": 4378, "\u0120marriage": 4379, "\u0120management": 4380, "\u0120Windows": 4381, "\u0120thus": 4382, "\u0120limit": 4383, "\u0120born": 4384, "\u0120becoming": 4385, "known": 4386, "\u0120photo": 4387, "\u0120easier": 4388, "FC": 4389, "\u0120Great": 4390, "\u0120rat": 4391, "\u0120legislation": 4392, "\u0120controvers": 4393, "\u0120unlike": 4394, "\u0120electric": 4395, "\u0120Many": 4396, "32": 4397, "\u0120camera": 4398, "\u0120Mad": 4399, "witch": 4400, "\u0120accused": 4401, "\u0120spl": 4402, "\u0120neighbor": 4403, "\u0120double": 4404, "\u0120ice": 4405, "\u0120species": 4406, "\u0120shared": 4407, "lant": 4408, "\u0120join": 4409, "\u0120illegal": 4410, "\u012031": 4411, "\u0120Lab": 4412, "\u01202006": 4413, "Mr": 4414, "\u0120harm": 4415, "\u0120machine": 4416, "\u0120served": 4417, "\u0120Jer": 4418, "GB": 4419, "\u0120extremely": 4420, "olf": 4421, "\u0120active": 4422, "\u012035": 4423, "\u0120serve": 4424, "\u0120documents": 4425, "\u0120Islamic": 4426, "\u0120frame": 4427, "\u0120strik": 4428, "level": 4429, "za": 4430, "\u0120Dist": 4431, "\u0120audience": 4432, "BS": 4433, "\u0120location": 4434, "\u0120AM": 4435, "\u0120scientists": 4436, "\u0120bottom": 4437, "orrow": 4438, "\u0120victims": 4439, "\u0120Art": 4440, "\u0120wealth": 4441, "\u0120professional": 4442, "\u0120resist": 4443, "\u0120reduce": 4444, "\u0120belief": 4445, "\u0120nine": 4446, "\u0120solid": 4447, "\u0120winning": 4448, "\u0120marijuana": 4449, "ears": 4450, "\u0120Uk": 4451, "\u0120negative": 4452, "75": 4453, "iful": 4454, "ih": 4455, "\u0120communities": 4456, "\u0120returned": 4457, "ortunately": 4458, "\u0120incred": 4459, "\u0120PM": 4460, "\u0120Institute": 4461, "tered": 4462, "met": 4463, "\u0120church": 4464, "PS": 4465, "\u0120department": 4466, "\u0120Sanders": 4467, "\u0120ran": 4468, "\u0120victory": 4469, "rey": 4470, "\u0120purpose": 4471, "\u012090": 4472, "\u0120Commun": 4473, "\u0120amb": 4474, "lands": 4475, "\u0120vehicle": 4476, "\u0120internet": 4477, "\u0120leadership": 4478, "\u0120Hall": 4479, "istics": 4480, "\u0120bomb": 4481, "ios": 4482, "\u0120mobile": 4483, "ghan": 4484, "\u0120instance": 4485, "ipped": 4486, "38": 4487, "\u0120separate": 4488, "\u0120existing": 4489, "\u0120notice": 4490, "\u0120hearing": 4491, "\u0120die": 4492, "\u0120explain": 4493, "\u0120doubt": 4494, "\u0120faith": 4495, "\u0120teach": 4496, "house": 4497, "\u0120Your": 4498, "atically": 4499, "\u0120episode": 4500, "\u0120bed": 4501, "\u0120watching": 4502, "\u0120comfort": 4503, "\u0120Canadian": 4504, "\u0120Bank": 4505, "\u0120notes": 4506, "\u0120radio": 4507, "irgin": 4508, "\u0120Ev": 4509, "\u0120fresh": 4510, "\u0120unc": 4511, "\u0120views": 4512, "\u0120Inc": 4513, "\u0120putting": 4514, "asy": 4515, "\u0120Sl": 4516, "\u0120Fin": 4517, "\u0120supporters": 4518, "\u0120conservative": 4519, "\u0120purs": 4520, "\u0120argument": 4521, "omas": 4522, "\u0120micro": 4523, "ario": 4524, "acity": 4525, "\u0120launched": 4526, "scrib": 4527, "works": 4528, "OL": 4529, "\u0120appeal": 4530, "iliar": 4531, "\u0120items": 4532, "\u0120committee": 4533, "resp": 4534, "which": 4535, "\u0120definitely": 4536, "ada": 4537, "\u0120dangerous": 4538, "iller": 4539, "zen": 4540, "\u0120coverage": 4541, "\u0120direction": 4542, "\u0120Over": 4543, "\u0120charged": 4544, "\u0120floor": 4545, "\u0120sun": 4546, "PA": 4547, "\u0120max": 4548, "ography": 4549, "34": 4550, "EM": 4551, "\u0120Carol": 4552, "\u0120Church": 4553, "\u0120Fox": 4554, "\u0120issued": 4555, "\u0120drugs": 4556, "Image": 4557, "\u0120task": 4558, "ipp": 4559, "\u0120background": 4560, "\u0120competition": 4561, "\u0120trend": 4562, "\u0120stated": 4563, "vention": 4564, "andom": 4565, "\u0120traffic": 4566, "\u0120FBI": 4567, "\u0120commercial": 4568, "\u0120Direct": 4569, "itt": 4570, "\u0120spoke": 4571, "\u0120sett": 4572, "inct": 4573, "\u0120transfer": 4574, "\u0120suggested": 4575, "\u0120structure": 4576, "\u0120sites": 4577, "\u0120hus": 4578, "\u0120north": 4579, "\u0120Since": 4580, "\u0120Like": 4581, "\u0120restaur": 4582, "ampionship": 4583, "\u0120labor": 4584, "\u0120decade": 4585, "\u0120Bur": 4586, "\u0120repeated": 4587, "\u0120Game": 4588, "\u0120react": 4589, "oman": 4590, "\u0120cards": 4591, "\u0120animals": 4592, "going": 4593, "\u0120novel": 4594, "ctors": 4595, "bing": 4596, "but": 4597, "NA": 4598, "ribute": 4599, "\u0120daughter": 4600, "anted": 4601, "\u0120driving": 4602, "\u0120closed": 4603, "\u0120worst": 4604, "\u0120contain": 4605, "\u0120entirely": 4606, "\u0120ded": 4607, "\u0120Britain": 4608, "ici": 4609, "Bl": 4610, "ady": 4611, "\u0120driver": 4612, "\u0120Wil": 4613, "\u0120disease": 4614, "\u0120telling": 4615, "iling": 4616, "\u0120smaller": 4617, "\u0120discovered": 4618, "\u0120nor": 4619, "akistan": 4620, "\u0120refere": 4621, "\u0120Pri": 4622, "Americ": 4623, "\u0120Los": 4624, "\u0120hack": 4625, "equ": 4626, "!\u00e2\u0122\u013f": 4627, "ference": 4628, "\u0120Que": 4629, "spe": 4630, "\u0120false": 4631, "\u0120cash": 4632, "\u0120concerned": 4633, "ulf": 4634, "\u0120plays": 4635, "\u0120surface": 4636, "semb": 4637, "udd": 4638, "\u0120supported": 4639, "annel": 4640, "ulated": 4641, "\u0120tools": 4642, "oyal": 4643, "\u0120compar": 4644, "\u0120transport": 4645, "\u0120Chris": 4646, "\u0120experiment": 4647, "\u0120finding": 4648, "night": 4649, "\u0120categ": 4650, "\u00e3\u0124": 4651, "ait": 4652, "\u0120aspect": 4653, "##": 4654, "\u0120businesses": 4655, "\u012070": 4656, "\u0120UN": 4657, "\u0120farm": 4658, "\u0120please": 4659, "\u0120older": 4660, "azon": 4661, "how": 4662, "\u0120activities": 4663, "\u0120requires": 4664, "phone": 4665, "CH": 4666, "\u0120gay": 4667, "\u0120Jones": 4668, "ibrary": 4669, "\u0120strength": 4670, "48": 4671, "\u0120wel": 4672, "do": 4673, "andon": 4674, "\u0120insurance": 4675, "\u0120consequ": 4676, "37": 4677, "\u0120largely": 4678, "\u0120murder": 4679, "NN": 4680, "55": 4681, "\u0120exerc": 4682, "\u0120caught": 4683, "\u0120candidates": 4684, "kins": 4685, "\u0120Israeli": 4686, "\u0120allowing": 4687, "icy": 4688, "\u0120blue": 4689, "\u0120Are": 4690, "\u0120annual": 4691, "\u0120Ken": 4692, "\u0120testing": 4693, "ius": 4694, "ossible": 4695, "\u0120strateg": 4696, "\u0120Sup": 4697, "\u0120raise": 4698, "\u0120stock": 4699, "arant": 4700, "overy": 4701, "\u0120Robert": 4702, "izes": 4703, "gers": 4704, "\u0120decisions": 4705, "\u0120accur": 4706, "rick": 4707, "\u0120context": 4708, "\u0120fuel": 4709, "\u0120Ac": 4710, "SP": 4711, "osure": 4712, "lor": 4713, "\u0120Ukrain": 4714, "\u0120concern": 4715, "\u0120afford": 4716, "\u0120believes": 4717, "\u0120construction": 4718, "\u0120truly": 4719, "\u0120Ty": 4721, "\u0120Miss": 4722, "\u0120ge": 4723, "\u0120justice": 4724, "igrants": 4725, "\u0120generation": 4726, "\u0120highlight": 4727, "rim": 4728, "\u0120Tre": 4729, "\u0120unit": 4730, "\u0120presence": 4731, "\u0120Jewish": 4732, "anging": 4733, "!!": 4734, "\u0120Sil": 4735, "\u00d0\u00b0": 4736, "tery": 4737, "\u00d0\u00b5": 4738, "ception": 4739, "\u0120Africa": 4740, "\u0120guess": 4741, "ancy": 4742, "\u0120witness": 4743, "itable": 4744, "\u0120holding": 4745, "ey": 4746, "\u0120Gree": 4747, "\u0120establish": 4748, "\u0120length": 4749, "\u0120planning": 4750, "bre": 4751, "ava": 4752, "\u0120African": 4753, "\u0120sequ": 4754, "cknow": 4755, "\u0120refuge": 4756, "\u0120placed": 4757, "\u0120catch": 4758, "\u0120Afghan": 4759, "\u0120san": 4760, "\u0120Association": 4761, "\u0120tells": 4762, "\u00e2\u0122\u013a": 4763, "inter": 4764, "\u0120scale": 4765, "\u0120spokesman": 4766, "\u0120tim": 4767, "nel": 4768, "\u0120rough": 4769, "\u0120attend": 4770, "olly": 4771, "\u0120Ver": 4772, "\u0120cells": 4773, "\u0120joined": 4774, "\u0120Add": 4775, "\u0120mentioned": 4776, "\u0120interests": 4777, "\u0120abuse": 4778, "\u00e2\u0122\u0136\u00e2\u0122": 4779, "pective": 4780, "\u0120Jim": 4781, "\u0120Pre": 4782, "More": 4783, "\u0120hasn": 4784, "\u0120PC": 4785, "Le": 4786, "\u0120initi": 4787, "\u0120kid": 4788, "\u0120enforcement": 4789, "\u0120GOP": 4790, "\u0120introduced": 4791, "\u0120deliver": 4792, "\u0120conflict": 4793, "\u0120Mer": 4794, "\u0120Microsoft": 4795, "\u0136\u00e2\u0122\u0136": 4796, "\u0120phil": 4797, "\u0120update": 4798, "\u0120missing": 4799, "\u0120providing": 4800, "\u0120waiting": 4801, "\u0120cancer": 4802, "la": 4803, "39": 4804, "\u0120recommend": 4805, "ocracy": 4806, "\u0120established": 4807, "bour": 4808, "isation": 4809, "\u0120eat": 4810, "\u0120Yes": 4811, "\u0120occup": 4812, "\u0120Frank": 4813, "\u0120Jeff": 4814, "\u0120Angeles": 4815, "\u0120removed": 4816, "\u01202005": 4817, "ula": 4818, "\u0120offensive": 4819, "\u0120Fore": 4820, "\u0120Instead": 4821, "icon": 4822, "\u0120injury": 4823, "\u0120sports": 4824, "47": 4825, "\u0120fant": 4826, "\u0120discussion": 4827, "vant": 4828, "\u0120operation": 4829, "\u0120download": 4830, "\u0120useful": 4831, "\u0120newsp": 4832, "\u0120conversation": 4833, "\u0120homes": 4834, "ronic": 4835, "\u0120south": 4836, "\u0120cook": 4837, "\u0120CEO": 4838, "\u0120assess": 4839, "itz": 4840, "\u0120Group": 4841, "formation": 4842, "lig": 4843, "\u0120banks": 4844, "onto": 4845, "\u0120stopped": 4846, "\u0120Step": 4847, "\u0120Const": 4848, "\u0120obvious": 4849, "ications": 4850, "\u0120measures": 4851, "\u0120models": 4852, "\u0120Kh": 4853, "\u0120fourth": 4854, "\u0120MP": 4855, "Our": 4856, "season": 4857, "what": 4858, "\u0120bul": 4859, "DA": 4860, "\u01202018": 4861, "anda": 4862, "\u0120files": 4863, "\u0120girls": 4864, "\u0120Louis": 4865, "\u0120stick": 4866, "cks": 4867, "azine": 4868, "mail": 4869, "umn": 4870, "\u0120managed": 4871, "iter": 4872, "apped": 4873, "oted": 4874, "\u0120figures": 4875, "oms": 4876, "\u0120Tim": 4877, "\u0120Leg": 4878, "\u0120identified": 4879, "\u0120graph": 4880, "\u0120Jud": 4882, "\u0120Sal": 4883, "\u0120finished": 4884, "Pl": 4885, "\u0120funds": 4886, "\u0120Pakistan": 4887, "real": 4888, "\u0120setting": 4889, "\u0120conclud": 4890, "\u0120prefer": 4891, "\u0120hair": 4892, "\u0120committed": 4893, "\u0120Mexico": 4894, "49": 4895, "\u0120skills": 4896, "\u0120appropri": 4897, "\u0120spirit": 4898, "\u0120Rock": 4899, "\u0120veter": 4900, "\u0120focused": 4901, "\u0120arrived": 4902, "\u0120THE": 4903, "\u0120housing": 4904, "\u0120keeping": 4905, "\u0120therefore": 4906, "ros": 4907, "\u0120acknow": 4908, "\u0120detect": 4909, "ulate": 4910, "Des": 4911, "\u0120partner": 4912, "\u0120exclus": 4913, "igan": 4914, "\u0120Android": 4915, "enses": 4916, "rd": 4917, "ups": 4918, "\u0120earth": 4919, "\u0120transl": 4920, "place": 4921, "\u0120tough": 4922, "kin": 4923, "outs": 4924, "\u0120Japanese": 4925, "\u01202000": 4926, "\u0120relatively": 4927, "\u00c3\u00a1": 4928, "\u0120Supreme": 4929, "owl": 4930, "wing": 4931, "\u0120identity": 4932, "\u0120feels": 4933, "gl": 4934, "\u0120Met": 4935, "\u0120otherwise": 4936, "\u0120survey": 4937, "\u0120Ryan": 4938, "ocal": 4939, "RA": 4940, "ication": 4941, "itutional": 4942, "\u0120protection": 4943, "\u0120exchange": 4944, "\u0120owner": 4945, "\u0120Virgin": 4946, "isf": 4947, "Trump": 4948, "\u0120trip": 4949, "\u0120steps": 4950, "\u0120husband": 4951, "\u0120Inter": 4952, "agn": 4953, "\u0120Mont": 4954, "\u0120tweet": 4955, "\u0120connection": 4956, "\u0120Army": 4957, "\u0120slightly": 4958, "\u0120Prof": 4959, "eah": 4960, "\u0120Sur": 4961, "\u0120weak": 4962, "\u0120Government": 4963, "verse": 4964, "\":": 4965, "\u0120circum": 4966, "\u0120elements": 4967, "\u0120click": 4968, "\u0120Richard": 4969, "\u0120strike": 4970, "\u0120photos": 4971, "\u0120mere": 4972, "\u0120defensive": 4973, "dden": 4974, "\u0120gain": 4975, "\u0120fle": 4976, "\u0120depend": 4977, "ucky": 4978, "\u0120collection": 4979, "gar": 4980, "onym": 4981, "\u0120killing": 4982, "\u0120roll": 4983, "ighter": 4984, "hens": 4985, "Go": 4986, "\u0120corner": 4987, "ka": 4988, "ancing": 4989, "odies": 4990, "\u0120suggests": 4991, "uct": 4992, "\u0120aggress": 4993, "with": 4994, "prof": 4995, "\u0120guard": 4996, "Photo": 4997, "\u0120gender": 4998, "makers": 4999, "\u0120College": 5000, "\u0120commission": 5001, "\u0120Although": 5002, "range": 5003, "\u0120dat": 5004, "46": 5005, "\u0120Ir": 5006, "\u0120Dec": 5007, "\u0120mental": 5008, "icide": 5009, "rees": 5010, "\u0120amazing": 5011, "\u0120Sub": 5012, "hi": 5013, "\u0120planet": 5014, "\u0120Team": 5015, "rency": 5016, "\u0120Out": 5017, "\u0120bigger": 5018, "ym": 5019, "\u0120failure": 5020, "\u0120Jose": 5021, "\u0120supply": 5022, "Why": 5023, "ania": 5024, "\u0120Nor": 5025, "\u0120starts": 5026, "\u0120sides": 5027, "hedul": 5028, "iser": 5029, "\u0120familiar": 5030, "\u0120remind": 5031, "\u0120sust": 5032, "\u0120spect": 5033, "ils": 5034, "uate": 5035, "\u0120speaking": 5036, "ano": 5037, "\u0120talks": 5038, "\u0120happening": 5039, "gypt": 5040, "\u0120organizations": 5041, "\u0120hate": 5042, "\u0120window": 5043, "\u0120army": 5044, "\u0120Good": 5045, "\u0120Joe": 5046, "\u0120none": 5047, "uke": 5048, "\u0120taxes": 5049, "\u0120planned": 5050, "\u0120Martin": 5051, "\u0120Pet": 5052, "\u0120thanks": 5053, "\u0120Mary": 5054, "\u0120struct": 5055, "\u0120pit": 5056, "\u0120decide": 5057, "\u0120sudden": 5058, "\u0120wish": 5059, "\u0120crew": 5060, "\u0120carried": 5061, "\u0120appoint": 5062, "oston": 5063, "\u0120pet": 5064, "mas": 5065, "awn": 5066, "eless": 5067, "agues": 5068, "ynam": 5069, "\u0120regist": 5070, "TC": 5071, "\u0120multi": 5072, "idering": 5073, "\u0120helping": 5074, "Last": 5075, "\u0120award": 5076, "\u0120standards": 5077, "\u012032": 5078, "\u0120Fire": 5079, "\u0120revolution": 5080, "\u0120environmental": 5081, "].": 5082, "\u0120Web": 5083, "arsh": 5084, "\u0120Thomas": 5085, "olit": 5086, "\u0120script": 5087, "pm": 5088, "ola": 5089, "\u0120seconds": 5090, "run": 5091, "\u0120Research": 5092, "gn": 5093, "\u0120scientific": 5094, "\u0120immigration": 5095, "\u0120Bern": 5096, "\u0120standing": 5097, "\u0120Their": 5098, "\u012045": 5099, "stream": 5100, "ocol": 5101, "\u0120que": 5102, "\u0120beer": 5103, "\u0120domestic": 5104, "imal": 5105, "adium": 5106, "\u0120pair": 5107, "uters": 5108, "\u0120Also": 5109, "\u0120Secretary": 5110, "\u0120Us": 5111, "\u0120academ": 5112, "\u0120cold": 5113, "\u0120variety": 5114, "\u0120markets": 5115, "aven": 5116, "\u0120sch": 5117, "HL": 5118, "\u0120territ": 5119, "\u0120dropped": 5120, "fe": 5121, "\u0120accounts": 5122, "!\"": 5123, "\u0120Atlant": 5124, "\u0120filed": 5125, "erous": 5126, "acks": 5127, "illa": 5128, "\u0120balance": 5129, "lo": 5130, "\u0120impossible": 5131, "\u0120Ter": 5132, "\u0120interact": 5133, "\u0120neighborhood": 5134, "\u0120degree": 5135, "Read": 5136, "\u0120turns": 5137, "itect": 5138, "\u0120possibly": 5139, "\u0120appre": 5140, "\u0120operating": 5141, "\u0120princ": 5142, "\u0120alternative": 5143, "\u0120union": 5144, "\u0120votes": 5145, "\u0120vul": 5146, "ader": 5147, "\u0120professor": 5148, "\u0120tack": 5149, "\u0120Service": 5150, "\u0120increasingly": 5151, "ayer": 5152, "ruit": 5153, "\u0120apply": 5154, "\u0120fellow": 5155, "\u0120cuts": 5156, "ores": 5157, "\u0120honest": 5158, "\u0120Prime": 5159, "\u0120univers": 5160, "\u0120server": 5161, "\u0120developers": 5162, "arks": 5163, "\u0120Syrian": 5164, "\u0120apparently": 5165, "vis": 5166, "stein": 5167, "\u0120lived": 5168, "\u0120changing": 5169, "\u0120worry": 5170, "rastructure": 5171, "\u0120Carolina": 5172, "\u0120tests": 5173, "\u0120units": 5174, "\u0120rich": 5175, "\u0120Two": 5176, "aren": 5177, "cious": 5178, "icted": 5179, "From": 5180, "aded": 5181, "\u0120humans": 5182, "IM": 5183, "\u0120Foundation": 5184, "\u0120Mos": 5185, "\u0120agencies": 5186, "\u0120sounds": 5187, "ashed": 5188, "\u0120twice": 5189, "\u0120ultimately": 5190, "obby": 5191, "\u0120losing": 5192, "\u0120philos": 5193, "\u0120authority": 5194, "\u0120soldiers": 5195, "\u00e3\u0125": 5196, "\u0120animal": 5197, "\u0120Images": 5198, "\u0120settle": 5199, "\u0120ath": 5200, "\u0120schedul": 5201, "\u0120mut": 5202, "\u0120colle": 5203, "\u0120corporate": 5204, "\u0120absolutely": 5205, "\u0120healthy": 5206, "\u0120paying": 5207, "och": 5208, "\u0120equip": 5209, "iams": 5210, "gu": 5211, "\u0120developing": 5212, "\u0120sea": 5213, "\u0120Time": 5214, "\u0120Den": 5215, "\u0120closer": 5216, "\u0120innov": 5217, "related": 5218, "\u0120seeking": 5219, "\u0120regarding": 5220, "coh": 5221, "\u0120skin": 5222, "\u0120expensive": 5223, "ansion": 5224, "\u0120possibility": 5225, "\u0120beautiful": 5226, "\u0120religion": 5227, "\u0120apart": 5228, "\u0120Central": 5229, "\u0120fundament": 5230, "\u0120experts": 5231, "\u0120solar": 5232, "65": 5233, "\u0120yards": 5234, "\u0120vast": 5235, "\u0120writer": 5236, "\u0120flight": 5237, "\u0120District": 5238, "\u0120Last": 5239, "\u0120deploy": 5240, "\u0120adjust": 5241, "Of": 5242, "\u0120internal": 5243, "\u0120tast": 5244, "\u0120Under": 5245, "\u0120Lat": 5246, "\u0120Peter": 5247, "apers": 5248, "\u0120imagine": 5249, "\u0120Jon": 5250, "IV": 5251, "\u0120applications": 5252, "ologies": 5253, "31": 5254, "\u0120vision": 5255, "look": 5256, "state": 5257, "osen": 5258, "\u0120Francisco": 5259, "iot": 5260, "\u0120Toronto": 5261, "\u0120sitting": 5262, "\u0120Plan": 5263, "\u0120trail": 5264, "\u0120unless": 5265, "\u0120USA": 5266, "\u0120Jes": 5267, "isted": 5268, "\u0120heat": 5269, "\u01202004": 5270, "IP": 5271, "Even": 5272, "\u0120responsibility": 5273, "\u0120capacity": 5274, "atures": 5275, "\u0120Middle": 5276, "\u0120error": 5277, "aine": 5278, "\u0120symb": 5279, "\u0120fol": 5280, "pire": 5281, "\u0120arms": 5282, "\u0120pil": 5283, "\u0120gar": 5284, "\u0120covered": 5285, "idden": 5286, "ias": 5287, "\u0120famous": 5288, "\u0120Camp": 5289, "\u0120forms": 5290, "uzz": 5291, "ND": 5292, "\u0120university": 5293, "\u0120guarant": 5294, "\u0120tight": 5295, "\u0120presented": 5296, "ortion": 5297, "oving": 5298, "enced": 5299, "\u0120ST": 5300, "\u0120clim": 5301, "\u0120Egypt": 5302, "\u0120earn": 5303, "\u0120Put": 5304, "\u0120convention": 5305, "under": 5306, "Just": 5307, "\u0120Public": 5308, "\u0120surprise": 5309, "\u0120attorney": 5310, "\u0120elections": 5311, "\u0120estimated": 5312, "\u0120fif": 5313, "\u0120Mur": 5314, "\u0120Ari": 5315, "\u0120teen": 5316, "\u0120instit": 5317, "\u0120vehicles": 5318, "rible": 5319, "\u0120Amazon": 5320, "road": 5321, "\u0120intended": 5322, "\u0120rid": 5323, "\u0120odd": 5324, "\u0120helps": 5325, "\u0120occurred": 5326, "person": 5327, "ala": 5328, "\u0120streets": 5329, "uster": 5330, "hand": 5331, "\u0120Boston": 5332, "\u0120Sol": 5333, "roud": 5334, "\u0120sport": 5335, "=\"": 5336, "sen": 5337, "\u0120determine": 5338, "ressive": 5339, "\u0120Bitcoin": 5340, "\u0120expert": 5341, "\u0120schem": 5342, "alls": 5343, "\u0120consult": 5344, "uration": 5345, "\u0120broken": 5346, "Let": 5347, "lets": 5348, "\u0120fired": 5349, "\u0120ton": 5350, "\u0120flow": 5351, "\u0120domin": 5352, "porary": 5353, "eder": 5354, "LE": 5355, "\u0120shall": 5356, "\u0120reserv": 5357, "Up": 5358, "\u0120troops": 5359, "ION": 5360, "\u0120Those": 5361, "\u0120hyp": 5362, "\u0120nar": 5363, "terday": 5364, "\u0120pieces": 5365, "\u0120Chief": 5366, "\u0120prepared": 5367, "\u0120Mass": 5368, "\u0120Cath": 5369, "\u0120rapid": 5370, "orage": 5371, "\u0120Jo": 5372, "\u0120located": 5373, "\u0120Social": 5374, "\u0120baby": 5375, "\u0120conclus": 5376, "\u0120bringing": 5377, "anche": 5378, "\u0120Prot": 5379, "\u0120prove": 5380, "\u0120specifically": 5381, "\u0120Any": 5382, "\u0120potentially": 5383, "\u0120sector": 5384, "\u0120random": 5385, "\u0120jail": 5386, "OW": 5387, "\u0120selling": 5388, "\u0120governments": 5389, "\u0120Once": 5390, "\u0120equal": 5391, "Ab": 5392, "class": 5393, "war": 5394, "\u0120faster": 5395, "\u0120heav": 5396, "\u0120Spr": 5397, "\u0120boost": 5398, "useum": 5399, "vey": 5400, "\u0120proposal": 5401, "oty": 5402, "\u0120factors": 5403, "\u0120clin": 5404, "\u0120Gal": 5405, "\u0120plenty": 5406, "TH": 5407, "\u0120equipment": 5408, "\u0120council": 5409, "\u0120era": 5410, "\u0120infrastructure": 5411, "Do": 5412, "\u0120stress": 5413, "phas": 5414, "\u0120stars": 5415, "\u0120Journal": 5416, "\u0120Rub": 5417, "endment": 5418, "\u0120Virginia": 5419, "\u0120breat": 5420, "\u0120prosecut": 5421, "\u0120voted": 5422, "\u0120offering": 5423, "\u0120carbon": 5424, "inent": 5425, "\u0120expressed": 5426, "\u0120vulner": 5427, "\u0120combat": 5428, "\u0120broke": 5429, "()": 5430, "ureau": 5431, "\u0120clot": 5432, "\u0120Cur": 5433, "ours": 5434, "\u0120Federal": 5435, "\u0120ruling": 5436, "\u0120retail": 5437, "\u0120Guard": 5438, "\u0120refused": 5439, "\u0120dram": 5440, "\u0120elected": 5441, "anish": 5442, "\u0120Open": 5443, "\u0120River": 5444, "Every": 5445, "\u0120secure": 5446, "cean": 5447, "\u0120seasons": 5448, "\u0120conducted": 5449, ",'": 5450, "\u0120Paris": 5451, "ht": 5452, "\u0120challenges": 5453, "\u0120remove": 5454, "isher": 5455, "\u0120Sant": 5456, "rog": 5457, "\u0120methods": 5458, "\u0120weapon": 5459, "noon": 5460, "\u0120pointed": 5461, "\u0120Island": 5462, "\u0120master": 5463, "\u0120remained": 5464, "\u0120Australian": 5465, "\u0120prime": 5466, "ENT": 5467, "\u0120trig": 5468, "\u0120positions": 5469, "\u0120Cru": 5470, "\u0120din": 5471, "\u0120Mel": 5472, "\u0120criticism": 5473, "ipping": 5474, "First": 5475, "ocking": 5476, "\u0120Medic": 5477, "\u0120Please": 5478, "onom": 5479, "IG": 5480, "\u0120sale": 5481, "olved": 5482, "\u0120Fe": 5483, "\u0120cultural": 5484, "that": 5485, "\u0120weren": 5486, "\u0120significantly": 5487, "\u0120brow": 5488, "etic": 5489, "\u0120originally": 5490, "rie": 5491, "\u0120During": 5492, "\u0120affected": 5493, "\u0120appearance": 5494, "\u0120cas": 5495, "\u0120tourn": 5496, "\u0120facing": 5497, "\u0120greatest": 5498, "\u0120finish": 5499, "\u0120Lee": 5500, "\u0120stret": 5501, "\u0120youth": 5502, "yr": 5503, "\u0120tele": 5504, "\u0120Who": 5505, "\u0120percentage": 5506, "\u0120Photo": 5507, "col": 5508, "\u0120determined": 5509, "\u0120signs": 5510, "\u0120involve": 5511, "95": 5512, "cel": 5513, "\u00d0\u00b8": 5514, "\u0120thank": 5515, "\u0120bought": 5516, "\u0120500": 5517, "lyn": 5518, "standing": 5519, "\u0120chemical": 5520, "ashion": 5521, "64": 5522, "\u0120shape": 5523, "\u0120Sing": 5524, "\u0120regime": 5525, "\u0120grew": 5526, "pired": 5527, "\u0120remaining": 5528, "\u0120Steve": 5529, "lymp": 5530, "\u0120minimum": 5531, "\u0120Saud": 5532, "reens": 5533, "\u0120indeed": 5534, "\u0120dream": 5535, "rier": 5536, "Since": 5537, "\u0120marg": 5538, "Sp": 5539, "\u0120Both": 5540, "\u0120mode": 5541, "\u0120herself": 5542, "\u0120voting": 5543, "\u0120Color": 5544, "\u0120obviously": 5545, "\u0120Force": 5546, "\u0120Ro": 5547, "\u0120reduced": 5548, "\u0120Nov": 5549, "\u0120wood": 5550, "\u0120Rem": 5551, "ordin": 5552, "\u0120recorded": 5553, "\u0120argued": 5554, "\u01201990": 5555, "\u0120revenue": 5556, "\u0120tact": 5557, "\u0120wearing": 5558, "aling": 5559, "ighters": 5560, "\u0120leads": 5561, "edia": 5562, "\u0120hun": 5563, "\u0120politicians": 5564, "\u0120plus": 5565, "\u0120contrast": 5566, "\u0120switch": 5567, "\u0120handle": 5568, "\u0120purchase": 5569, "\u0120thr": 5570, "\u0120subs": 5571, "\u0120concent": 5572, "\u0120proced": 5573, "\u00d1\u0124": 5574, "\u0120agent": 5575, "hab": 5576, "arp": 5577, "mm": 5578, "\u0120Williams": 5579, "\u0120appreci": 5580, "\u0120experienced": 5581, "\u0120hurt": 5582, "top": 5583, "\u0120excited": 5584, "\u0120videos": 5585, "\u0120https": 5586, "cohol": 5587, "\u0120supporting": 5588, "DP": 5589, "\u0120Haw": 5590, "ownt": 5591, "\u0120vir": 5592, "\u0120Free": 5593, "\u0120surprising": 5594, "\u0120minute": 5595, "\u0120explos": 5596, "\u0120belong": 5597, "\u0120consumers": 5598, "\u0120identify": 5599, "\u0120considering": 5600, "\u0120Pac": 5601, "\u0120Conserv": 5602, "ller": 5603, "apter": 5604, "\u0120aircraft": 5605, "\u0120rent": 5606, "\u0120aid": 5607, "CL": 5608, "\u0120pulled": 5609, "gment": 5610, "\u0120basically": 5611, "\u0120differences": 5612, "ogue": 5613, "\u0120Book": 5614, "\u0120glass": 5615, "\u0120Rad": 5616, "\u0120afternoon": 5617, "\u0120shift": 5618, "\u0120diss": 5619, "\u0120depart": 5620, "\u0120ends": 5621, "essions": 5622, "\u0120turning": 5623, "\u0120bound": 5624, "\u0120films": 5625, "\u0120spring": 5626, "\u0120prospect": 5627, "ruption": 5628, "ket": 5629, "\u0120Charl": 5630, "\u0120mort": 5631, "life": 5632, "\u0120treated": 5633, "\u0120accident": 5634, ",[": 5635, "\u0120motiv": 5636, "\u0120listen": 5637, "\u0120seat": 5638, "\u0120Power": 5639, "\u0120combined": 5640, "\u0120construct": 5641, "Ind": 5642, "\u0120seriously": 5643, "\u0120privacy": 5644, "apping": 5645, "\u0120evening": 5646, "hered": 5647, "hy": 5648, "\u0120opportunities": 5649, "asp": 5650, "\u0120struggle": 5651, "\u0120195": 5652, "\u0120panel": 5653, "\u0120enemy": 5654, "\u0120lots": 5655, "\u0120completed": 5656, "\u0120Daily": 5657, "\u0120visual": 5658, "His": 5659, "Phone": 5660, "pet": 5661, "\u0120talked": 5662, "\u0120cart": 5663, "\u0120hopes": 5664, "uts": 5665, "\u0120passing": 5666, "oral": 5667, "\u0120id": 5668, "\u0120apps": 5669, "osite": 5670, "05": 5671, "gent": 5672, "PD": 5673, "\u0120calcul": 5674, "Another": 5675, "\u0120widely": 5676, "ensions": 5677, "\u0120emergency": 5678, "\u0120Hol": 5679, "amm": 5680, "\u0120Show": 5681, "\u0120suit": 5682, "\u0120element": 5683, "\u0120ast": 5684, "anged": 5685, "SS": 5686, "ucks": 5687, "aled": 5688, "\u0120powers": 5689, "ato": 5690, "\u0120Rel": 5691, "\u0120BBC": 5692, "\u0120Olymp": 5693, "\u0120burn": 5694, "TV": 5695, "\u0120discl": 5696, "Pe": 5697, "\u0120plants": 5698, "\u0120flat": 5699, "\u0120Space": 5700, "\u0120liberal": 5701, "raud": 5702, "obe": 5703, "\u0120opposed": 5704, "\u0120sad": 5705, "Well": 5706, "\u0120proceed": 5707, "ompl": 5708, "\u0120copyright": 5709, "\u0120Project": 5710, "oking": 5711, "\u0120advance": 5712, "\u0120factor": 5713, "\u0120distance": 5714, "\u01202003": 5715, "ivered": 5716, "\u0120dismiss": 5717, "plom": 5718, "\u0120attempts": 5719, "\u0120tun": 5720, "\u0120Matt": 5721, "Am": 5722, "\u0120Road": 5723, "abilities": 5724, "sts": 5725, "\u0120IN": 5726, "ributed": 5727, "\u0120trouble": 5728, "unction": 5729, "\u0120hol": 5730, "\u0120collabor": 5731, "\u0120default": 5732, "idel": 5733, "\u0120Bet": 5734, "\u0120zone": 5735, "\u0120Jackson": 5736, "\u0120upgr": 5737, "ita": 5738, "rawn": 5739, "Cont": 5740, "\u0120reaction": 5741, "\u0120storm": 5742, "\u0120reporters": 5743, "\u0120Mem": 5744, "\u0120frust": 5745, "PR": 5746, "nell": 5747, "\u0120writes": 5748, "adow": 5749, "mosp": 5750, "mond": 5751, "aints": 5752, "\u0120typically": 5753, "\u0120Today": 5754, "lines": 5755, "respond": 5756, "UT": 5757, "\u0120pages": 5758, "\u0120instruct": 5759, "inian": 5760, "ternal": 5761, "eds": 5762, "\u0120reference": 5763, "\u0120grab": 5764, "zer": 5765, "\u0120package": 5766, "\u0120bodies": 5767, "\u0120matters": 5768, "free": 5769, "01": 5770, "\u0120denied": 5771, "care": 5772, "App": 5773, "\u0120quant": 5774, "\u0120disappoint": 5775, "\u0120sem": 5776, "\u0120explo": 5777, "\u0120NAS": 5778, "\u0120optim": 5779, "ache": 5780, "\u0120quiet": 5781, "\u0120entertain": 5782, "\u0120responded": 5783, "\u0120approved": 5784, "\u0120Turkey": 5785, "\u0120satisf": 5786, "aped": 5787, "\u0120broadcast": 5788, "esters": 5789, "\u0120institutions": 5790, "\u0120advert": 5791, "42": 5792, "\u0120stands": 5793, "\u0120Director": 5794, "\u0120sets": 5795, "estival": 5796, "\u0120elimin": 5797, "razy": 5798, "ga": 5799, "\u00c3\u00a4": 5800, "Rep": 5801, "host": 5802, "\u0120valid": 5803, "\u0120renew": 5804, "\u0120Ohio": 5805, "elly": 5806, "\u0120split": 5807, "\u0120severe": 5808, "\u0120William": 5809, "\u0120sac": 5810, "\u0120capable": 5811, "\u0120Penn": 5812, "\u01202001": 5813, "\u0120//": 5814, "\u0120pitch": 5815, "aniel": 5816, "\u0120caption": 5817, "\u0120loved": 5818, "\u0120technical": 5819, "\u0120giant": 5820, "pass": 5821, "\u0120tradition": 5822, "isters": 5823, "\u0120cann": 5824, "rant": 5825, "\u0120prompt": 5826, "\u0120bull": 5827, "\u0120confident": 5828, "uous": 5829, "\u0120confidence": 5830, "rum": 5831, "abin": 5832, "\u0120numerous": 5833, "\u0120reportedly": 5834, "\u0120Ma": 5835, "\u0120faces": 5836, "],": 5837, "writ": 5838, "\u0120weather": 5839, "\u0120fly": 5840, "rid": 5841, "\u0120transition": 5842, "\u012036": 5843, "\u0120System": 5844, "\u0120Afghanistan": 5845, "\u0120Squ": 5846, "\u0120creation": 5847, "De": 5848, "\u0120perspective": 5849, "\u0120unable": 5850, "\u0120forget": 5851, "\u0120Labour": 5852, "\u0120Yet": 5853, "astern": 5854, "employ": 5855, "oken": 5856, "\u0120Media": 5857, "angers": 5858, "II": 5859, "unte": 5860, "\u0120craft": 5861, "\u0120substant": 5862, "\u0120cooper": 5863, "\u0120violent": 5864, "\u0120suffered": 5865, "ilit": 5866, "\u0120coast": 5867, "\u0120mand": 5868, "ampion": 5869, "43": 5870, "\u0120pictures": 5871, "\u0120experiences": 5872, "\u0120approx": 5873, "abled": 5874, "\u0120route": 5875, "88": 5876, "sex": 5877, "\u0120flag": 5878, "\u0120advice": 5879, "\u0120Andrew": 5880, "usiness": 5881, "\u0120declared": 5882, "\u0120ordered": 5883, "\u0120Human": 5884, "razil": 5885, "\u0120crimes": 5886, "\u0120coff": 5887, "Se": 5888, "\u0120proud": 5889, "ishes": 5890, "\u0120reporting": 5891, "\u0120messages": 5892, "\u0120circumst": 5893, "\u0120findings": 5894, "Res": 5895, "ulations": 5896, "\u0120eval": 5897, "\u0120excell": 5898, "Over": 5899, "\u0120declined": 5900, "\u0120explains": 5901, "\u0120Lin": 5902, "\u0120Wal": 5903, "\u0120delay": 5904, "\u0120\\": 5905, "\u0120Follow": 5906, "\u0120newspaper": 5907, "ounded": 5908, "\u0120connected": 5909, "ilty": 5910, "\u0120shouldn": 5911, "\u0120mal": 5912, "evin": 5913, "oves": 5914, "\u0120ongoing": 5915, "can": 5916, "\u0120cloud": 5917, "dule": 5918, "\u0120movies": 5919, "\u0120picked": 5920, "ionally": 5921, "resents": 5922, "77": 5923, "\u0120admitted": 5924, "\u0120gra": 5925, "\u0120delivered": 5926, "During": 5927, "\u0120guns": 5928, "\u0120ML": 5929, "\u0120Scot": 5930, "\u0120walking": 5931, "\u0120agents": 5932, "called": 5933, "tion": 5934, "\u0120prin": 5935, "\u0120editor": 5936, "\u0120thoughts": 5937, "\u0120married": 5938, "\u0120Tra": 5939, "\u0120auth": 5940, "\u0120emails": 5941, "\u0120appropriate": 5942, "edd": 5943, "\u0120emphas": 5944, "\u0120Rod": 5945, "uations": 5946, "\u0120edge": 5947, "\u0120architect": 5948, "\u0120Grand": 5949, "\u0120leaves": 5950, "\u0120updates": 5951, "\u0120accompl": 5952, "OD": 5953, "\u0120gather": 5954, "\u0120forg": 5955, "\u0120Muslims": 5956, "ansas": 5957, "\u0120Wood": 5958, "\u0120quarterback": 5959, "\u0120session": 5960, "ooth": 5961, "\u0120pool": 5962, "\u0120Techn": 5963, "\u0120Science": 5964, "cos": 5965, "\u0120injured": 5966, "\u0120publicly": 5967, "ellow": 5968, "\u0120Sov": 5969, "\u0120statements": 5970, "arn": 5971, "\u0120perman": 5972, "arl": 5973, "\u0120legit": 5974, "\u0120confirm": 5975, "nergy": 5976, "\u0120Lake": 5977, "\u0120ourselves": 5978, "Other": 5979, "\u0120realize": 5980, "\u0120rot": 5981, "\u0120drivers": 5982, "MA": 5983, "\u0120Av": 5984, "\u0120Dou": 5985, "mates": 5986, ",\u00e2\u0122\u013b": 5987, "\u0120armed": 5988, "essor": 5989, "\u0120dial": 5990, "cons": 5991, "TA": 5992, "\u0120lawyer": 5993, "ourney": 5994, "\u0120rail": 5995, "\u0120readers": 5996, "reland": 5997, "\u0120contains": 5998, "\u0120argue": 5999, "\u0120Rev": 6000, "\u0120talent": 6001, "\u0120filled": 6002, "\u0120Sum": 6003, "\u0120allegations": 6004, "\u0120activists": 6005, "\u0120Christmas": 6006, "\u0120dynam": 6007, "\u01201980": 6008, "\u0120Michigan": 6009, "date": 6010, "\u0120Back": 6011, "\u0120Ron": 6012, "\u0120crack": 6013, "\u0120transform": 6014, "Tube": 6015, "\u0120Read": 6016, "\u0120Ill": 6017, "\u0120buildings": 6018, "long": 6019, "\u0120wear": 6020, "Many": 6021, "\u0120sam": 6022, "\u0120terrorist": 6023, "\u0120tree": 6024, "\u0120exercise": 6025, "enda": 6026, "\u0120label": 6027, "\u0120effectively": 6028, "Oh": 6029, "\u0120practices": 6030, "\u0120god": 6031, "\u0120subsequ": 6032, "\u0120Jul": 6033, "\u0120Sher": 6034, "\u0120flo": 6035, "uls": 6036, "\u0120fish": 6037, "TS": 6038, "ette": 6039, "enture": 6040, "\u0120shop": 6041, "\u0120examples": 6042, "41": 6043, "\u0120Hy": 6044, "\u0120patient": 6045, "\u0120Gen": 6046, "\u0120Seattle": 6047, "\u0120objects": 6048, "\u0120tech": 6049, "\u0120See": 6050, "\u0120secretary": 6051, "gia": 6052, "asure": 6053, "\u0120rain": 6054, "urning": 6055, "\u0120missed": 6056, "\u0120causes": 6057, "illy": 6058, "\u0120debut": 6059, "\u0120essentially": 6060, "66": 6061, "\u0120moral": 6062, "orders": 6063, "ador": 6064, "word": 6065, "acter": 6066, "\u0120Work": 6067, "def": 6068, "arters": 6069, "\u0120Ukraine": 6070, "\u0120centre": 6071, "amin": 6072, "hedule": 6073, "Follow": 6074, "\u0120Vict": 6075, "\u0120ID": 6076, "\u0120injuries": 6077, "icing": 6078, "\u0120Phot": 6079, "\u0120Stan": 6080, "\u0120motor": 6081, "\u0120iPhone": 6082, "\u0120artist": 6083, "\u0120client": 6084, "\u0120bond": 6085, "\u0120thinks": 6086, "iat": 6087, "aza": 6088, "orse": 6089, "ouston": 6090, "\u0120pure": 6091, "\u0120hell": 6092, "Although": 6093, "\u0120Saudi": 6094, "\u0120facts": 6095, "\u0124\u00ac": 6096, "\u0120desire": 6097, "agers": 6098, "\u0120ske": 6099, "orry": 6100, "\u0120linked": 6101, "\u00c3\u0143": 6102, "\u0120governor": 6103, "\u0120materials": 6104, "\u0120performed": 6105, "Spe": 6106, "\u0120franch": 6107, "esome": 6108, "nan": 6109, "\u0120suc": 6110, "\u0120philosoph": 6111, "\u0120initially": 6112, "\u0120Sign": 6113, "\u0120necessarily": 6114, "\u0120Kim": 6115, "\u0120Bat": 6116, "\u0120Fer": 6117, "\u0120expansion": 6118, "\u0120scheduled": 6119, "water": 6120, "ERS": 6121, "\u0120warned": 6122, "iest": 6123, "\u0120diplom": 6124, "\u0120advanced": 6125, "\u0120explan": 6126, "\u0120ing": 6127, "\u0120vari": 6128, "\u0120everybody": 6129, "\u0120joint": 6130, "\u0120decre": 6131, "\u0120resolution": 6132, "\u0120increases": 6133, "enger": 6134, "Yes": 6135, "\u0120accepted": 6136, "\u0120incor": 6137, "\u0120myster": 6138, "\u0120faced": 6139, "\u0120van": 6140, "\u0120bare": 6141, "illance": 6142, "\u0120Mount": 6143, "\u0120announcement": 6144, "\u0120follows": 6145, "\u0120nations": 6146, "\u0120playoff": 6147, "\u0120Life": 6148, "\u0120abandon": 6149, "\u0120Second": 6150, "\u0120Id": 6151, "\u0120radical": 6152, "\u0120athlet": 6153, "\u0120neither": 6154, "\u0120yesterday": 6155, "\u0120datab": 6156, "\u0120nearby": 6157, "\u0120distribution": 6158, "otic": 6159, "\u0120applied": 6160, "irty": 6161, "\u0120magazine": 6162, "Most": 6163, "athan": 6164, "rich": 6165, "\u0120mir": 6166, "\u0120consequences": 6167, "\u0120doctor": 6168, "uy": 6169, "\u0120listed": 6170, "\u0120fort": 6171, "\u0120Columb": 6172, "\u0120atmosp": 6173, "American": 6174, "\u0120surprised": 6175, "\u0120offense": 6176, "Qu": 6177, "itors": 6178, "\u0120CNN": 6179, "\u0120RE": 6180, "\u0120spons": 6181, "\u0120begins": 6182, "\u0120Week": 6183, "\u0120threats": 6184, "sembly": 6185, "\u0120represents": 6186, "\u0120Jews": 6187, "\u0120GM": 6188, "\u0120Aff": 6189, "\u0120enh": 6190, "\u0120moves": 6191, "\u0120remark": 6192, "\u0120TO": 6193, "\u0120songs": 6194, "\u0120pra": 6195, "kay": 6196, "\u0120chart": 6197, "\u0120behavi": 6198, "\u0120Dan": 6199, "\u0120ride": 6200, "\u0120adds": 6201, "\u0120withd": 6202, "Can": 6203, "\u00c3\u0124": 6204, "\u0120improved": 6205, "\u0120phen": 6206, "\u0120Blue": 6207, "\u0120bot": 6208, "\u0120warm": 6209, "\u0120af": 6210, "\u0120alcohol": 6211, "rip": 6212, "\u0120AT": 6213, "\u0120output": 6214, "law": 6215, "\u0120flood": 6216, "\u0120Develop": 6217, "\u0120Hen": 6218, "whel": 6219, "edy": 6220, "\u0120shots": 6221, "\u0120fill": 6222, "\u0120Vol": 6223, "\u0120alt": 6224, "\u0120stood": 6225, "\u0120brings": 6226, "\u0120pushed": 6227, "\u0120guilty": 6228, "\u0120Romney": 6229, "\u0120subscrib": 6230, "85": 6231, "\u0120entry": 6232, "ocratic": 6233, "\u0120Brazil": 6234, "\u0120democracy": 6235, "\u0120boys": 6236, "burg": 6237, "\u012033": 6238, "\u0120row": 6239, "\u0120config": 6240, "\u0120restaurant": 6241, "\u0120NBA": 6242, "\u0120lawsuit": 6243, "\u0120Dev": 6244, "\u0120Ireland": 6245, "acle": 6246, "\u0120manufacture": 6247, "\u0120receiving": 6248, "\u0120rein": 6249, "\u0120Barack": 6250, "Then": 6251, "\u0120trib": 6252, "\u0120totally": 6253, "\u0120Only": 6254, "\u0120discussed": 6255, "\u0120sought": 6256, "\u0120rising": 6257, "\u0120entered": 6258, "\u0120ISIS": 6259, "\u0120Board": 6260, "\u0120300": 6261, "\u0120consistent": 6262, "\u0120historical": 6263, "twitter": 6264, "ideo": 6265, "\u0120storage": 6266, "\u0120correspond": 6267, "\u0120plane": 6268, "\u0120combination": 6269, "\u0120scored": 6270, "\u0120input": 6271, "\u0120symbol": 6272, "\u0120bright": 6273, "\u0120button": 6274, "irds": 6275, "\u0120succeed": 6276, "stood": 6277, "\u0120creative": 6278, "\u0120investors": 6279, "\u0120square": 6280, "\u0120articles": 6281, "\u01202002": 6282, "\u0120island": 6283, "\u0120deaths": 6284, "\u0120scr": 6285, "\u0120functions": 6286, "\u0120networks": 6287, "\u0120classes": 6288, "\u0120unlikely": 6289, "alty": 6290, "\u0120Prem": 6291, "\u0120heads": 6292, "\u0120boss": 6293, "ician": 6294, "\u0120native": 6295, "icious": 6296, "\u0120lie": 6297, "\u0120sav": 6298, "\u0120Lib": 6299, "\u0120roughly": 6300, "\u0120consumer": 6301, "\u0120Str": 6302, "\u0120Whe": 6303, "\u0120Walk": 6304, "fortunately": 6305, "\u0120Ms": 6306, "\u0120string": 6307, "\u0120Maybe": 6308, "\u0120heavily": 6309, "\u0120Another": 6310, "\u0120fairly": 6311, "\u0120temperature": 6312, "arden": 6313, "\u0120kit": 6314, "\u0120existence": 6315, "\u0120Its": 6316, "\u0120Asia": 6317, "\u0120contest": 6318, "\u0120plot": 6319, "issions": 6320, "\u0120Cub": 6321, "\u0120resident": 6322, "usal": 6323, "\u0120targets": 6324, "\u0120Bob": 6325, "\u0120resc": 6326, "\u0120Korean": 6327, "ican": 6328, "duc": 6329, "\u0120lock": 6330, "\u0120younger": 6331, "\u0120colleagues": 6332, "',": 6333, "\u0120Swed": 6334, "PU": 6335, "abb": 6336, "\u0120library": 6337, "\u00c3\u00b6": 6338, "\u0120rally": 6339, "\u0120parliament": 6340, "\u0120protests": 6341, "\u0120anywhere": 6342, "oked": 6343, "\u0120Sports": 6344, "\u0120Sky": 6345, "\u0120bike": 6346, "zona": 6347, "\u0120breaking": 6348, "\u0120sym": 6349, "\u0120stores": 6350, "\u0120expression": 6351, "\u0120waste": 6352, "\u0120chain": 6353, "\u0120blow": 6354, "\u0120warning": 6355, "\u0120importance": 6356, "\u0120defined": 6357, "\u0120buying": 6358, "\u0120manage": 6359, "\u0120prohib": 6360, "ii": 6361, "\u0120classic": 6362, "\u0120cere": 6363, "\u0120snow": 6364, "\u0120adults": 6365, "\u0120illust": 6366, "\u0120Each": 6367, "See": 6368, "Ob": 6369, "\u0120marketing": 6370, "\u0120links": 6371, "\u00c3\u00b3": 6372, "born": 6373, "\u0120shif": 6374, "iques": 6375, "andal": 6376, "\u0120Club": 6377, "\u0120tow": 6378, "\u0120Hist": 6379, "\u0120fraud": 6380, "OC": 6381, "dis": 6382, "\u0120facility": 6383, "ollywood": 6384, "erences": 6385, "\u0120hardware": 6386, "\u0120schol": 6387, "\u0120allegedly": 6388, "\u012037": 6389, "\u0120regulations": 6390, "pret": 6391, "\u0120doctors": 6392, "\u0120bon": 6393, "\u0120Colorado": 6394, "\u0120currency": 6395, "\u0120household": 6396, "\u0120replaced": 6397, "\u0120essential": 6398, "\u0120Ram": 6399, "agan": 6400, "Man": 6401, "\u0120empt": 6402, "opy": 6403, "onna": 6404, "\u0120somewhat": 6405, "\u0120Div": 6406, "press": 6407, "86": 6408, "\u0120nav": 6409, "power": 6410, "\u0120favour": 6411, "\u0120promise": 6412, "\u0120DC": 6413, "\u0120Boy": 6414, "\u0120laugh": 6415, "Pol": 6416, "\u0120Rights": 6417, "ena": 6418, "\u0120holds": 6419, "\u0120opposite": 6420, "ocket": 6421, "\u0120tom": 6422, "\u00d1\u0123": 6423, "\u0120moments": 6424, "west": 6425, "\u0120hat": 6426, "tering": 6427, "\u0120opponent": 6428, "\u0120bug": 6429, "\u0120Far": 6430, "cho": 6431, "\u0120campus": 6432, "\u0120acts": 6433, "\u0120rum": 6434, "etroit": 6435, "\u0120versions": 6436, "\u0120motion": 6437, "\u0120metal": 6438, "hips": 6439, "\u0120evolution": 6440, "ometimes": 6441, "\u0120vice": 6442, "\u0120relevant": 6443, "\u0120sees": 6444, "\u0120Image": 6445, "\u0120bag": 6446, "\u0120industrial": 6447, "\u0120zero": 6448, "IR": 6449, "\u0120sick": 6450, "\u0120downt": 6451, "oma": 6452, "\u0120closely": 6453, "hetic": 6454, "\u0120emotional": 6455, "chen": 6456, "game": 6457, "IF": 6458, "\u0120YouTube": 6459, "\u0120Year": 6460, "\u0120fewer": 6461, "\u0120division": 6462, "olve": 6463, "\u0120adm": 6464, "va": 6465, "\u0120harder": 6466, "\u0120customer": 6467, "\u0120hoping": 6468, "ologist": 6469, "\u0120Brook": 6470, "Donald": 6471, "\u0120Valley": 6472, "En": 6473, "\u0120hur": 6474, "\u0120mechanism": 6475, "ittle": 6476, "inem": 6477, "\u0120Gra": 6478, "\u0120Houston": 6479, "ml": 6480, "\u0120Elect": 6481, "\u0120returns": 6482, "NC": 6483, "atell": 6484, "\u0120volunte": 6485, "\u0120participants": 6486, "\u0120extent": 6487, "\u0120intention": 6488, "esc": 6489, "alian": 6490, "ellect": 6491, "\u0120excellent": 6492, "\u0120Soviet": 6493, "\u0120acknowled": 6494, "\u0120syn": 6495, "ulous": 6496, "oming": 6497, "\u0120Mot": 6498, "\u0120batt": 6499, "\u0120Games": 6500, "\u0120squad": 6501, "\u0120circumstances": 6502, "pan": 6503, "\u0120fashion": 6504, "\u0120isol": 6505, "\u00c3\u00bc": 6506, "otal": 6507, "greg": 6508, "\u0120immediate": 6509, "\u0120Eric": 6510, "\u0120suffering": 6511, "\u0120Watch": 6512, "str": 6513, "\u0120lies": 6514, "\u0120tiny": 6515, "\u0120authors": 6516, "\u012038": 6517, "\u0120grown": 6518, "iger": 6519, "\u0120Gar": 6520, "ora": 6521, "po": 6522, "efully": 6523, "\u0120immigrants": 6524, "\u00c3\u0125": 6525, "print": 6526, "\u0120kinds": 6527, "utch": 6528, "\u012049": 6529, "\u0120Die": 6530, "\u0120cheap": 6531, "\u0120mine": 6532, "\u0120detailed": 6533, "\u0120Hel": 6534, "ordan": 6535, "name": 6536, "\u0120featured": 6537, "iki": 6538, "ayers": 6539, "\u0120meat": 6540, "\u0120Sar": 6541, "\u0120unus": 6542, "\u0120Aut": 6543, "\u0120IP": 6544, "\u0120competitive": 6545, "\u0120describe": 6546, "\u0120formed": 6547, "\u0120Home": 6548, "nic": 6549, "friend": 6550, "certain": 6551, "\u0120carrying": 6552, "\u0120tournament": 6553, "\u0120trick": 6554, "nam": 6555, "\u0120relationships": 6556, "\u0120fundamental": 6557, "kel": 6558, "\u0120wave": 6559, "\u0120cycle": 6560, "\u0120crazy": 6561, "\u0120Cy": 6562, "\u0120signing": 6563, "\u0120Way": 6564, "\u0120termin": 6565, "\u0120guide": 6566, "\u0120wins": 6567, "\u0120Catholic": 6568, "\u0120earned": 6569, "\u0120decline": 6570, "\u0120regional": 6571, "ensus": 6572, "style": 6573, "\u0120embr": 6574, "\u0120strange": 6575, "\u0120Palestinian": 6576, "\u0120Jesus": 6577, "\u0120Ann": 6578, "bar": 6579, "\u0120Long": 6580, "\u0120ancient": 6581, "\u0120frequently": 6582, "\u0120acting": 6583, "\u0120Putin": 6584, "\u0120manner": 6585, "\u0120efficient": 6586, "rome": 6587, "\u0120pushing": 6588, "\u0120CIA": 6589, "\u0120comfortable": 6590, "\u0120Card": 6591, "\u0120pip": 6592, "\u0120Er": 6593, "ORE": 6594, "Per": 6595, "\u0120sharing": 6596, "\u0120wire": 6597, "\u0120skill": 6598, "\u0120Econom": 6599, "ockey": 6600, "chers": 6601, "\u0120instru": 6602, "\u0120Ell": 6603, "\u0120owned": 6604, "awa": 6605, "\u0120commitment": 6606, "\u0120alongside": 6607, "\u0120OF": 6608, "uated": 6609, "\u0120Lord": 6610, "anes": 6611, "\u0120Davis": 6612, "rison": 6613, "\u0120controversial": 6614, "\u0120artists": 6615, "\u0120referred": 6616, "weight": 6617, "\u0120egg": 6618, "\u0120mouth": 6619, "\u0120repeatedly": 6620, "06": 6621, "\u012048": 6622, "\u0120Top": 6623, "\u00ef\u00bf": 6624, "\u012034": 6625, "FP": 6626, "\u0120attempted": 6627, "\u0120femin": 6628, "\u00d0\u00be\u00d0": 6629, "umber": 6630, "\u0120updated": 6631, "foot": 6632, "\u0120cert": 6633, "ua": 6634, "\u0120pregn": 6635, "\u0120Old": 6636, "\u0120schedule": 6637, "xy": 6638, "\u0120PS": 6639, "amily": 6640, "adel": 6641, "\u0120dedicated": 6642, "\u0120AL": 6643, "\u0120sentence": 6644, "vin": 6645, "\u0120upcoming": 6646, "\u0120Right": 6647, "\u0120NY": 6648, "bel": 6649, "\u0120Down": 6650, "\u0120Di": 6651, "\u0120column": 6652, "hus": 6653, "\u0120depth": 6654, "09": 6655, "\u0120pled": 6656, "\u0120virtual": 6657, "uable": 6658, "\u0120journey": 6659, "\u0120struck": 6660, "\u00d1\u0122": 6661, "\u0120desk": 6662, "\u0120studio": 6663, "\u0120realized": 6664, "\u0120Energy": 6665, "Despite": 6666, "ceived": 6667, "%)": 6668, "ographic": 6669, "ugh": 6670, "\u0120medic": 6671, "DS": 6672, "iami": 6673, "\u0120serving": 6674, "\u0120walked": 6675, "rive": 6676, "iveness": 6677, "\u0120king": 6678, "\u0120ring": 6679, "ko": 6680, "\u0120reput": 6681, "you": 6682, "\u0120urban": 6683, "phy": 6684, "\u0120Cle": 6685, "\u0120Charles": 6686, "\u0120Wild": 6687, "\u0120targeted": 6688, "\u0120channel": 6689, "\u0120assets": 6690, "luding": 6691, "\u0120tort": 6692, "\u0120inspired": 6693, "\u0120hotel": 6694, "\u0120Arizona": 6695, "08": 6696, "\u0120posts": 6697, "\u0120newslet": 6698, "Like": 6699, "Two": 6700, "\u0120Supp": 6701, "\u0120universe": 6702, "07": 6703, "\u0120agenda": 6704, "\u0120causing": 6705, "\u0120watched": 6706, "\u0120suicide": 6707, "\u0120stream": 6708, "\u0120overwhel": 6709, "\u0120Py": 6710, "\u0120Men": 6711, "\u0120usual": 6712, "\u0120surveillance": 6713, "mem": 6714, "\u0120intent": 6715, "sole": 6716, "People": 6717, "\u0120liqu": 6718, "\u0120sister": 6719, "\u0120opponents": 6720, "\u0120chairman": 6721, "\u0120du": 6722, "\u0120Wars": 6723, "\u0120Cruz": 6724, "\u0120mainstream": 6725, "\u0120latter": 6726, "\u0120hall": 6727, "\u0120surrounding": 6728, "\u0120folks": 6729, "\u0120knowing": 6730, "\u0120orders": 6731, "\u0120Inf": 6732, "omin": 6733, "igg": 6734, "\u0120remote": 6735, "\u012075": 6736, "\u0120sand": 6737, "\u0120literally": 6738, "\u0120Java": 6739, "\u0120observed": 6740, "\u0120Again": 6741, "\u0120subsid": 6742, "gor": 6743, "Fr": 6744, "\u0120Defense": 6745, "\u0120infl": 6746, "obb": 6747, "\u0120Van": 6748, "\u0120approval": 6749, "acc": 6750, "iments": 6751, "\u0120basket": 6752, "rence": 6753, "\u0120teachers": 6754, "azi": 6755, "avor": 6756, "izz": 6757, "\u0120winter": 6758, "iciency": 6759, "alle": 6760, "\u0120exciting": 6761, "aze": 6762, "aylor": 6763, "\u0120Tal": 6764, "\u0120format": 6765, "boy": 6766, "\u0120congress": 6767, "\u0120protected": 6768, "iro": 6769, "ati": 6770, "\u0120noticed": 6771, "\u0120simpl": 6772, "\u0120dealing": 6773, "\u0120Young": 6774, "rations": 6775, "\u0120Child": 6776, "\u0120precise": 6777, "67": 6778, "xual": 6779, "\u0120deeply": 6780, "\u0120communication": 6781, "\u0120gang": 6782, "\u0120sending": 6783, "ipl": 6784, "\u0120forth": 6785, "\u0120Jr": 6786, "\u0120fasc": 6787, "\u0120battery": 6788, "\u0120wal": 6789, "mun": 6790, "\u0120sky": 6791, "\u0120narr": 6792, "\u0120fixed": 6793, "post": 6794, "\u0120aside": 6795, "\u0120requirements": 6796, "abis": 6797, "ums": 6798, "Int": 6799, "\u0120properties": 6800, "rors": 6801, "\u0120alive": 6802, "\u0120narrow": 6803, "\u0120wake": 6804, "allas": 6805, "\u0120passion": 6806, "\u0120Arch": 6807, "onymous": 6808, "\u0120eating": 6809, "Or": 6810, "ensity": 6811, "\u0120mistake": 6812, "woman": 6813, "\u0120explore": 6814, "\u0120coffee": 6815, "\u01201970": 6816, "\u0120Pan": 6817, "\u0120rape": 6818, "\u0120volume": 6819, "\u0120promised": 6820, "\u0120diet": 6821, "acking": 6822, "\u0120risks": 6823, "\u0120exhib": 6824, "\u0120Polit": 6825, "\u0120Fort": 6826, "\u0120sweet": 6827, "May": 6828, "\u00e2\u0122\u013b.": 6829, "\u0120Enter": 6830, "\u0120Wat": 6831, "\u0120neut": 6832, "\u0120involving": 6833, "\u0120wage": 6834, "\u0120selection": 6835, "\u0120Max": 6836, "\u0120tested": 6837, "ether": 6838, "\u0120flu": 6839, "ulture": 6840, "\u0120defeat": 6841, "\u0120northern": 6842, "\u0120reward": 6843, "\u0120welcome": 6844, "\u0120Cast": 6845, "\u0120extended": 6846, "\u0120puts": 6847, "\u0120territory": 6848, "\u0120phenomen": 6849, "\u0120unemploy": 6850, "\u0120refugees": 6851, "\u0120sample": 6852, "\u0120height": 6853, "\u0120approximately": 6854, "\u0120Kevin": 6855, "\u0120blame": 6856, "\u0120Brad": 6857, "\u0120anyway": 6858, "59": 6859, "\u0120Detroit": 6860, "\u0120destroyed": 6861, "obile": 6862, "\u0120sho": 6863, "\u0120impressive": 6864, "\u0120Stephen": 6865, "asks": 6866, "\u0120proof": 6867, "\u0120gap": 6868, "\u0120dry": 6869, "\u00ef\u00bf\u00bd": 6870, "\u0120crash": 6871, "\u0120unknown": 6872, "\u0120locations": 6873, "\u0120selected": 6874, "apse": 6875, "\u0120west": 6876, "anges": 6877, "gery": 6878, "stone": 6879, "\u0120Fil": 6880, "\u0120attacked": 6881, "aire": 6882, "\u0120maximum": 6883, "\u0120Miller": 6884, "\u0120Wilson": 6885, "\u0120Tit": 6886, "\u0120promote": 6887, "\u0120shel": 6888, "aser": 6889, "\u0120merely": 6890, "\u0120franchise": 6891, "arry": 6892, "04": 6893, "lv": 6894, "\u0120requests": 6895, "\u0120retire": 6896, "\u0120suddenly": 6897, "\u0120slowly": 6898, "\u0120protesters": 6899, "\u0120disag": 6900, "\u0120teacher": 6901, "ixt": 6902, "\u0120typical": 6903, "ogan": 6904, "dro": 6905, "\u0120Women": 6906, "\u0120Ins": 6907, "ingu": 6908, "\u0120conver": 6909, "list": 6910, "\u0120chose": 6911, "ao": 6912, "\u0120Camer": 6913, "\u0120Class": 6914, "\u0120Lu": 6915, "\u0120matches": 6916, "\u0120prote": 6917, "\u0120license": 6918, "\u0120properly": 6919, "\u0120assume": 6920, "oration": 6921, "\u0120discover": 6922, "\u0120wid": 6923, "\u0120PR": 6924, "Rel": 6925, "\u0120Mic": 6926, "\u0120worried": 6927, "\u0120moder": 6928, "fire": 6929, "\u0120abortion": 6930, "owered": 6931, "\u0120allies": 6932, "\u0120oblig": 6933, "\u0120terrorism": 6934, "\u0120supports": 6935, "\u0120\u00ce": 6936, "uilding": 6937, "\u00c3\u0125\u00c3\u0124": 6938, "inson": 6939, "verty": 6940, "\u0120arguments": 6941, "\u0120adapt": 6942, "\u0120theme": 6943, "\u0120confront": 6944, "\u0120facilities": 6945, "\u0120sustain": 6946, "gender": 6947, "\u0120east": 6948, "\u0120pal": 6949, "\u0120recognize": 6950, "igure": 6951, "\u0120fuck": 6952, "\u00c3\u0124\u00c3\u0125\u00c3\u0124": 6953, "\u00c3\u0125\u00c3\u0124\u00c3\u0125": 6954, "lies": 6955, "\u0120equival": 6956, "\u0120obtained": 6957, "\u0120poverty": 6958, "\u0120rub": 6959, "\u0120Italy": 6960, "\u0120nomine": 6961, "03": 6962, "\u0120deals": 6963, "\u0120fees": 6964, "alo": 6965, "itarian": 6966, "osis": 6967, "\u0120Hollywood": 6968, "\u0120understood": 6969, "\u0120controlled": 6970, "VER": 6971, "\u0120Best": 6972, "\u0120topic": 6973, "\u0120Dam": 6974, "\u0120critics": 6975, "\u0120Society": 6976, "\u0120Agency": 6977, "axy": 6978, "\u0120Ford": 6979, "\u0120sole": 6980, "\u0120Jersey": 6981, "arity": 6982, "\u0120village": 6983, "han": 6984, "\u0120diagn": 6985, "\u0120Administ": 6986, "raid": 6987, "\u0120likes": 6988, "celer": 6989, "\u0120Four": 6990, "sters": 6991, "68": 6992, "\u0120evil": 6993, "Te": 6994, "\u0120punish": 6995, "\u0120dress": 6996, "cript": 6997, "\u0120Georgia": 6998, "\u0120bunch": 6999, "\u0120Company": 7000, "\u0120journalists": 7001, "John": 7002, "\u0120exposed": 7003, "\u0120ped": 7004, "\u0120regions": 7005, "redit": 7006, "ocation": 7007, "\u0120communications": 7008, "\u0120scheme": 7009, "\u0120transp": 7010, "\u0120stim": 7011, "\u0120limits": 7012, "\u0120somehow": 7013, "\u0120strongly": 7014, "\u0120honor": 7015, "\u0120drag": 7016, "aug": 7017, "\u0120resistance": 7018, "lls": 7019, "\u0120champion": 7020, "\u0120Carl": 7021, "\u0120Labor": 7022, "\u0120constant": 7023, "\u0120phase": 7024, "\u0120NASA": 7025, "asts": 7026, "pool": 7027, "\u0120profit": 7028, "\u0120truck": 7029, "\u0120condem": 7030, "\u0120escape": 7031, "\u0120personally": 7032, "\u0120Night": 7033, "\u0120Dun": 7034, "rimination": 7035, "\u0120Land": 7036, "\u0120bid": 7037, "\u0120NHL": 7038, "\u0120Stand": 7039, "\u0120vacc": 7040, "\u0120deck": 7041, "\u00d0\u00bd": 7042, "nesota": 7043, "iform": 7044, "\u0120falling": 7045, "mo": 7046, "GBT": 7047, "\u0120Network": 7048, "\u0120somewhere": 7049, "cers": 7050, "\u0120employee": 7051, "\u0120harass": 7052, "ems": 7053, "ads": 7054, "CA": 7055, "\u0120bear": 7056, "\u0120CD": 7057, "iner": 7058, "\u0120comparison": 7059, "orted": 7060, "ciples": 7061, "\u0120polls": 7062, "owa": 7063, "\u0120inqu": 7064, "\u0120Love": 7065, "pected": 7066, "\u0120southern": 7067, "\u0120decent": 7068, "oric": 7069, "cow": 7070, "\u0120Spanish": 7071, "\u0120encourage": 7072, "\u0120emissions": 7073, "\u012039": 7074, "\u0120View": 7075, "\u0120Cam": 7076, "enders": 7077, "\u0120empty": 7078, "\u0120Miami": 7079, "\u0120hits": 7080, "oster": 7081, "\u0120definition": 7082, "\u0120Kn": 7083, "\u0120pic": 7084, "wan": 7085, "\u0120directed": 7086, "pes": 7087, "\u0120flex": 7088, "zens": 7089, "\u0120Ok": 7090, "57": 7091, "\u0120meetings": 7092, "\u0120End": 7093, "\u0120Bell": 7094, "\u0120comprom": 7095, "\u0120winner": 7096, "intend": 7097, "aun": 7098, "icken": 7099, "\u0120gotten": 7100, "\u0120Daniel": 7101, "\u0120Turk": 7102, "\u0120electricity": 7103, "\u0120chosen": 7104, "\u0120officially": 7105, "\u0120bench": 7106, "\u0120stretch": 7107, "\u0120database": 7108, "\u0120Despite": 7109, "\u0120spin": 7110, "\u0120intellect": 7111, "igation": 7112, "\u0120stronger": 7113, "\u0120deleg": 7114, "\u0120purposes": 7115, "\u0120DNA": 7116, "Com": 7117, "\u0120cutting": 7118, "\u0120Turn": 7119, "\u0120fold": 7120, "rary": 7121, "\u0120extensive": 7122, "\u0120amounts": 7123, "\u0120desper": 7124, "\u0120trees": 7125, "\u0120anx": 7126, "\u0120ideal": 7127, "\u0120Asian": 7128, "\u0120thread": 7129, "\u0120fifth": 7130, "\u012a\u0134": 7131, "UR": 7132, "\u0120goods": 7133, "\u0120colon": 7134, "\u0120developer": 7135, "\u0120claiming": 7136, "unning": 7137, "Any": 7138, "\u0120retain": 7139, "\u0120soul": 7140, "\u0120captured": 7141, "\u0120Though": 7142, "\u0120finds": 7143, "\u0120driven": 7144, "\u0120payments": 7145, "asters": 7146, "ras": 7147, "CS": 7148, "\u0120ties": 7149, "\u0120Jordan": 7150, "\u0120reasonable": 7151, "olt": 7152, "\u0120dogs": 7153, "\u00e2\u0138": 7154, "\u0120somebody": 7155, "\u0120ending": 7156, "02": 7157, "\u0120Nations": 7158, "\u0120choices": 7159, "\u0120ble": 7160, "\u0120pod": 7161, "\u0120seats": 7162, "\u0120Services": 7163, "\u0120Thank": 7164, "\u0120engage": 7165, "\u0120drawn": 7166, "\u0120sight": 7167, "\u0120param": 7168, "\u0120Dar": 7169, "CE": 7170, "\u0120threatened": 7171, "\u0120ruled": 7172, "\u0120Attorney": 7173, "eping": 7174, "\u0120Irish": 7175, "\u0120Sea": 7176, "\u0120trading": 7177, "owed": 7178, "\u0120primarily": 7179, "ura": 7180, "\u0120aspects": 7181, "\u0120fighters": 7182, "ML": 7183, "\u0120answers": 7184, "\u0120perfectly": 7185, "irms": 7186, "\u0120incl": 7187, "\u0120Academ": 7188, "\u0120rival": 7189, "\u0120parking": 7190, "\u0120rejected": 7191, "\u0120Gall": 7192, "\u0120constantly": 7193, "Add": 7194, "fast": 7195, "\u0120Hun": 7196, "\u0120payment": 7197, "\u0120Cat": 7198, "\u0120distinct": 7199, "\u0120flying": 7200, "\u0120Ut": 7201, "\u0120rig": 7202, "\u0120technologies": 7203, "mod": 7204, "\u0120Real": 7205, "\u0120components": 7206, "Police": 7207, "\u0120admit": 7208, "\u0120Scotland": 7209, "\u0120elsewhere": 7210, "\u0120Dark": 7211, "dit": 7212, "\u0120constit": 7213, "\u0120anymore": 7214, "lder": 7215, "\u0120icon": 7216, "\u0120fields": 7217, "\u0120estimates": 7218, "EW": 7219, "sea": 7220, "\u0120solutions": 7221, "\u0120resulting": 7222, "ez": 7223, "78": 7224, "\u0120Bru": 7225, "urb": 7226, "\u0120awesome": 7227, "\u0120encoun": 7228, "\u0120province": 7229, "sm": 7230, "\u0120worldwide": 7231, "\u0120actor": 7232, "\u0120regularly": 7233, "\u0120Moore": 7234, "\u0120courts": 7235, "\u0120narrative": 7236, "Once": 7237, "\u0120boot": 7238, "\u0120enemies": 7239, "\u0120mixed": 7240, "300": 7241, "regon": 7242, "\u0120OS": 7243, "\u0120Disney": 7244, "icer": 7245, "\u0120houses": 7246, "\u0120nobody": 7247, "\u0120Sk": 7248, "inations": 7249, "\u0120controls": 7250, "\u0120Water": 7251, "\u0120letters": 7252, "apes": 7253, "agram": 7254, "imp": 7255, "iana": 7256, "\u012042": 7257, "\u0120mayor": 7258, "\u0120loan": 7259, "\u0120murd": 7260, "\u0120outcome": 7261, "\u0120MS": 7262, "\u0120contem": 7263, "sell": 7264, "Sec": 7265, "vy": 7266, "odd": 7267, "ship": 7268, "\u0120Light": 7269, "onic": 7270, "isan": 7271, "\u0120apartment": 7272, "\u0120Steven": 7273, "\u0120coalition": 7274, "\u0120contributed": 7275, "\u0120Bas": 7276, "\u0120tank": 7277, "\u0120concluded": 7278, "\u0120Adam": 7279, "\u0120Tw": 7280, "\u0120exists": 7281, "\u0120founder": 7282, "\u0120Brian": 7283, "earing": 7284, "\u0120Lew": 7285, "\u0120atmosphere": 7286, "\u0120profile": 7287, "\u0120brew": 7288, "\u0120situations": 7289, "\u0120Championship": 7290, "\u0120Author": 7291, "rates": 7292, "\u0120incredible": 7293, "\u0120Constitution": 7294, "\u0120signal": 7295, "otes": 7296, "\u0120Rog": 7297, "\u0120accurate": 7298, "ker": 7299, "\u0120Victor": 7300, "otten": 7301, "\u0120unp": 7302, "\u0120Where": 7303, "\u0120Southern": 7304, ".\"[": 7305, "\u0120employment": 7306, "\u0120clients": 7307, "Dr": 7308, "\u0120keeps": 7309, "inity": 7310, "\u0120informed": 7311, "\u0120continuing": 7312, "\u0120baseball": 7313, "\u0120generate": 7314, "\u0120ticket": 7315, "\u0120conven": 7316, "Also": 7317, "\u0120Conf": 7318, "\u0120weird": 7319, "\u0120tied": 7320, "lock": 7321, "adelph": 7322, "\u0120category": 7323, "\u0120infect": 7324, "ilarly": 7325, "acked": 7326, "\u0120angry": 7327, "\u0120Organ": 7328, "\u0120routine": 7329, "aron": 7330, "\u0120kil": 7331, "\u0120raising": 7332, "ifer": 7333, "\u0120machines": 7334, "\u0120registered": 7335, "there": 7336, "\u0120proved": 7337, "\u0120demands": 7338, "\u0120gaming": 7339, "\u0120Italian": 7340, "\u0120incredibly": 7341, "\u0120crucial": 7342, "\u0120stuck": 7343, "\u0120Civil": 7344, "\u0120Dallas": 7345, "\u0120terrible": 7346, "MP": 7347, "cr": 7348, "\u0120feedback": 7349, "\u0120upper": 7350, "\u0120plastic": 7351, "\u0120imper": 7352, "\u0120newly": 7353, "\u0120Joseph": 7354, "\u0120consumption": 7355, "\u0120dozen": 7356, "\u0120enthus": 7357, "\u0120estate": 7358, "ali": 7359, "rage": 7360, "56": 7361, "\u0120innoc": 7362, "\u0120manip": 7363, "\u0120Tem": 7364, "\u0120conscious": 7365, "\u0120bills": 7366, "\u0120Cross": 7367, "\u0120Spain": 7368, "ifications": 7369, "Today": 7370, "\u0120writers": 7371, "\u0120excess": 7372, "inding": 7373, "\u0120aggressive": 7374, "\u0120reporter": 7375, "\u0120compens": 7376, "\u0120returning": 7377, "\u0120stead": 7378, "\u0120programming": 7379, "\u0120Thanks": 7380, "\u0120represented": 7381, "\u0120conclusion": 7382, "98": 7383, "\u0120rus": 7384, "\u0120Bowl": 7385, "MS": 7386, "\u0120AR": 7387, "\u0120origin": 7388, "\u0120assistant": 7389, "adelphia": 7390, "\u0120roster": 7391, "\u0120Minnesota": 7392, "\u0120organized": 7393, "ria": 7394, "\u0120penalty": 7395, "\u0120drinking": 7396, "lers": 7397, "\u0120paint": 7398, "\u0120satell": 7399, "\u0120gro": 7400, "\u0120Program": 7401, "\u0120capture": 7402, "\u0120conspir": 7403, "\u0120interpret": 7404, "\u0120explanation": 7405, "iscal": 7406, "eme": 7407, "\u0120county": 7408, "iscons": 7409, "essed": 7410, "mont": 7411, "\u0120%": 7412, "anny": 7413, "gorith": 7414, "emen": 7415, "isconsin": 7416, "\u0120assistance": 7417, "\u0120Roman": 7418, "58": 7419, "\u0120complaint": 7420, "ima": 7421, "\u0120ru": 7422, "\u0120nut": 7423, "\u0120magic": 7424, "\u0120tall": 7425, "\u0120Oper": 7426, "\u0120granted": 7427, "Because": 7428, "\u0120Contin": 7429, "star": 7430, "LA": 7431, "Off": 7432, "\u0120Parliament": 7433, "\u0120complicated": 7434, "\u0120audio": 7435, "\u0120chances": 7436, "\u0120extract": 7437, "bal": 7438, "rypt": 7439, "era": 7440, "\u0120Gi": 7441, "\u01201999": 7442, "\u0120hel": 7443, "\u0120Educ": 7444, "\u0120shares": 7445, "\u0120successfully": 7446, "esy": 7447, "\u0120IT": 7448, "\u0120pilot": 7449, "zy": 7450, "\u0120Ep": 7451, "\u0120Hot": 7452, "\u0120myth": 7453, "\u012000": 7454, "\u0120recovery": 7455, "\u0120Test": 7456, "\u0120techniques": 7457, "\u0120iron": 7458, "\u0120Care": 7459, "\u0120Zeal": 7460, "\u0120SC": 7461, "\u0120scenes": 7462, "\u0120veteran": 7463, "\u0120Fre": 7464, "\u0120Win": 7465, "\u0120($": 7466, "\u0120degrees": 7467, "actions": 7468, "\u0120sympt": 7469, "thew": 7470, "\u0120lawmakers": 7471, "ked": 7472, "\u0120western": 7473, "\u0120operate": 7474, "\u0120ads": 7475, "rating": 7476, "\u0120habit": 7477, "\u0120aimed": 7478, "Inst": 7479, "anchester": 7480, "\u0120phr": 7481, "rep": 7482, "rete": 7483, "\u0120taste": 7484, "idency": 7485, "\u0120engaged": 7486, "\u0120privile": 7487, "\u012055": 7488, "\u0120rating": 7489, "\u0120teaching": 7490, "\u0120academic": 7491, "\u0120Os": 7492, "\u0120therap": 7493, "\u0120passes": 7494, "\u0120dollar": 7495, "hent": 7496, "\u0120automatically": 7497, "itar": 7498, "\u0120Pacific": 7499, "\u0120monit": 7500, "\u0120blocks": 7501, "abama": 7502, "\u0120attended": 7503, "\u0120permanent": 7504, "\u0120survive": 7505, "\u0120anticip": 7506, "\u0120extrem": 7507, "\u0120enable": 7508, "\u0120Look": 7509, "\u0120Foreign": 7510, "chain": 7511, "%.": 7512, "\u0120marked": 7513, "itals": 7514, "\u0120hidden": 7515, "\u0120accomp": 7516, "\u0120titles": 7517, "\u0120Senator": 7518, "\u0120NBC": 7519, "\u0120taught": 7520, "\u0120Linux": 7521, "\u0120bom": 7522, "uan": 7523, "\u0120index": 7524, "everal": 7525, "\u0120elite": 7526, "ibilities": 7527, "from": 7528, "\u0120lawyers": 7529, "\u0120depending": 7530, "\u0120valuable": 7531, "\u0120installed": 7532, "\u0120championship": 7533, "\u0120root": 7534, "\u0120compre": 7535, "\u0120Bull": 7536, "\u0120downtown": 7537, "aed": 7538, "mal": 7539, "\u0120equivalent": 7540, "\u0120solve": 7541, "rific": 7542, "\u0120duty": 7543, "\u0120Special": 7544, "\u0120Business": 7545, "\u012064": 7546, "\u0120pace": 7547, "HS": 7548, "\u0120reputation": 7549, "\u0120uncertain": 7550, "\u0120phones": 7551, "uine": 7552, "\u0120overse": 7553, "\u0120Taylor": 7554, "\u0120personnel": 7555, "\u0120pin": 7556, "reams": 7557, "aturally": 7558, "\u0120sufficient": 7559, "\u0120visited": 7560, "\u0120warming": 7561, "\u0120Sn": 7562, "\u0120principles": 7563, "\u0120vulnerable": 7564, "\u0120enjoyed": 7565, "\u0120fake": 7566, "\u0120Nick": 7567, "\u0120advis": 7568, "\u0120negotiations": 7569, "inder": 7570, "\u0120generated": 7571, "\u0120exposure": 7572, "\u0120recording": 7573, "bro": 7574, "\u0120collected": 7575, "\u0120regardless": 7576, "\u0120dict": 7577, "EA": 7578, "\u0120elev": 7579, "\u0120bitcoin": 7580, "\u00e3\u0122": 7581, "active": 7582, "\u0120Kelly": 7583, "\u0120Anth": 7584, "\u0120cup": 7585, "\u0120patterns": 7586, "Getty": 7587, "\u0120Take": 7588, "))": 7589, "\u0120Avenue": 7590, "\u0120Josh": 7591, "\u0120disaster": 7592, "\u0120cable": 7593, "\u012065": 7594, "\u0120chat": 7595, "\u0120worker": 7596, "\u0120mainly": 7597, "\u0120racial": 7598, "quarters": 7599, "\u0120Coast": 7600, "\u0120Viet": 7601, "month": 7602, "\u0120pounds": 7603, "\u0120150": 7604, "\u0120Call": 7605, "\u0120portion": 7606, "\u0120afraid": 7607, "\u0120inspir": 7608, "\u0120Ah": 7609, "\u0120bes": 7610, "\u0120defence": 7611, "\u0120Eastern": 7612, "\u0120Tony": 7613, "\u0120tracks": 7614, "\u0120busy": 7615, "\u0120grant": 7616, "\u0120shit": 7617, "\u0120intense": 7618, "\u0120Series": 7619, "\u0120LGBT": 7620, "orne": 7621, "\u0120Still": 7622, "mann": 7623, "athy": 7624, "\u0120funny": 7625, "\u0120apolog": 7626, "\u0120surgery": 7627, "\u0120Moscow": 7628, "\u0120Coll": 7629, "\u0120possession": 7630, "\u0120prominent": 7631, "\u0120Mars": 7632, "\u0120comic": 7633, "\u0120Ger": 7634, "ashes": 7635, "97": 7636, "ules": 7637, "\u0120Ray": 7638, "\u0120thin": 7639, "\u0120engineering": 7640, "\u0120troub": 7641, "\u0120Kurd": 7642, "this": 7643, "\u0120processes": 7644, "\u0120Nation": 7645, "fall": 7646, "\u0120Kent": 7647, "\u0120Come": 7648, "\u0120entit": 7649, "\u0120\u00e2\u0122\u013b": 7650, "\u0120unusual": 7651, "raph": 7652, "etary": 7653, "\u0120describes": 7654, "da": 7655, "world": 7656, "96": 7657, "\u0120resulted": 7658, "\u0120dim": 7659, "\u0120emerged": 7660, "\u0120taxp": 7661, "\u0120gall": 7662, "iler": 7663, "\u0120400": 7664, "\u0120propag": 7665, "\u0120Iowa": 7666, "\u0120Oregon": 7667, "\u0120coordin": 7668, "\u0120corruption": 7669, "\u0120stations": 7670, "\u0120Invest": 7671, "ye": 7672, "\u0120fought": 7673, "\u0120AD": 7674, "\u0120brut": 7675, "\u0120extension": 7676, "ref": 7677, "\u0120blind": 7678, "\u0120adopted": 7679, "prise": 7680, "\u0120compete": 7681, "\u0120recru": 7682, "\u0120Zealand": 7683, "\u0120hadn": 7684, "Pr": 7685, "\u0120mail": 7686, "\u0120everywhere": 7687, "\u0120Balt": 7688, "\u0120crypt": 7689, "Rec": 7690, "Col": 7691, "Mean": 7692, "herent": 7693, "icate": 7694, "\u0120Ali": 7695, "\u0120contracts": 7696, "front": 7697, "\u0120Lo": 7698, "\u0120neuro": 7699, "\u0120Dead": 7700, "\u0120Rick": 7701, "\u0120feelings": 7702, "\u0120firms": 7703, "idelines": 7704, "\u00e2\u0122\u013b,": 7705, "\u0120minority": 7706, "\u0120spr": 7707, "cles": 7708, "HA": 7709, "\u0120advertising": 7710, "\u0120rarely": 7711, "\u0120discipl": 7712, "making": 7713, "\u0120Northern": 7714, "\u0120sanctions": 7715, "\u0120Veg": 7716, "scape": 7717, "\u0120Philadelphia": 7718, "upid": 7719, "\u0120cameras": 7720, "\u0120explicit": 7721, "\u0120strict": 7722, "viously": 7723, "log": 7724, "\u0120enorm": 7725, "\u0120finance": 7726, "gun": 7727, "\u0120cited": 7728, "ifies": 7729, "\u0120Before": 7730, "\u0120shortly": 7731, "tes": 7732, "UL": 7733, "\u0120Policy": 7734, "\u0120expectations": 7735, "\u0120implementation": 7736, "ogen": 7737, "\u0120recip": 7738, "cling": 7739, "\u0120Greek": 7740, "\u0120thick": 7741, "\u0120thousand": 7742, "antic": 7743, "\u0120Mu": 7744, "istent": 7745, "\u0120loud": 7746, "\u0120affili": 7747, "urrent": 7748, "orough": 7749, "\u0120Navy": 7750, "\u0120inev": 7751, "rell": 7752, "cus": 7753, "\u0120photograph": 7754, "\u0120medium": 7755, "azz": 7756, "\u0120Hom": 7757, "\u0120Wisconsin": 7758, "\u0120scenario": 7759, "\u0120Food": 7760, "\u0120Live": 7761, "\u0120sup": 7762, "ilton": 7763, "\u0120plug": 7764, "\u0120veget": 7765, "\u0120ho": 7766, "\u0120visible": 7767, "LC": 7768, "\u0120lights": 7769, "\u0120creates": 7770, "\u0120priority": 7771, "\u0120ven": 7772, "\u0120bridge": 7773, "eland": 7774, "\u0120obst": 7775, "inking": 7776, "ATE": 7777, "\u0120agric": 7778, "\u0120permission": 7779, "\u0120Foot": 7780, "\u0120algorith": 7781, "izon": 7782, "Co": 7783, "elect": 7784, "\u0120participate": 7785, "aska": 7786, "\u0120wing": 7787, "who": 7788, "asion": 7789, "\u0120browser": 7790, "\u0120Global": 7791, "\u0120tag": 7792, "\u0120Ol": 7793, "\u0120Has": 7794, "\u0120mel": 7795, "\u0120acceler": 7796, "###": 8504, "\u0120dozens": 7798, "\u0120Kingdom": 7799, "\u0120historic": 7800, "\u0120computers": 7801, "\u0120laid": 7802, "\u0120basketball": 7803, "een": 7804, "\u0120losses": 7805, "text": 7806, "\u0120Saf": 7807, "\u0120Ash": 7808, "ogether": 7809, "\u0120unw": 7810, "::": 7811, "\u0120tor": 7812, "\u0120Amendment": 7813, "Mar": 7814, "\u0120strikes": 7815, "\u0120principle": 7816, "\u0120Development": 7817, "\u0120formal": 7818, "EP": 7819, "igen": 7820, "\u0120scoring": 7821, "76": 7822, "obs": 7823, "athered": 7824, "\u012044": 7825, "\u0120counsel": 7826, "found": 7827, "++": 7828, "\u0120shock": 7829, "\u0120wonderful": 7830, "\u0120SP": 7831, "\u0120behalf": 7832, "abs": 7833, "\u0120uncom": 7834, "profit": 7835, "enth": 7836, "\u0120interface": 7837, "\u0120establishment": 7838, "\u0120toler": 7839, "\u0120Henry": 7840, "\u0120Greg": 7841, "amber": 7842, "car": 7843, "\u0120Major": 7844, "\u0120Thus": 7845, "jo": 7846, "Us": 7847, "\u0120gained": 7848, "\u0120fee": 7849, "lete": 7850, "\u0120founded": 7851, "etime": 7852, "\u0120foundation": 7853, "she": 7854, "\u0120ESP": 7855, "ilipp": 7856, "\u0120clubs": 7857, "\u0120cannabis": 7858, "\u0120ju": 7859, "54": 7860, "52": 7861, "\u0120airport": 7862, "\u0120Key": 7863, "aus": 7864, "ystem": 7865, "\u0120borrow": 7866, "weet": 7867, "olis": 7868, "BO": 7869, "\u0120manufacturing": 7870, "\u0120rely": 7871, "\u0120Hit": 7872, "\u0120Pay": 7873, "uer": 7874, "\u0120Alabama": 7875, "\u0120genuine": 7876, "\u0120Royal": 7877, "rators": 7878, "Before": 7879, "\u0120component": 7880, "\u0120ridic": 7881, "osexual": 7882, "\u0120wheel": 7883, "rative": 7884, "\u0120Oak": 7885, "\u0120journalist": 7886, "\u0120relief": 7887, "\u0120saved": 7888, "bell": 7889, "51": 7890, "\u0120hole": 7891, "\u0120yield": 7892, "\u0120headed": 7893, "\u0120cyber": 7894, "\u0120Moh": 7895, "ependent": 7896, "\u0120gift": 7897, "\u0120fault": 7898, "\u0120withdraw": 7899, "Ne": 7900, "\u0120indicate": 7901, "\u0120drawing": 7902, "\u0120uniform": 7903, "umer": 7904, "\u0120Rand": 7905, "arlier": 7906, "\u0120stable": 7907, "\u0120ships": 7908, "\u0120banned": 7909, "\u0120Mid": 7910, "\u0120footage": 7911, "Meanwhile": 7912, "\u0120doors": 7913, "rous": 7914, "lan": 7915, "\u0120recognized": 7916, "\u01201960": 7917, "\u0120containing": 7918, "pread": 7919, "400": 7920, "\u0120FC": 7921, "\u0120Vis": 7922, "\u0120river": 7923, "mes": 7924, "\u0120struggling": 7925, "ami": 7926, "Sub": 7927, "ba": 7928, "\u0120spark": 7929, "\u0120Academy": 7930, "\u0120walls": 7931, "\u0120achieved": 7932, "opher": 7933, "ounced": 7934, "\u0120neighb": 7935, "\u0120plate": 7936, "\u0120edition": 7937, "\u0120HT": 7938, "portion": 7939, "mate": 7940, "\u0120movements": 7941, "\u0120deliber": 7942, "uce": 7943, "teen": 7944, "Post": 7945, "\u0120sharp": 7946, "\u0120AS": 7947, "\u0120Snow": 7948, "ulating": 7949, "\u0120stab": 7950, "\u0120Three": 7951, "\u0120episodes": 7952, "\u0120neutral": 7953, "\u0120Premier": 7954, "\u0120Ret": 7955, "\u0120Fund": 7956, "\u0120exception": 7957, "etts": 7958, "\u0120producer": 7959, "\u0120Fred": 7960, "\u0120destruction": 7961, "\u01201998": 7962, "oured": 7963, "\u0120beliefs": 7964, "\u012047": 7965, "\u0120Review": 7966, "\u0120legend": 7967, "\u0120pump": 7968, "\u0120McG": 7969, "\u0120backed": 7970, "\u0120liked": 7971, "\u0120hired": 7972, "idespread": 7973, "cription": 7974, "\u0120roles": 7975, "\u0120languages": 7976, "\u0120profession": 7977, "\u0120entering": 7978, "osa": 7979, "\u0120VR": 7980, "\u0120interviews": 7981, "\u0120hang": 7982, "iel": 7983, "isp": 7984, "\u0120tox": 7985, "\u0120philosophy": 7986, "eman": 7987, "\u0120Administration": 7988, "\u0120arrange": 7989, "\u0120Kir": 7990, "oen": 7991, "interest": 7992, "\u0120flaw": 7993, "\u0120Nob": 7994, "Those": 7995, "sylv": 7996, "imore": 7997, "\u0120stadium": 7998, "\u0120Atlanta": 7999, "\u0120Jac": 8000, "\u0120reduction": 8001, "\u0120dinner": 8002, "burgh": 8003, "\u0120bath": 8004, "\u0120Report": 8005, "uper": 8006, "\u0120magn": 8007, "\u0120Turkish": 8008, "iti": 8009, "\u0120aver": 8010, "\u0120finger": 8011, "\u0120Note": 8012, "\u0120Conference": 8013, "\u0120tackle": 8014, "\u0120cha": 8015, "\u0120gonna": 8016, "\u0120Diego": 8017, "\u0120Point": 8018, "\u0120crop": 8019, "\u0120Centre": 8020, "\u0120farmers": 8021, "\u0120Manchester": 8022, "\u0120nominee": 8023, "\u012041": 8024, "\u0120Arm": 8025, "aching": 8026, "\u0120Jason": 8027, "\u0120barely": 8028, "ATO": 8029, "\u0120structures": 8030, "\u0120contained": 8031, "\u0120synt": 8032, "\u0120Ott": 8033, "\u0120delivery": 8034, "ta": 8035, "%,": 8036, "\u0120processing": 8037, "\u0120discrimination": 8038, "\u0120convin": 8039, "\u0120incent": 8040, "riers": 8041, "\u0120Fair": 8042, "erved": 8043, "RS": 8044, "53": 8045, "then": 8046, "\u0120Data": 8047, "ca": 8048, "ja": 8049, "abinet": 8050, "\u0120intellectual": 8051, "Ed": 8052, "\u0120Radio": 8053, "amsung": 8054, "\u012046": 8055, "\u0120Bry": 8056, "\u0120OK": 8057, "\u0120Field": 8058, "\u0120Did": 8059, "\u0120upset": 8060, "\u0120Perhaps": 8061, "Me": 8062, "\u0120Education": 8063, "sylvania": 8064, "\u010a\u010a": 8065, "away": 8066, "\u0120Mir": 8067, "President": 8068, "\u0120challenging": 8069, "rik": 8070, "\u0120proven": 8071, "\u0120restrictions": 8072, "iy": 8073, "\u0120forever": 8074, "https": 8075, "olen": 8076, "\u0120electronic": 8077, "\u0120hitting": 8078, "\u0120Hay": 8079, "\u0120euro": 8080, "ho": 8081, "\u0120unex": 8082, "\u0120reviews": 8083, "\u0120Christians": 8084, "\u012043": 8085, "\u0120NC": 8086, "\u0120convicted": 8087, "Star": 8088, "\u0120illness": 8089, "\u0120smooth": 8090, "page": 8091, "Dav": 8092, "\u0120Hor": 8093, "\u0120retired": 8094, "\u0120indicated": 8095, "usive": 8096, "\u0120ham": 8097, "\u0120producing": 8098, "\u0120About": 8099, "\u0120Harry": 8100, "\u0120rapidly": 8101, "\u0120rose": 8102, "\u0120hide": 8103, "\u0120corporations": 8104, "fr": 8105, "\u0120ocean": 8106, "\u0120Rus": 8107, "aying": 8108, "owing": 8109, "\u0120listening": 8110, "\u0120Reuters": 8111, "\u0120UFC": 8112, "\u0120Sat": 8113, "\u0120technique": 8114, "\u0120mo": 8115, "yard": 8116, "sels": 8117, "\u0120loyal": 8118, "\u0120Nic": 8119, "\u0120Pen": 8120, "\u0120Mean": 8121, "lessly": 8122, "\u0120robot": 8123, "\u0120notion": 8124, "\u0120begun": 8125, "\u0120util": 8126, "\u0120Fed": 8127, "\u0120recognition": 8128, "ouver": 8129, "engers": 8130, "\u0120perpet": 8131, "\u0120association": 8132, "\u0120milk": 8133, "\u0120asks": 8134, "87": 8135, "\u0120websites": 8136, "\u0120ren": 8137, "\u0120description": 8138, "\u0120Pack": 8139, "inf": 8140, "\u0120tickets": 8141, "achus": 8142, "\u0120flash": 8143, "\u0120suggesting": 8144, "enny": 8145, "\u0120Judge": 8146, "\u0120exclusive": 8147, "\u0120reaching": 8148, "\u0120bra": 8149, "\u0120prepare": 8150, "\u0120Kansas": 8151, "Who": 8152, "ione": 8153, "\u0120bail": 8154, "\u0120frag": 8155, "\u0120progressive": 8156, "imm": 8157, "\u0120exceed": 8158, "\u0120equally": 8159, "\u0120Hard": 8160, "\u0120hardly": 8161, "\u0120widespread": 8162, "\u0120ABC": 8163, "\u0120campaigns": 8164, "\u0120Mayor": 8165, "\u0120contribute": 8166, "udes": 8167, "ologists": 8168, "\u0120branch": 8169, "Look": 8170, "\u0120Rose": 8171, "\u0120grass": 8172, "\u0120initiative": 8173, "\u0120Market": 8174, "\u0120ethnic": 8175, "\u0120external": 8176, "ikes": 8177, "\u0120Circ": 8178, "uma": 8179, "rient": 8180, "\u0120sensitive": 8181, "\u0120practical": 8182, "elf": 8183, "usted": 8184, "\u0120unclear": 8185, "\u0120normally": 8186, "Ref": 8187, "\u0120representative": 8188, "pat": 8189, "bec": 8190, "ls": 8191, "thon": 8192, "\u0120welf": 8193, "\u0120Full": 8194, "\u0120reducing": 8195, "appy": 8196, "lad": 8197, "\u0120friendly": 8198, "\u0120carefully": 8199, "\u0120Arabia": 8200, "\u0120Ref": 8201, "\u0120Ly": 8202, "89": 8203, "PM": 8204, "\u0120Luc": 8205, "\u0120racist": 8206, "\u0120invent": 8207, "rical": 8208, "ouch": 8209, "PG": 8210, "\u0120CO": 8211, "\u0120Next": 8212, "\u0120respectively": 8213, "senal": 8214, "rator": 8215, "\u0120tail": 8216, "\u0120McCain": 8217, "\u0120Bernie": 8218, "ancouver": 8219, "\u0120overwhelming": 8220, "\u0120viewers": 8221, "\u0120Beach": 8222, "stract": 8223, "\u0120welfare": 8224, "arrass": 8225, "\u0120Further": 8226, "\u0120convinced": 8227, "UN": 8228, "\u0120smoke": 8229, "umes": 8230, "\u0120collapse": 8231, "\u0120involvement": 8232, "\u0120Lind": 8233, "\u0120thrown": 8234, "pload": 8235, "\u0120connections": 8236, "heast": 8237, "\u0120terrorists": 8238, "\u0120Battle": 8239, "\u0120strategic": 8240, "\u0120hook": 8241, "\u0120recover": 8242, "\u0120Latin": 8243, "omething": 8244, "igrant": 8245, "\u0120Ont": 8246, "\u0120wine": 8247, "Mc": 8248, "inois": 8249, "\u0120Music": 8250, "rolled": 8251, "\u0120minds": 8252, "\u0120vital": 8253, "\u0120settlement": 8254, "\u0120statistics": 8255, "\u0120lists": 8256, "\u0120vary": 8257, "\u0120featuring": 8258, "\u0120ESPN": 8259, "ecut": 8260, "achusetts": 8261, "\u0120Sir": 8262, "\u0120behaviour": 8263, "\u0120independence": 8264, "\u0120Dig": 8265, "worth": 8266, "\u0120fantasy": 8267, "\u0120devast": 8268, "ester": 8269, "nedy": 8270, "core": 8271, "uties": 8272, "\u0120invited": 8273, "\u0120complaints": 8274, "\u0120joining": 8275, "\u0120scores": 8276, "\u0120fiscal": 8277, "\u0120deeper": 8278, "dem": 8279, "\u0120Pennsylvania": 8280, "ifest": 8281, "\u0120steal": 8282, "\u0120anger": 8283, "\u0120deputy": 8284, "\u0120elig": 8285, "\u0120wars": 8286, "\u0120Square": 8287, "\u0120investigate": 8288, "\u0120Tenn": 8289, "\u0120Town": 8290, "\u0120sugar": 8291, "\u0120constitutional": 8292, "\u0120III": 8293, "\u0120scholars": 8294, "\u0120Pit": 8295, "\u0120iOS": 8296, "\u0120anybody": 8297, "\u0120subjects": 8298, "\u0120AND": 8299, "\u0120array": 8300, "\u0120alien": 8301, "bn": 8302, "FA": 8303, "\u0120Ult": 8304, "\u0120Gov": 8305, "\u0120lobby": 8306, "\u0120ownership": 8307, "\u0120framework": 8308, "\u0120unemployment": 8309, "\u0120Division": 8310, "\u0120transgender": 8311, "\u0120SS": 8312, "\u0120improvements": 8313, "\u0120menu": 8314, "\u0120peak": 8315, "Back": 8316, "\u0120screens": 8317, "ihad": 8318, "\u0120inject": 8319, "\u0120luck": 8320, "iversary": 8321, "\u0120define": 8322, "\u0120tasks": 8323, "\u0120Xbox": 8324, "\u0120democratic": 8325, "\u0120scandal": 8326, "icking": 8327, "\u0120jury": 8328, "acon": 8329, "\u0120Anton": 8330, "\u0120Ministry": 8331, "Che": 8332, "\u0120cos": 8333, "\u0120comprehens": 8334, "osit": 8335, "\u0120Kat": 8336, "\u0120Es": 8337, "\u0120discovery": 8338, "unior": 8339, "\u0120register": 8340, "agg": 8341, "\u0120casual": 8342, "\u0120remem": 8343, "\u0120citizen": 8344, "\u0120fab": 8345, "RI": 8346, "Sm": 8347, "Under": 8348, "\u0120roads": 8349, "\u0120disagree": 8350, "\u0120failing": 8351, "\u0120Never": 8352, "\u0120Little": 8353, "\u0120Jay": 8354, "\u0120dynamic": 8355, "\u0120serves": 8356, "\u0120Cameron": 8357, "\u0120Brother": 8358, "\u0120Mah": 8359, "\u0120testim": 8360, "\u0120gathered": 8361, "\u0120Stone": 8362, "\u0120Information": 8363, "\u0120soph": 8364, "oding": 8365, "\u0120implemented": 8366, "\u0120controversy": 8367, "\u0120collective": 8368, "\u0120trained": 8369, "anna": 8370, "\u0120NSA": 8371, "\u0120neighbour": 8372, "\u0120fears": 8373, "leveland": 8374, "\u0120samples": 8375, "\u0120fiction": 8376, "\u0120prosec": 8377, "\u0120estimate": 8378, "\u0120Community": 8379, "\u0120Ice": 8380, "\u0120Medical": 8381, "\u01201997": 8382, "\u0120Philipp": 8383, "\u0120referring": 8384, "\u0120tip": 8385, "\u0120captain": 8386, "Will": 8387, "\u01201996": 8388, "\u0120spaces": 8389, "69": 8390, "cific": 8391, "\u0120trem": 8392, "\u0120Walker": 8393, "\u0120versus": 8394, "\u0120legs": 8395, "\u0120Santa": 8396, "\u0120temporary": 8397, "PC": 8398, "\u0120noise": 8399, "'.": 8400, "\u0120HD": 8401, "\u0120overt": 8402, "\u0120incorpor": 8403, "\u0120tone": 8404, "\u0120visitors": 8405, "\u0120reven": 8406, "\u0120civilians": 8407, "\u0120wages": 8408, "\u0120hypot": 8409, "aka": 8410, "\u0120sin": 8411, "\u0120remarks": 8412, "\u0120awareness": 8413, "\u0120ON": 8414, "\u0120Spring": 8415, "\u0120recommended": 8416, "\u0120stupid": 8417, "\u0120Allen": 8418, "\u0120heading": 8419, "\u0120handful": 8420, "umin": 8421, "\u0120regulation": 8422, "icket": 8423, "\u0120Action": 8424, "\u0120Core": 8425, "\u0120platforms": 8426, "\u0120accus": 8427, "\u0120Anthony": 8428, "mad": 8429, "\u0120affairs": 8430, "gener": 8431, "\u0120touchdown": 8432, "\u0120rural": 8433, "\u0120attacking": 8434, "\u0120extend": 8435, "\u0120ultimate": 8436, "\u0120attached": 8437, "\u0120Vegas": 8438, "\u0120discussions": 8439, "\u0120Ren": 8440, "\u0120horse": 8441, "\u0120Brew": 8442, "\u0120reprodu": 8443, "\u0120genetic": 8444, "\u0120expanded": 8445, "\u0120attempting": 8446, "phones": 8447, "\u0120Matthew": 8448, "\u0120races": 8449, "including": 8450, "iry": 8451, "\u0120Queen": 8452, "\u0120raw": 8453, "\u0120ignore": 8454, "\u0120Columbia": 8455, "serv": 8456, "\u0120Pent": 8457, "\u0120Guardian": 8458, "hour": 8459, "\u0120Cook": 8460, "\u0120iP": 8461, "itionally": 8462, "\u0120gear": 8463, "\u0120symptoms": 8464, "\u0120Patrick": 8465, "\u0120suffer": 8466, "\u0120settings": 8467, "\u0120Make": 8468, "alling": 8469, "\u0120salary": 8470, "case": 8471, "\u0120licens": 8472, "mary": 8473, "GO": 8474, "\u0120tweeted": 8475, "angel": 8476, "\u0120publication": 8477, "\u0120brill": 8478, "\u0120factory": 8479, "\u0120suspected": 8480, "\u0120purchased": 8481, "aret": 8482, "\u0120intervention": 8483, "\u0120eastern": 8484, "\u0120holiday": 8485, "type": 8486, "2014": 8487, "\u0120theat": 8488, "About": 8489, "\u0120displ": 8490, "esh": 8491, "\u0120ranked": 8492, "\u0120neck": 8493, "\u0120Conservative": 8494, "\u0120Austin": 8495, "\u0120Museum": 8496, "ective": 8497, "\u0120Roy": 8498, "\")": 8499, "\u0120cro": 8500, "\u0120Budd": 8501, "Sen": 8502, "\u0120enormous": 8503, "intendo": 8505, "\u0120cogn": 8506, "\u0120logic": 8507, "ultural": 8508, "ictions": 8509, "\u0120improvement": 8510, "\u0120API": 8511, "\u0120viewed": 8512, "\u0120ingred": 8513, "\u0120entertainment": 8514, "Ass": 8515, "\u0120legitimate": 8516, "\u0120Professor": 8517, "ommod": 8518, "\u0120presum": 8519, "\u0120Albert": 8520, "\u0120Massachusetts": 8521, "\u0120Ball": 8522, "\u01202019": 8523, "\u0120www": 8524, "News": 8525, "\u0120actors": 8526, "\u0120substantial": 8527, "\u0120humanity": 8528, "\u0120involves": 8529, "\u0120resource": 8530, "arms": 8531, "\u0120brothers": 8532, "\u0120liquid": 8533, "\u0120rational": 8534, "\u0120seemingly": 8535, "\u0120sorry": 8536, "\u0120layer": 8537, "\u0120loans": 8538, "\u0120rook": 8539, "\u0120investigating": 8540, "\u0120absence": 8541, "\u0120providers": 8542, "\u0120tomorrow": 8543, "\u0120fallen": 8544, "\u0120bureau": 8545, "\u0120grounds": 8546, "\u0120coaches": 8547, "\u0120stake": 8548, "\u0120resign": 8549, "\u0120outs": 8550, "rec": 8551, "\u0120advocates": 8552, "\u0120Ho": 8553, "\u0120\u00e2\u0124\u00ac": 8554, "RC": 8555, "\u0120investigators": 8556, "\u0120conspiracy": 8557, "Where": 8558, "\u0120medicine": 8559, "\u0120dramatic": 8560, "\u0120fulf": 8561, "\u0120monitor": 8562, "\u0120Chair": 8563, "EST": 8564, "repre": 8565, "\u0120overs": 8566, "\u0120chapter": 8567, "\u0120Season": 8568, "\u0120coc": 8569, "oval": 8570, "GE": 8571, "lah": 8572, ".-": 8573, "\u0120activist": 8574, "plete": 8575, "\u0120boat": 8576, "\u0120Check": 8577, "\u0120Control": 8578, "\u0120gam": 8579, "\u0120jur": 8580, "\u0120suspended": 8581, "\u0120papers": 8582, "Script": 8583, "\u0120Greece": 8584, "\u0120opinions": 8585, "\u0120Such": 8586, "\u0120Ross": 8587, "\u0120missile": 8588, "\u0120Golden": 8589, "\u0120celeb": 8590, "\u0120Revolution": 8591, "ped": 8592, "2016": 8593, "\u0120Ra": 8594, "\u0120Head": 8595, "\u0120stayed": 8596, "\u0120covers": 8597, "iverpool": 8598, "\u0120diversity": 8599, "otype": 8600, "\u0120bars": 8601, "Part": 8602, "Russ": 8603, "\u0120embarrass": 8604, "xit": 8605, "\u0120offices": 8606, "\u0120Acc": 8607, "rets": 8608, "ourse": 8609, "claim": 8610, "\u0120Pot": 8611, "\u0120Iranian": 8612, "\u0120disrupt": 8613, "cover": 8614, "\u0120WW": 8615, "\u0120preced": 8616, "\u0120poly": 8617, "\u0120forest": 8618, "wered": 8619, "\u0120careful": 8620, "reprene": 8621, "vard": 8622, "ila": 8623, "\u0120amid": 8624, "\u0120History": 8625, "\u0120mad": 8626, "hot": 8627, "quest": 8628, "\u0120Hospital": 8629, "isting": 8630, "ammed": 8631, "\u0120Ale": 8632, "\u0120authent": 8633, "\u0120Illinois": 8634, "\u0120CBS": 8635, "\u0120Sony": 8636, "uction": 8637, "79": 8638, "geon": 8639, "Related": 8640, "rine": 8641, "\u0120transportation": 8642, "\u0120Vancouver": 8643, "bi": 8644, "\u0120Gaza": 8645, "\u0120handed": 8646, "\u0120protocol": 8647, "\u0120consistently": 8648, "\u0120mountain": 8649, "\u012052": 8650, "\u0120Ap": 8651, "\u0120reads": 8652, "\u0120Stat": 8653, "\u0120pref": 8654, "\u0120clothes": 8655, "\u0120attitude": 8656, "iability": 8657, "\u0120Share": 8658, "\u0120Kennedy": 8659, "\u0120porn": 8660, "\u0120princip": 8661, "\u0120Freedom": 8662, "ses": 8663, "\u0120depends": 8664, "\u0120mining": 8665, "des": 8666, "\u0120petition": 8667, "\u0120noting": 8668, "\u0120warrant": 8669, "\u0120conce": 8670, "\u0120colors": 8671, "\u0120lowest": 8672, "\u0120Anderson": 8673, "\u0120Tri": 8674, "\u0120addressed": 8675, "\u0120Family": 8676, "72": 8677, "unes": 8678, "Ste": 8679, "\u0120entr": 8680, "\u0120Stadium": 8681, "xx": 8682, "\u0120throwing": 8683, "\u0120je": 8684, "74": 8685, "\u0120fruit": 8686, "\u0120virtually": 8687, "!)": 8688, "\u0120stone": 8689, "\u0120foss": 8690, "\u0120guarantee": 8691, "\u0120referend": 8692, "inch": 8693, "Both": 8694, "??": 8695, "\u0120speaks": 8696, "\u0120Baltimore": 8697, "\u0120steel": 8698, "\u0120closing": 8699, "itting": 8700, "\u0120reader": 8701, "dri": 8702, "FF": 8703, "\u0120buff": 8704, "\u0120personality": 8705, "\u0120Cre": 8706, "\u0120appreciate": 8707, "\u0120Iraqi": 8708, "\u0120surf": 8709, "\u0120Environment": 8710, "\u0120nerv": 8711, "iences": 8712, "maker": 8713, "keep": 8714, "\u0120handling": 8715, "\u0120profits": 8716, "ordon": 8717, "\u0120grav": 8718, "\u0120km": 8719, "\u0120marks": 8720, "low": 8721, "\u0120tries": 8722, "\u0120Broad": 8723, "\u0120contributions": 8724, "\u0120Engine": 8725, "ropri": 8726, "\u0120spiritual": 8727, "\u0120conversations": 8728, "\u0120fantastic": 8729, "\u0120Tro": 8730, "zed": 8731, "\u0120lands": 8732, "\u0120console": 8733, "\u0120horror": 8734, "ppers": 8735, "\".[": 8736, "icity": 8737, "\u0120gains": 8738, "\u0120covering": 8739, "\u0120tea": 8740, "ivals": 8741, "\u0120Harris": 8742, "Her": 8743, "\u0120hint": 8744, "\u0120astron": 8745, "aval": 8746, "\u0120shoulder": 8747, "scale": 8748, "\u0120wrest": 8749, "\u0120guest": 8750, "\u0120Ext": 8751, "\u0120accommod": 8752, "uted": 8753, "uits": 8754, "\u0120depression": 8755, "\u0120CA": 8756, "\u0120_": 8757, "\u0120Lewis": 8758, "\u0120lucky": 8759, "\u0120Bang": 8760, "\u0120encouraged": 8761, "flix": 8762, "amac": 8763, "\u0120judges": 8764, "\u0120incidents": 8765, "\u0120Cleveland": 8766, "\u0120drew": 8767, "\u0120subsequent": 8768, "\u0120spoken": 8769, "ira": 8770, "\u0120Howard": 8771, "annels": 8772, "\u0120Bad": 8773, "\u0120brown": 8774, "\u0120bacter": 8775, "Please": 8776, "ixed": 8777, "\u0120rhet": 8778, "\u0120ranks": 8779, "\u0120Getty": 8780, "\u0120photograp": 8781, "\u0120inflation": 8782, "\u0120inner": 8783, "\u0120Intelligence": 8784, "\u0120Po": 8785, "mat": 8786, "\u0120Ba": 8787, "\u0120maps": 8788, "abeth": 8789, "\u0120Patri": 8790, "ported": 8791, "ijing": 8792, "plate": 8793, "\u0120divided": 8794, "\u01201995": 8795, "\u0120NATO": 8796, "\u0120paralle": 8797, "\u0120drama": 8798, "\u0120Mexican": 8799, "\u0120distributed": 8800, "\u0120gal": 8801, "\u0120innovation": 8802, "unicip": 8803, "\u0120cust": 8804, "\u0120Unfortunately": 8805, "\u0120premium": 8806, "\u0120voter": 8807, "\u0120permit": 8808, "\u0120revel": 8809, "\u0120Kong": 8810, "\u0120dance": 8811, "pled": 8812, "\u0120Las": 8813, "\u0120swing": 8814, "\u0120efficiency": 8815, "\u0120promises": 8816, "\u0120Indeed": 8817, "Note": 8818, "\u0120CH": 8819, "\u0120Which": 8820, "\u0120ballot": 8821, "\u012051": 8822, "eding": 8823, "pie": 8824, "\u0120Adv": 8825, "\u0120temperatures": 8826, "\u0120Samsung": 8827, "\u0120portray": 8828, "\u0120spokesperson": 8829, "\u0120locked": 8830, "\u0120lying": 8831, "\u0120improving": 8832, "800": 8833, "\u0120threw": 8834, "\u0120joy": 8835, "\u0120dump": 8836, "Art": 8837, "\u0120musical": 8838, "PP": 8839, "\u0120mistakes": 8840, "dated": 8841, "\u0120shout": 8842, "\u0120Start": 8843, "\u0120homeless": 8844, "conf": 8845, "\u0120replacement": 8846, "eries": 8847, "\u0120comedy": 8848, "\u0120checks": 8849, "\u0120Without": 8850, "\u0120Moon": 8851, "\u0120instrument": 8852, "ounce": 8853, "\u0120Connect": 8854, "\u0120acknowledged": 8855, "\u0120barrel": 8856, "\u0120responses": 8857, "\u0120protecting": 8858, "backs": 8859, "\u0120Det": 8860, "\u00c2\u0134": 8861, "heim": 8862, "\u0120silver": 8863, "\u0120copies": 8864, "\u0120les": 8865, "\u0120AC": 8866, "\u0120dad": 8867, "\u0120breaks": 8868, "\u0120Plus": 8869, "\u0120Buff": 8870, "\u0120commonly": 8871, "\u0120lets": 8872, "\u0120legacy": 8873, "itage": 8874, "\u0120mathem": 8875, "\u0120protein": 8876, "\u0120joke": 8877, "amacare": 8878, "erted": 8879, "arre": 8880, "\u0120passengers": 8881, "2015": 8882, "\u0120yellow": 8883, "\u0120Marvel": 8884, "hop": 8885, "\u0120naturally": 8886, "Your": 8887, "\u0120Scient": 8888, "\u0120nomination": 8889, "Source": 8890, "\u0120measured": 8891, "aping": 8892, "alia": 8893, "\u0120Use": 8894, "\u0120abandoned": 8895, "oded": 8896, "\u0120Prince": 8897, "\u0120studied": 8898, "\u0120Football": 8899, "helsea": 8900, "\u0120diverse": 8901, "argo": 8902, "\u0120acquired": 8903, "ieties": 8904, "\u0120Lyn": 8905, "Cons": 8906, "esty": 8907, "\u0120soil": 8908, "\u0120Marsh": 8909, "\u0120demonstrated": 8910, "\u0120blast": 8911, "\u0120rear": 8912, "\u0120funded": 8913, "\u0120headquarters": 8914, "hesis": 8915, "\u0120stolen": 8916, "inians": 8917, "\u0120scan": 8918, "\u0120counts": 8919, "\u0120tape": 8920, "\u0120partnership": 8921, "\u0120midfield": 8922, "\u0120NOT": 8923, "yo": 8924, "\u0120(\u00e2\u0122\u013e": 8925, "\u0120upgrade": 8926, "\u0120Cost": 8927, "\u0120Atlantic": 8928, "\u0120march": 8929, "\u0120grid": 8930, "\u0120ordinary": 8931, "\u0120Aud": 8932, "\u0120Nev": 8933, "\u0120rom": 8934, "aware": 8935, "\u0120literature": 8936, "\u0120plain": 8937, "\u0120stages": 8938, "\u0120\u00e2\u0122\u00a2": 8939, "high": 8940, "\u0120assert": 8941, "\u01201994": 8942, "\u0120AI": 8943, "\u0120helpful": 8944, "\u0120arrive": 8945, "\u0120exit": 8946, "\u0120scope": 8947, "\u0120falls": 8948, "dog": 8949, "yer": 8950, "\u0120ignored": 8951, "BM": 8952, "\u0120twenty": 8953, "eters": 8954, "\u0120Master": 8955, "\u0120clock": 8956, "\u0120compe": 8957, "inction": 8958, "\u0120virus": 8959, "\u0120Trib": 8960, "\u0120referendum": 8961, "\u0120inequ": 8962, "\u0120unions": 8963, "\u0120Does": 8964, "erg": 8965, "assador": 8966, "\u0120Gun": 8967, "\u0120conservatives": 8968, "\u0120rif": 8969, "\u0120symp": 8970, "\u0120festival": 8971, "\u0120shopping": 8972, "\u0120fro": 8973, "\u0120waters": 8974, "\u0120Pop": 8975, "\u0120capabilities": 8976, "\u0120Bron": 8977, "\u0120ax": 8978, "zing": 8979, "lahoma": 8980, "\u0120usage": 8981, "\u0120Hind": 8982, "iate": 8983, "\u0120Empire": 8984, "aeda": 8985, "\u0120Indiana": 8986, "iley": 8987, "\u0120transactions": 8988, "\u0120hoped": 8989, "VE": 8990, "\u0120distract": 8991, "\u0120Ast": 8992, "\u0120guitar": 8993, "\u0120Eag": 8994, "\u0120Abb": 8995, "\u0120sty": 8996, "\u0120ramp": 8997, "\u0120assessment": 8998, "ctic": 8999, "\u0120universities": 9000, "\u0120Dave": 9001, "\u0120moon": 9002, "\u0120monitoring": 9003, "ormal": 9004, "acket": 9005, "bridge": 9006, "Facebook": 9007, "\u0120representing": 9008, "\u0120ratio": 9009, "\u0120Death": 9010, "encing": 9011, "ught": 9012, "\u0120Prov": 9013, "\u0120conventional": 9014, "comes": 9015, "UST": 9016, "orge": 9017, "\u0120trave": 9018, "ington": 9019, "\u0120Set": 9020, "\u0120tracking": 9021, "door": 9022, "ntil": 9023, "\u0120Sometimes": 9024, "only": 9025, "shire": 9026, "\u0120Sus": 9027, "\u0120hung": 9028, "\u0120reliable": 9029, "\u0120tie": 9030, "\u0120proposals": 9031, "\u0120skept": 9032, "\u0120Hell": 9033, "\u0120replied": 9034, "\u0120Ros": 9035, "fund": 9036, "\u0120criticized": 9037, "uh": 9038, "\u0120appearances": 9039, "62": 9040, "ecutive": 9041, "\u0120Ha": 9042, "\u0120racism": 9043, "ela": 9044, "\u0120Lim": 9045, "\u0120insisted": 9046, "organ": 9047, "rimin": 9048, "\u0120introduction": 9049, "\u01202020": 9050, "\u0120appointed": 9051, "dney": 9052, "\u0120Bureau": 9053, "olph": 9054, "agic": 9055, "\u0120Pass": 9056, "cut": 9057, "Ke": 9058, "\u0120Line": 9059, "\u0120beauty": 9060, "\u0120concrete": 9061, "\u0120receiver": 9062, "\u0120supplies": 9063, "\u0120performing": 9064, "made": 9065, "\u0120bub": 9066, "\u0120exch": 9067, "rite": 9068, "\u0120visiting": 9069, "\u0120Technology": 9070, "63": 9071, "\u0120Denver": 9072, "ocument": 9073, "EE": 9074, "\u0120Jam": 9075, "omes": 9076, "\u0120Capt": 9077, "theless": 9078, "RL": 9079, "\u0120letting": 9080, "\u0120swim": 9081, "AND": 9082, "\u0120deficit": 9083, "\u0120classified": 9084, "\u0120Galaxy": 9085, "aga": 9086, "\u0120auto": 9087, "\u0120render": 9088, "\u0120absor": 9089, "\u0120Orig": 9090, "\u0120accomplish": 9091, "\u0120programme": 9092, "\u0120presidency": 9093, "HT": 9094, "crib": 9095, "61": 9096, "\u0120blocked": 9097, "\u0120Sweden": 9098, "archy": 9099, "\u0120dust": 9100, "\u0120Utah": 9101, "\u0120drove": 9102, "\u0120landscape": 9103, "\u0120cance": 9104, "\u0120Portland": 9105, "plus": 9106, "\u0120dismissed": 9107, "\u0120LA": 9108, "\u0120hyper": 9109, "\u0120abroad": 9110, "\u0120bonus": 9111, "\u0120Tour": 9112, "har": 9113, "\u0120sequence": 9114, "\u0120predicted": 9115, "\u0120senator": 9116, "\u00c2\u00b0": 9117, "\u0120Age": 9118, "\u0120domain": 9119, "\u0120Code": 9120, "\u0120ec": 9121, "\u0120museum": 9122, "\u0120Associated": 9123, "acco": 9124, "\u0120warn": 9125, "\u0120persons": 9126, "NS": 9127, "ji": 9128, "\u0120dub": 9129, "\u0120requested": 9130, "\u0120trigger": 9131, "\u0120Ontario": 9132, "\u0120hockey": 9133, "\u0120Corpor": 9134, "iano": 9135, "\u0120artific": 9136, "\u0120dates": 9137, "\u0120testimony": 9138, "\u0120centers": 9139, "\u00d0\u00bb": 9140, "\u0120rocket": 9141, "irts": 9142, "\u0120ves": 9143, "\u0120transit": 9144, "\u0120congressional": 9145, "\u0120entitled": 9146, "ultane": 9147, "\u0120spokeswoman": 9148, "\u0120Front": 9149, "\u0120Nintendo": 9150, "\u0120Alexander": 9151, "\u0120rescue": 9152, "\u0120Cooper": 9153, "mony": 9154, "\u0120assign": 9155, "\u0120Bon": 9156, "\u0120equality": 9157, "\u0120patch": 9158, "\u0120urged": 9159, "\u0120bread": 9160, "\u0120Olympic": 9161, "\u0120documentary": 9162, "\u0120veterans": 9163, "\u0120clar": 9164, "fol": 9165, "\u0120Wik": 9166, "\u0120\u00e2\u0122\u013f": 9167, "king": 9168, "pton": 9169, "\u0120recall": 9170, "\u0120populations": 9171, "\u0120Low": 9172, "\u0120breath": 9173, "Still": 9174, "600": 9175, "rooms": 9176, "\u0120whenever": 9177, "\u0120violation": 9178, "\u0120tactics": 9179, "\u0120wider": 9180, "ounding": 9181, "93": 9182, "\u0120targeting": 9183, "Yet": 9184, "through": 9185, "\u0120pursue": 9186, "92": 9187, "\u0120salt": 9188, "\u0120lean": 9189, "Are": 9190, "izabeth": 9191, "\u0120firing": 9192, "94": 9193, "\u0120Kar": 9194, "\u0120Mill": 9195, "\u0120acid": 9196, "inating": 9197, "\u0120mole": 9198, "isons": 9199, "\u0120restaurants": 9200, "\u0120compare": 9201, "fare": 9202, "Comp": 9203, "dy": 9204, "orous": 9205, "ennis": 9206, "\u0120employed": 9207, "\u0120Roberts": 9208, "\u0120contrad": 9209, "\u0120Bible": 9210, "\u0120politically": 9211, "aver": 9212, "\u0120phrase": 9213, "\u0120satellite": 9214, "\u0120Cro": 9215, "\u0120survival": 9216, "\u0120retirement": 9217, "\u0120banking": 9218, "\u0120Form": 9219, "\u0120brilliant": 9220, "\u0120Girl": 9221, "atar": 9222, "\u0120channels": 9223, "71": 9224, "\u0120servers": 9225, "73": 9226, "\u0120Beijing": 9227, "\u0120soccer": 9228, "trans": 9229, "\u0120Mach": 9230, "they": 9231, "\u0120burden": 9232, "\u0120introduce": 9233, "\u0120experiments": 9234, "enez": 9235, "\u0120prisoners": 9236, "rapped": 9237, "\u0120cig": 9238, "\u0120WH": 9239, "afe": 9240, "jud": 9241, "\u0120fighter": 9242, "\u0120scientist": 9243, "OK": 9244, "\u0120YOU": 9245, "usalem": 9246, "\u0120List": 9247, "\u0120submit": 9248, "\u0120approached": 9249, "\u0120Award": 9250, "\u0120monthly": 9251, "\u0120Liverpool": 9252, "\u0120designs": 9253, "\u0120representatives": 9254, "\u0120titled": 9255, "ordinary": 9256, "\u0120quote": 9257, "\u0120popularity": 9258, "olves": 9259, "\u0120abilities": 9260, "oenix": 9261, "\u0120cul": 9262, "\u0120PD": 9263, "\u0120membership": 9264, "\u0120investigations": 9265, "\u0120focusing": 9266, "\u0120bab": 9267, "mans": 9268, "\u0120hosp": 9269, "\u0120Bridge": 9270, "Though": 9271, "\u0120Maryland": 9272, "\u0120saving": 9273, "bow": 9274, "\u0120rush": 9275, "\u0120Governor": 9276, "\u0120shadow": 9277, "ouri": 9278, "\u0120Hur": 9279, "\u0120Base": 9280, "\u0120objective": 9281, "berry": 9282, "\u0120Ted": 9283, "erts": 9284, "ederation": 9285, "\u0120mit": 9286, "\u0120prepar": 9287, "\u0120tips": 9288, "\u0120Was": 9289, "ele": 9290, "emed": 9291, "\u0120pipeline": 9292, "David": 9293, "\u0120childhood": 9294, "\u0120ratings": 9295, "\u0120thorough": 9296, "\u0120entreprene": 9297, "enter": 9298, "ais": 9299, "\u0120Vill": 9300, "\u0120Dutch": 9301, "was": 9302, "break": 9303, "\u0120actively": 9304, "\u0120Harvard": 9305, "\u0120pig": 9306, "\u0120demanding": 9307, "\u0120loose": 9308, "asty": 9309, "\u0120unexpected": 9310, "\u0120smoking": 9311, "\u0120smell": 9312, "\u0120deny": 9313, "CO": 9314, "don": 9315, "\u0120universal": 9316, "ika": 9317, "\u0120forecast": 9318, "\u0120argues": 9319, "\u0120phenomenon": 9320, "\u0120overseas": 9321, "\u0120settled": 9322, "olds": 9323, "walk": 9324, "\u0120Beck": 9325, "\u0120generations": 9326, "\u0120weekly": 9327, "\u0120chicken": 9328, "\u0120preparing": 9329, "\u012095": 9330, "\u0120smartphone": 9331, "\u0120producers": 9332, "\u0120butt": 9333, "\u0120PA": 9334, "\u0120legislative": 9335, "\u0120anxiety": 9336, "\u0120Have": 9337, "\u0120innocent": 9338, "minute": 9339, "\u0120Click": 9340, "\u0120mortg": 9341, "\u0120celebrate": 9342, "\u0120Ur": 9343, "\u0120provision": 9344, "Dem": 9345, "\u0120DO": 9346, "\u0120keys": 9347, "\u0120mini": 9348, "\u0120shame": 9349, "\u0120arguing": 9350, "\u0120Justin": 9351, "\u0120Design": 9352, "held": 9353, "\u0120questioned": 9354, "\u0120forcing": 9355, "\u0120Cow": 9356, "\u0120Hop": 9357, "ompson": 9358, "agh": 9359, "\u00e2\u0136": 9360, "\u0120broader": 9361, "\u0120encounter": 9362, "mers": 9363, "SL": 9364, "\u0120flags": 9365, "\u0120fool": 9366, "Sim": 9367, "\u0120fur": 9368, "\u0120mac": 9369, "\u012053": 9370, "\u0120deadly": 9371, "\u0120reverse": 9372, "oz": 9373, "\u0120weigh": 9374, "\u0120Edward": 9375, "\u0120Among": 9376, "\u0120tens": 9377, "\u0120~": 9378, "\u0120mos": 9379, "\u0120wealthy": 9380, "\u0120Obamacare": 9381, "\u0120unpre": 9382, "\u0120tab": 9383, "\u0120maintained": 9384, "eals": 9385, "\u0120surely": 9386, "\u0120shield": 9387, "\u0120Prop": 9388, "ocolate": 9389, "oret": 9390, "\u0120secondary": 9391, "\u0120savings": 9392, "isa": 9393, "irlf": 9394, "aved": 9395, "\u0120roof": 9396, "\u0120stability": 9397, "\u0120civilian": 9398, "\u00c4\u0125": 9399, "elson": 9400, "\u0120Carter": 9401, "\u0120reveals": 9402, "mind": 9403, "\u0120alarm": 9404, "\u0120anniversary": 9405, "\u0120sorts": 9406, "\u0120Bra": 9407, "\u0120Ak": 9408, "vernment": 9409, "El": 9410, "\u0120tonight": 9411, "\u0120releases": 9412, "\u0120Hon": 9413, "\u0120rooms": 9414, "irlfriend": 9415, "\u0120Gulf": 9416, "\u0120outrage": 9417, "\u0120prosecutors": 9418, "\u0120Left": 9419, "inals": 9420, "\u0120disorder": 9421, "84": 9422, "\u0120wedd": 9423, "\u0120exha": 9424, "orious": 9425, "isk": 9426, "\u0120shr": 9427, "\u0120relax": 9428, "\u0120windows": 9429, "\u0120threatening": 9430, "\u0120differently": 9431, "\u0120harassment": 9432, "\u0120quoted": 9433, "\u0120healthcare": 9434, "\u0120submitted": 9435, "\u0120arbit": 9436, "\u0120lunch": 9437, "step": 9438, "pa": 9439, "\u0120Run": 9440, "\u0120reforms": 9441, "\u0120torture": 9442, "rection": 9443, "\u0120fate": 9444, "\u0120stored": 9445, "\u0120Belg": 9446, "\u0120okay": 9447, "\u0120propaganda": 9448, "\u0120spots": 9449, "\u0120instructions": 9450, "\u0120Vietnam": 9451, "\u0120sevent": 9452, "\u0120rounds": 9453, "\u0120odds": 9454, "itter": 9455, "\u01201992": 9456, "\u0120aer": 9457, "html": 9458, "tenance": 9459, "\u0120errors": 9460, "\u0120Oklahoma": 9461, "\u0120hydro": 9462, "icism": 9463, "GA": 9464, "\u0120delic": 9465, "ailed": 9466, "\u0120Liberal": 9467, "\u0120silence": 9468, "\u0120Graham": 9469, "\u0120Sab": 9470, "ois": 9471, "acts": 9472, "\u0120Warren": 9473, "\u0120graduate": 9474, "\u0120affordable": 9475, "\u0120circle": 9476, "sect": 9477, "\u0120Bloom": 9478, "\u0120cooperation": 9479, "\u0120picks": 9480, "\u0120sear": 9481, "itary": 9482, "\u0120Sarah": 9483, "aa": 9484, "\u0120Fall": 9485, "ested": 9486, "orship": 9487, "\u0120Expl": 9488, "\u0120striking": 9489, "\u0120puzz": 9490, "\u0120persu": 9491, "\u0120streaming": 9492, "\u0120comprehensive": 9493, "race": 9494, "\u0120importantly": 9495, "\u0120cow": 9496, "\u0120possess": 9497, "Watch": 9498, "\u0120fing": 9499, "\u0120execution": 9500, "\u0120Ruby": 9501, "lined": 9502, "\u0120intim": 9503, "\u0120struggled": 9504, "\u0120Som": 9505, "\u0120Person": 9506, "\u0120assass": 9507, "\u0120Silver": 9508, "\u0120Leader": 9509, "uten": 9510, "ahu": 9511, "\u0120gent": 9512, "\u0120Price": 9513, "Reuters": 9514, "Ty": 9515, "ishop": 9516, "\u0120deserve": 9517, "\u0120Jerusalem": 9518, "\u0120landing": 9519, "\u0120calm": 9520, "\u0120alter": 9521, "\u0120ceremony": 9522, "\u0120assumed": 9523, "\u0120demonstrate": 9524, "\u0120difficulty": 9525, "\u0120ages": 9526, "\u0120pron": 9527, "\u0120dying": 9528, "\u0120hal": 9529, "\u0120distingu": 9530, "asury": 9531, "\u0120stepped": 9532, "\u0120borders": 9533, "\u0120chest": 9534, "ethe": 9535, "\u0120Wolf": 9536, "\u0120Lt": 9537, "\u0120Bud": 9538, "\u0120adventure": 9539, "\u0120pointing": 9540, "bury": 9541, "ova": 9542, "\u0120waves": 9543, "\u0120kilomet": 9544, "essee": 9545, "atern": 9546, "ierce": 9547, "\u0120Netflix": 9548, "\u0120autonom": 9549, "\u0120Ten": 9550, "\u0120precisely": 9551, "\u0120architecture": 9552, "\u0120greatly": 9553, "\u0120promising": 9554, "\u0120consent": 9555, "\u0120consideration": 9556, "\u0120Deb": 9557, "\u0120drives": 9558, "\u0120dialogue": 9559, "\u0120Main": 9560, "\u0120tremend": 9561, "asant": 9562, "\u0120newsletter": 9563, "\u0120rookie": 9564, "\u0120awarded": 9565, "\u0120Meanwhile": 9566, "after": 9567, "\u0120repeat": 9568, "\u0120Story": 9569, "\u0120contribution": 9570, "\u0120Tele": 9571, "\u0120burning": 9572, "83": 9573, "iev": 9574, "party": 9575, "\u0120simultane": 9576, "\u0120Scottish": 9577, "\u0120Vice": 9578, "\u0120donations": 9579, "\u0120Indust": 9580, "akh": 9581, "\u0120interf": 9582, "itol": 9583, "\u0120Magic": 9584, "\u0120voices": 9585, "\u0120analyst": 9586, "\u0120Bruce": 9587, "\u0120Tech": 9588, "ceptions": 9589, "\u0120gif": 9590, "\u0120frequency": 9591, "\u0120Common": 9592, "\u0120procedure": 9593, "\u0120wanting": 9594, "\u0120Pres": 9595, "\u0120executives": 9596, "\u0120playoffs": 9597, "oice": 9598, "\u0120staying": 9599, "apolis": 9600, "\u0120birds": 9601, "\u0120bias": 9602, "VD": 9603, "\u0120Hong": 9604, "\u0120Az": 9605, "izer": 9606, "\u0120inches": 9607, "\u0120trillion": 9608, "omy": 9609, "holders": 9610, "ds": 9611, "\u0120highlights": 9612, "\u0120semi": 9613, "\u0120remarkable": 9614, "\u0120whereas": 9615, "EX": 9616, "ributes": 9617, "\u0120Palestinians": 9618, "\u0120knee": 9619, "open": 9620, "\u0120Jonathan": 9621, "raig": 9622, "\u0120implications": 9623, "scribe": 9624, "\u0120formation": 9625, "\u0120superior": 9626, "\u0120strategies": 9627, "\u0120ans": 9628, "itual": 9629, "\u0120Berlin": 9630, "Step": 9631, "div": 9632, "\u0120Link": 9633, "stal": 9634, "\u0120Sydney": 9635, "lee": 9636, "\u0120MORE": 9637, "\u0120categories": 9638, "\u0120Ark": 9639, "\u0120fet": 9640, "\u0120followers": 9641, "\u0120cream": 9642, "Story": 9643, "portation": 9644, "FO": 9645, "\u0120contacted": 9646, "Ms": 9647, "\u0120judgment": 9648, "annon": 9649, "\u0120smile": 9650, "bered": 9651, "\u0120info": 9652, "\u0120emerging": 9653, "igious": 9654, "rif": 9655, "js": 9656, "onder": 9657, "vision": 9658, "\u0120Eff": 9659, "vertisements": 9660, "iffs": 9661, "hatt": 9662, "\u0120accessible": 9663, "yes": 9664, "TP": 9665, "\u0120physically": 9666, "\u0120assigned": 9667, "\u012054": 9668, "\u0120Andre": 9669, "\u0120guidelines": 9670, "\u0120defeated": 9671, "\u0120crimin": 9672, "\u0120wounded": 9673, "\u0120trials": 9674, "\u0120stem": 9675, "\u0120managing": 9676, "\u0120spell": 9677, "\u0120ministry": 9678, "\u0120grade": 9679, "\u0120coinc": 9680, "\u0120riding": 9681, "\u0120indicates": 9682, "\u0120centuries": 9683, "Christ": 9684, "cest": 9685, "\u0120Affairs": 9686, "\u0120opens": 9687, "aki": 9688, "\u0120pharm": 9689, "lla": 9690, "\u0120meaningful": 9691, "omed": 9692, "\u0120tiss": 9693, "erent": 9694, "\u0120Mrs": 9695, "\u0120ease": 9696, "child": 9697, "\u0120margin": 9698, "\u0120Store": 9699, "\u0120clothing": 9700, "\u0120Tes": 9701, "\u0120\u00e2\u012a\u0134": 9702, "\u0120Six": 9703, "\u0120Capital": 9704, "\u0120participation": 9705, "cedented": 9706, "Mus": 9707, "\u0120revers": 9708, "aria": 9709, "\u0120poison": 9710, "\u0120Brexit": 9711, "\u0120120": 9712, "\u0120Yemen": 9713, "\u0120lapt": 9714, "iac": 9715, "\u0120competing": 9716, "\u0120memories": 9717, "\u0120CS": 9718, "\u0120theories": 9719, "\u0120recipe": 9720, "\u0120gross": 9721, "umble": 9722, "author": 9723, "hard": 9724, "\u0120passage": 9725, "\u0120aged": 9726, "\u0120Credit": 9727, "\u0120bin": 9728, "\u0120drone": 9729, "\u0120blank": 9730, "\u0120dispute": 9731, "van": 9732, "\u0120damaged": 9733, "\u01201993": 9734, "\u0120Hamilton": 9735, "\u0120Lam": 9736, "base": 9737, "\u0120substance": 9738, "\u0120hosted": 9739, "TER": 9740, "Google": 9741, "\u0120Chelsea": 9742, "\u0120promoting": 9743, "\u0120facilit": 9744, "\u0120openly": 9745, "\u0120Instagram": 9746, "\u01201950": 9747, "\u0120Vik": 9748, "View": 9749, "\u0120Children": 9750, "\u0120Crime": 9751, "sl": 9752, "\u0120clinical": 9753, "Out": 9754, "\u0120nic": 9755, "bits": 9756, "eremy": 9757, "\u0120Hold": 9758, "even": 9759, "\u0120investments": 9760, "\u0120consensus": 9761, "igate": 9762, "\u0120Leon": 9763, "\u0120Fal": 9764, "\u012099": 9765, "\u0120educational": 9766, "const": 9767, "\u0120dish": 9768, "\u0120manifest": 9769, "\u0120custody": 9770, "ito": 9771, "week": 9772, "\u0120eligible": 9773, "\u0120Hawai": 9774, "\u0120legally": 9775, "\u0120missions": 9776, "\u0120endorse": 9777, "eria": 9778, "\u0120gate": 9779, "\u0120memo": 9780, "\u0120GT": 9781, "\u0120tables": 9782, "\u0120Pict": 9783, "\u0120nin": 9784, "\u0120studying": 9785, "Hz": 9786, "\u0120?": 9787, "\u0120charity": 9788, "aration": 9789, "\u0120addresses": 9790, "adi": 9791, "\u0120inspect": 9792, "\u0120discount": 9793, "rix": 9794, "left": 9795, "\u0120battles": 9796, "ALL": 9797, "\u0120Der": 9798, "\u0120250": 9799, "\u0120Assembly": 9800, "\u0120athletes": 9801, "Pre": 9802, "\u0120Trade": 9803, "\u0120fossil": 9804, "\u0120enthusi": 9805, "\u0120Management": 9806, "\u0120suspects": 9807, "\u0120tired": 9808, "\u0120helic": 9809, "Act": 9810, "\u0120counterpart": 9811, "\u0120na": 9812, "82": 9813, "achel": 9814, "\u0120dating": 9815, "\u0120Eth": 9816, "\u0120spectrum": 9817, "\u0120Metro": 9818, "ateral": 9819, "\u0120Station": 9820, "\u0120Bal": 9821, "\u0120presentation": 9822, "\u0120lux": 9823, "gered": 9824, "\u0120bottle": 9825, "\u0120tap": 9826, "arts": 9827, "riors": 9828, "\u0120vig": 9829, "\u0120fundra": 9830, "\u0120enhance": 9831, "assy": 9832, "\u0120Sean": 9833, "\u0120therapy": 9834, "\u0120Wales": 9835, "\u0120Exper": 9836, "\u0120perceived": 9837, "market": 9838, "\u0120Tok": 9839, "\u0120dominant": 9840, "Def": 9841, "math": 9842, "\u0120backing": 9843, "\u0120Festival": 9844, "\u0120underlying": 9845, "\u0120defending": 9846, "\u0120Through": 9847, "\u0120racing": 9848, "\u0120discussing": 9849, "\u0120expanding": 9850, "\u0120muscle": 9851, "\u0120stops": 9852, "uz": 9853, "\u0120beings": 9854, "\u0120Marx": 9855, "\u0120Equ": 9856, "\u0120transaction": 9857, "rows": 9858, "\u0120Uber": 9859, "Cal": 9860, "\u0120recruit": 9861, "itudes": 9862, "acher": 9863, "\u0120Gary": 9864, "\u0120mood": 9865, "\u0120picking": 9866, "lando": 9867, "ylum": 9868, "player": 9869, "\u0120managers": 9870, "orable": 9871, "\u0120gathering": 9872, "\u0120hopefully": 9873, "angle": 9874, "\u0120Son": 9875, "alysis": 9876, "\u0120Video": 9877, "section": 9878, "\u0120crus": 9879, "\u0120Libya": 9880, "\u0120impression": 9881, "\u0120hip": 9882, "olar": 9883, "\u00c3\u00a2": 9884, "\u0120scrut": 9885, "\u0120roy": 9886, "\u0120Tai": 9887, "igenous": 9888, "\u0120institution": 9889, "\u0120Batman": 9890, "}}": 9891, "\u0120stere": 9892, "\u0120procedures": 9893, "\u00c3\u00b1": 9894, "\u0120pocket": 9895, "\u0120creatures": 9896, "\u0120compat": 9897, "\u0120arrival": 9898, "ptions": 9899, "oln": 9900, "watch": 9901, "\u0120Boe": 9902, "\u0120eager": 9903, "\u0120pollution": 9904, "iture": 9905, "\u0120foods": 9906, "\u0120kitchen": 9907, "ocial": 9908, "\u0120recre": 9909, "\u0120surviv": 9910, "roph": 9911, "\u0120organic": 9912, "\u0120Pentagon": 9913, "\u0120Morgan": 9914, "\u0120shipping": 9915, "\u0120capitalism": 9916, "\u0120insult": 9917, "\u0120timing": 9918, "odox": 9919, "\u0120requirement": 9920, "sub": 9921, "\u0120unfair": 9922, "aders": 9923, "\u0120mice": 9924, "\u012056": 9925, "\u0120Assad": 9926, "\u0120Represent": 9927, "\u0120Mess": 9928, "\u0120MLS": 9929, "Mod": 9930, "Rem": 9931, "atively": 9932, "\u0120Elizabeth": 9933, "\u0120Op": 9934, "\u0120diseases": 9935, "\u0120industries": 9936, "\u0120Oakland": 9937, "\u0120bowl": 9938, "\u0120Murray": 9939, "\u0120Creat": 9940, "\u0120helicop": 9941, "\u0120divor": 9942, "agger": 9943, "\u0120beach": 9944, "\u0120punishment": 9945, "abet": 9946, "\u0120shell": 9947, "\u0120fled": 9948, "\u0120hospitals": 9949, "missions": 9950, "\u0120tons": 9951, "\u0120Kick": 9952, "\u0120seed": 9953, "ogy": 9954, "AF": 9955, "81": 9956, "\u0120Comey": 9957, "opyright": 9958, "\u0120statist": 9959, "\u0120engineers": 9960, "\u0120obsc": 9961, "\u0120hire": 9962, "\u0120module": 9963, "Reg": 9964, "AY": 9965, "\u0120coaching": 9966, "amous": 9967, "\u0120sed": 9968, "oca": 9969, "\u0120answered": 9970, "rac": 9971, "SC": 9972, "TR": 9973, "\u0120graphics": 9974, "\u0120regulatory": 9975, "\u0120sovere": 9976, "\u0120stance": 9977, "alties": 9978, "\u0120bow": 9979, "\u0120Keep": 9980, "Click": 9981, "\u0120explaining": 9982, "\u0120rhetoric": 9983, "\u0120beating": 9984, "\u0120tut": 9985, "\u0120Friend": 9986, "\u0120Email": 9987, "rior": 9988, "\u0120Yeah": 9989, "emic": 9990, "\u0120Mit": 9991, "\u0120acknowledge": 9992, "\u0120Michel": 9993, "\u0120principal": 9994, "\u0120pulling": 9995, "erves": 9996, "\u0120signature": 9997, "brid": 9998, "olving": 9999, "\u0120convince": 10000, "\u0120Roll": 10001, "\u0120variable": 10002, "cosystem": 10003, "\u0120pill": 10004, "\u0120searching": 10005, "\u0120Ox": 10006, "\u0120dies": 10007, "\u0120overcome": 10008, "\u0120preferred": 10009, "duction": 10010, "\u0120sixth": 10011, "\u0120adviser": 10012, "\u0120Tennessee": 10013, "\u0120!": 10014, "\u0120trends": 10015, "\u0120Russell": 10016, "\u0120(\"": 10017, "\u0120Thompson": 10018, "\u0120merch": 10019, "\u0120rebels": 10020, "\u0120interaction": 10021, "\u0120periods": 10022, "Ge": 10023, "\u0120psychological": 10024, "Mich": 10025, "\u0120Sure": 10026, "\u0120Using": 10027, "\u0120economics": 10028, "\u0120Charlie": 10029, "\u0120Bi": 10030, "\u0120outlets": 10031, "\u0120Gil": 10032, "\u0120Intel": 10033, "\u0120signals": 10034, "pg": 10035, "\u0120echo": 10036, "\u0120Executive": 10037, "\u0120Kentucky": 10038, "\u0120tempor": 10039, "\u0120billions": 10040, "\u0120lineup": 10041, "\u0120math": 10042, "\u0120Yan": 10043, "urg": 10044, "2013": 10045, "\u01201991": 10046, "\u0120setup": 10047, "\u0120rend": 10048, "Finally": 10049, "netic": 10050, "\u0120eggs": 10051, "Comm": 10052, "\u0120segment": 10053, "\u0120arr": 10054, "ui": 10055, "mic": 10056, "\u0120badly": 10057, "kee": 10058, "\u0120Li": 10059, "\u0120sentenced": 10060, "\u0120everyday": 10061, "\u0120Dragon": 10062, "\u0120commander": 10063, "\u0120Holl": 10064, "\u0120AN": 10065, "\u0120loves": 10066, "unicipal": 10067, "\u0120genes": 10068, "NBC": 10069, "\u0120bold": 10070, "\u0120requiring": 10071, "\u0120bullet": 10072, "\u0120invasion": 10073, "will": 10074, "\u0120partly": 10075, "\u0120escal": 10076, "91": 10077, "\u0120instant": 10078, "\u0120gig": 10079, "\u0120Jean": 10080, "check": 10081, "!!!": 17637, "\u0120arts": 10083, "\u0120gene": 10084, "\u0120removal": 10085, "\u0120undert": 10086, "\u0120upload": 10087, "liest": 10088, "\u0120Hart": 10089, "\u0120topics": 10090, "\u0120Iron": 10091, "enezuel": 10092, "\u0120inquiry": 10093, "\u0120amendment": 10094, "\u0120weakness": 10095, "\u0120Rather": 10096, "\u0120concepts": 10097, "news": 10098, "\u0120McK": 10099, "PL": 10100, "\u0120shoes": 10101, "arted": 10102, "\u0120Sound": 10103, "rer": 10104, "\u0120fabric": 10105, "izza": 10106, "\u0120Delhi": 10107, "Earlier": 10108, "tsburgh": 10109, "\u0120frequent": 10110, "\u0120sections": 10111, "\u0120occurs": 10112, "\u0120Ze": 10113, "oli": 10114, "\u0120migrants": 10115, "\u0120compensation": 10116, "\u0120engineer": 10117, "eness": 10118, "\u0120lad": 10119, "has": 10120, "\u0120Finally": 10121, "\u0120fo": 10122, "\u0120attractive": 10123, "\u0120Box": 10124, "\u0120unve": 10125, "cor": 10126, "\u0120).": 10127, "\u0120citing": 10128, "\u0120tweets": 10129, "\u0120utility": 10130, "arency": 10131, "grade": 10132, "\u0120posting": 10133, "\u0120ridiculous": 10134, "\u0120blockchain": 10135, "\u0120cler": 10136, "\u0120Clark": 10137, "\u0120speaker": 10138, "\u00e2\u0136\u0122": 10139, "\u0120diam": 10140, "\u00d8\u00a7": 10141, "\u0120corrupt": 10142, "\u0120talented": 10143, "\u0120lect": 10144, "\u0120collaps": 10145, "\u0120mask": 10146, "\u00e2\u0122\u0132": 10147, "necess": 10148, "screen": 10149, "\u0120notable": 10150, "\u0120Therefore": 10151, "\u0120elder": 10152, "\u0120genre": 10153, "instein": 10154, "\u0120deadline": 10155, "\u0120rolling": 10156, "\u0120carries": 10157, "\u0120BM": 10158, "Top": 10159, "\u0120Final": 10160, "via": 10161, "\u0120ET": 10162, "ental": 10163, "\u0120approaches": 10164, "\u0120eliminate": 10165, "\u0120Priv": 10166, "\u0120analysts": 10167, "\u0120sits": 10168, "\u0120cens": 10169, "State": 10170, "\u0120instances": 10171, "\u0120Simon": 10172, "\u0120publishing": 10173, "\u0120unprecedented": 10174, "\u0120colour": 10175, "\u0120roots": 10176, "\u0120Phoenix": 10177, "VP": 10178, "\u0120cock": 10179, "\u0120bene": 10180, "\u0120Dur": 10181, "\u0120Psych": 10182, "\u0120toxic": 10183, "gus": 10184, "\u0120collaboration": 10185, "\u0120arc": 10186, "\u0120inequality": 10187, "\u0120neighbors": 10188, "\u0120insight": 10189, "\u0120dramatically": 10190, "\u0120Harper": 10191, "\u0120homosexual": 10192, "\u0120towns": 10193, "\u0120prize": 10194, "\u0120extraordinary": 10195, "\u0120perception": 10196, "\u0120Gordon": 10197, "\u0120Whether": 10198, "\u0120Phill": 10199, "\u0120parad": 10200, "arget": 10201, "\u0120gest": 10202, "\u0120maintenance": 10203, "owski": 10204, "\u0120GO": 10205, "\u0120Gro": 10206, "\u0120cheaper": 10207, "isdom": 10208, "\u0120associate": 10209, "die": 10210, "\u0120coup": 10211, "Mark": 10212, "\u0120Event": 10213, "\u0120sheet": 10214, "\u0120Bow": 10215, "\u0120Below": 10216, "\u0120distur": 10217, "\u0120Sav": 10218, "\u0120Captain": 10219, "pack": 10220, "\u0120cognitive": 10221, "\u0120encouraging": 10222, "\u0120dreams": 10223, "\u0120Pers": 10224, "\u0120seized": 10225, "\u0120interviewed": 10226, "\u0120deployed": 10227, "\u0120violations": 10228, "\u0120camps": 10229, "\u0120comics": 10230, "\u0120constitu": 10231, "\u0120Reagan": 10232, "\u0120glad": 10233, "\u0120reserved": 10234, "\u0120buck": 10235, "\u0120employers": 10236, "atus": 10237, "\u0120aims": 10238, "\u0120functional": 10239, "\u0120Sa": 10240, "\u0120mystery": 10241, "\u0120displayed": 10242, "Paul": 10243, "iban": 10244, "\u0120span": 10245, "\u0120loop": 10246, "apore": 10247, "\u0120delight": 10248, "cre": 10249, "\u0120traged": 10250, "\u0120Economic": 10251, "ixture": 10252, "\u012057": 10253, "ricane": 10254, "\u0120occasionally": 10255, "\u0120vend": 10256, "\u0120Sud": 10257, "\u0120export": 10258, "TON": 10259, "\u0120birthday": 10260, "\u0120heroes": 10261, "wa": 10262, "\u0120fatal": 10263, "estyle": 10264, "oga": 10265, "\u0120correctly": 10266, "\u0120Stew": 10267, "\u0120prompted": 10268, "\u0120stamp": 10269, "\u0120Cole": 10270, "elle": 10271, "\u0120contemporary": 10272, "\u0120Access": 10273, "\u0120Jenn": 10274, "\u0120prospects": 10275, "oting": 10276, "\u0120Ve": 10277, "\u0120irre": 10278, "AB": 10279, "\u0120recommendations": 10280, "\u0120diplomatic": 10281, "throp": 10282, "\u0120pa": 10283, "ighth": 10284, "mir": 10285, "\u0120bell": 10286, "\u0120parallel": 10287, "\u0120exclud": 10288, "eling": 10289, "\u0120constitution": 10290, "onz": 10291, "\u0120disappointed": 10292, "\u0120manufacturers": 10293, "\u0120adequ": 10294, "\u0120intr": 10295, "\u0120Staff": 10296, "\u0120moderate": 10297, "\u0120Ever": 10298, "\u0120Dog": 10299, "ols": 10300, "\u0120ecosystem": 10301, "\u0120accompan": 10302, "Time": 10303, "\u0120demanded": 10304, "vi": 10305, "\u012085": 10306, "\u0120GDP": 10307, "\u0120Photos": 10308, "\u0120nose": 10309, "\u0120Montreal": 10310, "\u0120Dick": 10311, "ailable": 10312, "\u0120interpre": 10313, "endar": 10314, "\u0120pleased": 10315, "2017": 10316, "rowing": 10317, "\u0120labour": 10318, "\u0120lifetime": 10319, "\u0120Brooklyn": 10320, "\u0120Tax": 10321, "\u0120Est": 10322, "\u0120Reserve": 10323, "rock": 10324, "\u0120communicate": 10325, "\u0120fights": 10326, "\u0120modified": 10327, "non": 10328, "\u0120drunk": 10329, "\u0120Ocean": 10330, "\u0120sessions": 10331, "\u0120wedding": 10332, "\u0120knock": 10333, "\u0120explosion": 10334, "\u0120Library": 10335, "\u0120biological": 10336, "\u0120repair": 10337, "\u0120landed": 10338, "\u0120EPA": 10339, "\u012058": 10340, "\u0120Authority": 10341, "\u0120subsc": 10342, "\u0120representation": 10343, "\u0120Given": 10344, "\u0120artificial": 10345, "250": 10346, "leans": 10347, "fit": 10348, "Fi": 10349, "\u0120relation": 10350, "\u0120owns": 10351, "ixon": 10352, "\u0120Khan": 10353, "\u0120Antonio": 10354, "\u0120Digital": 10355, "\u0120lift": 10356, "agen": 10357, "\u0120designer": 10358, "rot": 10359, "\u0120recon": 10360, "Thanks": 10361, "\u0120emp": 10362, "\u0120consciousness": 10363, "\u0120kicked": 10364, "\u0120Order": 10365, "\u0120defender": 10366, "\u0120hanging": 10367, "\u0120lessons": 10368, "hist": 10369, "\u0120imposed": 10370, "\u0120guests": 10371, "\u0120adopt": 10372, "\u0120anonymous": 10373, "150": 10374, "\u0120sli": 10375, "\u0120concerning": 10376, "wind": 10377, "\u0120pregnant": 10378, "\u0120Five": 10379, "incoln": 10380, "\u0120Bul": 10381, "\u0120underground": 10382, "\u0120maintaining": 10383, "\u0120asset": 10384, "acre": 10385, "\u0120Alan": 10386, "\u0120punch": 10387, "\u0120Rome": 10388, "bourne": 10389, "\u0120shirt": 10390, "\u0120ingredients": 10391, "Update": 10392, "\u0120cheese": 10393, "\u0120intellig": 10394, "isition": 10395, "\u0120Channel": 10396, "\u0120Convention": 10397, "\u0120podcast": 10398, "\u0120interior": 10399, "graph": 10400, "\":\"": 10401, "\u0120emotions": 10402, "ching": 10403, "human": 10404, "\u0120abstract": 10405, "\u0120Argent": 10406, "\u0120couples": 10407, "\u0120lesson": 10408, "\u0120creature": 10409, "\u0120resolve": 10410, "\u0120shocked": 10411, "\u0120oppose": 10412, "Whe": 10413, "\u0120summit": 10414, "\u0120performances": 10415, "\u0120SU": 10416, "\u0120volunteers": 10417, "\u0120Burn": 10418, "Dis": 10419, "\u0120Bol": 10420, "\u0120soldier": 10421, "\u00d1\u0125": 10422, "some": 10423, "\u0120stimul": 10424, "\u0120logo": 10425, "\u00e0\u00a4": 10426, "appropri": 10427, "istant": 10428, "\u0120terr": 10429, "ben": 10430, "\u0120vocal": 10431, "\u0120accum": 10432, "\u0120girlfriend": 10433, "\u0120Protection": 10434, "ulty": 10435, "\u0120jumped": 10436, "\u0120annoy": 10437, "\u0120Page": 10438, "wed": 10439, "\u0120jihad": 10440, "\u0120mile": 10441, "\u0120nurs": 10442, "SE": 10443, "\u0120Lear": 10444, "dr": 10445, "\u0120600": 10446, "\u0120militants": 10447, "acles": 10448, "(\"": 10449, "user": 10450, "\u0120guid": 10451, "\u0120Fant": 10452, "\u0120Missouri": 10453, "\u0120professionals": 10454, "Gener": 10455, "\u0120Anna": 10456, "Instead": 10457, "ikh": 10458, "ials": 10459, "\u0120butter": 10460, "\u0120swit": 10461, "\u0120refers": 10462, "\u0120desktop": 10463, "\u0120traveling": 10464, "\u0120libr": 10465, "gets": 10466, "\u0120isolated": 10467, "\u0120forum": 10468, "\u0120advocate": 10469, "\u0120existed": 10470, "\u0120opposing": 10471, "\u0120Coal": 10472, "\u0120recalled": 10473, "\u00e2\u0122\u00a6.": 10474, "Next": 10475, "Station": 10476, "\u0120Case": 10477, "Israel": 10478, "\u0120integration": 10479, "\u0120describing": 10480, "\u0120boxes": 10481, "\u0120JavaScript": 10482, "\u0120Orleans": 10483, "early": 10484, "\u0120stro": 10485, "CD": 10486, "\u0120Mail": 10487, "\u0120minimal": 10488, "\u0120Hal": 10489, "tainment": 10490, "\u0120confused": 10491, "\u0120Custom": 10492, "\u0120SD": 10493, "umph": 10494, "\u0120peaceful": 10495, "\u0120inherent": 10496, "odge": 10497, "\u0120surrounded": 10498, "\u0120vert": 10499, "cal": 10500, "sa": 10501, "gate": 10502, "owned": 10503, "\u0120Capitol": 10504, "hattan": 10505, "\u0120Hand": 10506, "commun": 10507, "\u0120holes": 10508, "\u0120meal": 10509, "\u01201989": 10510, "\u0120integrity": 10511, "\u0120Know": 10512, "\u0120Player": 10513, "siss": 10514, "\u0120Barb": 10515, "\u0120pm": 10516, "\u0120inspiration": 10517, "\u0120configuration": 10518, "\u0120sne": 10519, "\u0120Trust": 10520, "\u0120Rs": 10521, "hero": 10522, "\u00f0\u0141": 10523, "\u0120expense": 10524, "issis": 10525, "\u0120credits": 10526, "\u0120Non": 10527, "abe": 10528, "\u0120Ban": 10529, "\u0120subur": 10530,
[...]
